[PAD]
[UNK]
[CLS]
[SEP]
[MASK]
'
,
.
0
1
2
3
4
5
6
7
8
9
;
?
_
a
b
c
d
e
f
g
h
i
j
k
l
m
n
o
p
q
r
s
t
u
v
w
x
y
z
##k
##i
##f
##u
##n
##g
##r
##a
##z
##o
##m
##4
##8
##5
##2
##6
##e
##t
##b
##y
##s
##h
##p
##c
##v
##w
##0
##d
##j
##l
##q
##3
##9
##7
##1
##x
##an
##ri
##ra
mu
##ga
##ba
##re
##sh
ku
##wa
##ya
##ye
##ko
ba
##in
##ma
##ka
##we
##za
##mu
##it
ya
##yo
##gi
##ge
##ru
##bi
##bu
##zi
##go
##da
##bo
##ze
##ta
##yi
##se
umu
##ki
##tu
##ro
ko
##ku
##me
##te
gu
in
aba
bi
##ho
##gu
##di
##si
##ana
##ha
im
na
wa
##wi
##ti
##vu
ubu
##he
##yu
ama
##ban
##hu
##be
bu
ha
##je
##sha
##yan
##wan
##mo
ni
muri
##sa
##wo
##ite
##ran
##de
ka
ari
##li
##on
##tan
##shi
##rwa
ibi
ki
##fa
##ke
ru
ma
ib
##mwe
##en
##wanda
##gan
gi
##mi
aban
##tse
##han
igi
##du
##zo
##so
##gira
iki
##ita
##kin
##to
ngo
##mba
kan
cyan
##vuga
rwanda
##kuru
##gen
##bwo
yo
##bere
##na
##fu
##hi
##hugu
ga
##gwa
##kan
ic
20
no
##gara
bya
##zwe
uru
kuri
aka
##san
##sho
##kore
cya
nta
##fite
tu
##nge
kandi
##ne
##le
zi
##men
##shin
we
##va
uko
mi
##cu
##bwa
kwi
##yobo
##kome
##kun
##su
imi
ariko
hari
##giye
kuba
##ts
##ce
##rere
##pe
##zu
##do
##ina
by
nde
za
kuko
ati
##shyi
um
uyu
##vi
##iti
##or
##riki
umun
bo
##ini
ri
##kora
aho
##la
co
re
##ryo
ndetse
##ci
##rika
##shu
##shobo
##tanga
##bwi
##yuma
cyane
##ca
##ve
##pa
bari
ye
##yama
##jya
the
an
abantu
##mbi
##gera
bwa
bw
cy
##tege
nk
##korwa
le
ne
yi
201
mun
##yaka
abatu
##yobozi
se
##mbo
pe
##biri
igihugu
byo
##nda
##jwe
##nga
ubwo
pa
yari
cyangwa
##she
##bera
ibyo
icyo
rwa
gihe
##rezi
du
##bye
##tsi
rya
ban
iyo
##itwa
##kaba
##rage
##itan
mbere
##ira
ry
##ni
##bona
rw
nyuma
##gabo
##hin
avuga
iyi
##garaga
to
sa
##shaka
##gize
##bazo
iz
ra
de
aga
##zwa
##pu
##hanga
##riye
##kwi
##ndi
##ngu
##rimo
##vuze
be
##yango
##kanye
##indi
nti
cyo
19
po
kugira
##ine
##faran
##man
##rana
##shobora
##maze
##twa
##bana
##shya
##00
##kana
##mana
ta
##itu
##tera
##st
##ryango
##tion
##rwanda
nya
twa
neza
##waka
##rezida
wo
##gore
##co
bwo
gusa
igihe
##kira
##il
perezida
##wu
##kino
##zima
##jye
##enshi
##mbu
##reza
and
##byi
leta
kiga
##rira
##riza
##tsin
##ji
abaturage
ata
##ren
abandi
##gana
imyaka
##gani
##by
iri
##inshi
##ruka
##lo
uku
##fasha
of
kigali
##faranga
##shuri
##baye
##renge
da
##ngo
##fi
##geze
bara
##inis
##yarwanda
izina
umuntu
buryo
umwe
##geza
##ani
##po
##rwe
##bya
##mva
isi
si
nu
buri
##ter
##pi
##kuriki
##ing
##menye
##tegeko
yavuze
zo
aha
ig
ikin
##saba
bata
##ganda
##gomba
##por
kubera
##shyira
##ja
##al
##gura
##ciro
##shimi
minis
##dukanye
akaba
imbere
baka
mo
##wanya
kwa
##ment
##nye
##wana
uwo
##komeza
##nyi
tariki
##one
imana
##rezo
abo
##zaba
vi
##sanga
ho
##yon
baba
amafaranga
##sanzwe
han
abana
##bwe
yan
##ranye
ara
abi
bita
kw
##subi
##un
he
rwe
me
##tum
te
##ur
##shinzwe
gihugu
202
com
##rin
##raga
##yamakuru
##komeye
##ju
##kwa
yagize
nka
##yaha
##koze
mwaka
##fo
##bura
ame
di
##kobwa
##zamu
##sin
##ue
nda
##jyi
##shyu
munsi
benshi
so
karere
afu
##intu
##kiri
spor
##shwa
##koresha
##mbe
ita
ca
gukora
##guru
##ito
##curu
haga
##pr
##fata
##shan
yara
fc
##korera
##ama
kaga
poli
##banu
##bwira
con
##pam
umuyobozi
bite
rwo
##bone
##zira
##rs
bose
##buga
##zama
ikipe
##ss
ad
byi
niba
ubuzima
##garagaza
indi
amakuru
mili
wi
uburyo
uwa
##osi
##tara
aza
##jyan
baga
##komeje
kugeza
##ngera
kwe
##byo
##ham
##ll
##rya
afurika
kuva
##itiri
##pan
##kunda
sports
rayon
##genda
##pamvu
bamwe
byose
ahu
##yeme
afite
##seze
##kura
rwego
##dwa
baza
##shize
##er
##shije
##insi
batu
##kinnyi
##fatan
la
wari
##tangiye
##yoni
##shinga
##reke
2020
##pfu
##genzi
jen
80
hagati
umuryango
##rutse
bafite
je
af
fa
##hindu
abanyarwanda
uganda
##gere
##sobanu
yaba
mukuru
do
pro
##kwe
inama
##mbere
##oside
inte
ibindi
ahan
gute
inga
guha
10
jenoside
akarere
is
gahu
##ingo
umugore
##menya
##gari
ikibazo
##kwiye
fi
##gisha
ntabwo
##ota
kumu
##el
baha
##kene
bavuga
##twe
##zan
gahunda
iza
##kozi
ibikorwa
ahubwo
##tsinda
kagame
##mvi
##riya
umwana
##rimbo
##vid
yu
##jyanye
kabiri
su
bitan
##gami
##tuma
##hanzi
##hita
##cyo
##jo
li
##rt
hi
harimo
##hari
imba
al
##korana
ibintu
##ry
##ire
for
amerika
##mera
polisi
dago
##bonye
##byte
##renga
dagobyte
miliyoni
##tangira
##oni
##mail
abatutsi
##garagara
##itse
kin
##shwe
2019
##van
ny
##ris
jean
##mbwa
umute
##ul
##zego
cyu
##ganiro
##shye
##kiko
jo
##bwiye
##mweru
nyi
##reba
amategeko
byinshi
ndi
email
buru
##hise
en
##iteri
##here
##its
nawe
itera
##kano
mpu
covid
umugabo
minisitiri
##rusha
icya
##tangi
##vugwa
##no
hamwe
##rinda
ibibazo
##mere
##tanu
ibya
bamu
##vuye
##bare
##fe
bikorwa
kimwe
##ch
maze
itanga
##rasi
##byeyi
kujya
##yana
99
##tumwa
##horo
000
##banza
aya
kubi
naho
##tare
##iteke
ubuyobozi
##inyu
##ywa
##kiye
##gaban
ge
15
##zuba
un
iba
bira
##teka
##riro
##rd
dr
##lu
##fun
##ramo
ibihugu
umutekano
gutanga
as
sta
##siga
mwa
##humbi
##rano
##que
akazi
uta
nko
ika
##sanze
##seke
are
pu
##gendo
##yije
rero
yabo
ira
##tegetsi
##es
ubuta
yose
witwa
##tora
##curuzi
iso
##sirika
kubona
##rengan
##mari
nku
ubwi
man
##fashe
##dwara
##guye
##ruko
##dan
kam
##ric
##rije
12
none
bakaba
mwi
##soho
##tin
##sange
##baza
##tandukanye
##gano
ro
199
umwaka
ugu
utu
##sirikare
##mye
##kina
##bili
##byiruko
biza
wese
2018
go
abagore
##shy
##sore
##yiza
yaha
##ven
##ganira
##rw
yakore
##swa
##hare
200
umukino
##ngi
##rwanya
##rangi
bwi
##ngereza
izi
##fuza
ufite
##mp
##hova
uri
kugi
bihugu
##lika
undi
##moka
hafi
##shanwa
ikigo
##sabye
##gingo
iminsi
muntu
rusange
##doka
bitu
##itego
aman
abayobozi
##banga
##ganya
barimo
##jyana
##pfo
##tangaje
##itekerezo
babi
imwe
##sezerano
hu
apr
umujyi
bit
rugo
nubwo
##tanda
##rus
ti
##shyize
##inu
##ywe
##gero
ke
##ent
##menyi
##rane
agira
##ver
##hura
ubumwe
ayo
##zwi
##gizi
##mbye
wan
25
##toza
mujyi
##dio
##kundo
##yuba
nkuru
##ene
isa
my
11
indirimbo
##handa
##ranya
ryo
umusa
18
uruhare
biba
umwi
##retse
abari
ibihumbi
##gende
uza
amu
impamvu
kugera
abakinnyi
##ruro
##rona
murenge
biga
##ly
iterambere
bamaze
ar
ur
umuseke
##tumye
umwa
##fati
##hinzi
yehova
hanze
##zina
kubu
tura
##tore
##faransa
##mbara
minisiteri
##mun
##tso
##ton
au
paul
##juru
##kungu
##ir
ja
mukino
amavu
##mara
inzego
##day
nibwo
gata
ab
atari
abanya
biri
amaze
##ndo
##kipe
ifite
##reka
##huza
amazi
agaciro
ubundi
repu
iha
14
nyama
##rire
##razuba
##shimira
itegeko
##gambo
##mwa
##rango
##zamakuru
cye
##pera
##ws
##th
umutu
##mbuye
##rongo
imbaraga
bityo
##tandatu
twi
##lle
mpuzama
kuza
13
bantu
##foto
umukobwa
kibazo
inshu
on
##ronavi
tan
##kombe
##gene
##bereye
thi
##yobora
rwi
umunsi
bitandukanye
##shobozi
##hora
##hampi
mar
##yeshuri
amaso
##pira
radio
abakozi
cyumweru
##ranga
##twara
mpuzamahanga
##lan
myaka
##bli
ingabo
izindi
##singi
##tima
##pfa
ubwa
##nzi
##rica
amashuri
30
##zweho
haba
##bwiriza
impu
##og
mpamvu
##mwi
urubyiruko
##rani
##ganga
nyinshi
##buhanga
bana
##bazi
tele
bagiye
gushyira
impan
gicu
saa
nabo
imikino
##mura
16
et
muka
ju
uba
##hana
kurusha
##mira
##itanga
##ken
##is
ivuga
ub
wil
##liti
##rera
##ds
##sheje
umuvu
uka
##shyirwa
azi
gatatu
bwe
##enya
##hat
##bira
17
##teye
##genga
kun
##tive
##meza
##shyura
##fashi
kwan
ushinzwe
##ranira
amahoro
today
##hirwe
##uba
ikorana
2017
fo
kwirinda
##haye
##qu
##ogle
inta
##shinja
uburezi
##tri
indwara
nan
##kunze
##rirwa
##ronavirus
##gire
inzu
##yeho
ishuri
##rushanwa
##hera
##shami
##den
##senge
##ste
izo
##herere
nabi
##nd
##fatwa
##inji
##rayi
byari
coronavirus
vie
##shimiye
##poro
umwu
##inuza
urukiko
inyu
##kozwe
inko
umwanya
##tsinze
kwiga
ukuri
##yandi
yakorewe
ibiri
at
ikindi
nzi
mata
umunyama
ikoranabuhanga
fran
##cyaha
ze
kaminuza
##hoze
rimwe
##ruki
##sby
bakora
##renze
ruhan
umusaruro
muryango
##siyo
icyi
isu
yon
es
ruba
##google
ntara
adsby
adsbygoogle
##fashwe
umusingi
##koreshwa
##riwe
ac
kigo
fe
##bwenge
##buka
amazina
nama
##fungu
kumenya
kom
tw
yakomeje
ingu
##kara
##ck
##ity
nkuko
##zere
##kunga
kwezi
ibyaha
##uka
##hamwe
bahu
##ganyi
birimo
bitewe
repubu
##kwira
##rwego
babo
bazi
views
abagabo
usanga
##rimi
inyuma
##paka
baki
##fana
mba
cyi
ubutegetsi
kwita
bikaba
##renganzira
abakobwa
##itsina
this
##unze
##zani
kure
uga
##can
ingaruka
isoko
##kunzi
##yari
buta
##shingiye
##garagaje
gushaka
##shoboye
imo
kurwanya
icyorezo
kuvuga
##banda
iby
##goro
##menyetso
ikinyamakuru
nza
itangazamakuru
repubulika
niyo
ntiba
twe
ubushobozi
##rwayi
menshi
bika
##iton
kuyi
##tanze
bihe
abe
shampi
##ramu
ikaba
inda
##itabo
guve
##mbaga
imodoka
gukomeza
bate
##koresho
ngombwa
kenya
##vura
iya
byiza
##habwa
##ditse
zitan
##shingano
##vo
inde
nte
lo
kugirango
inkuru
##sig
minsi
##hungu
##yemezo
iga
bati
mwe
yahise
urwego
ababyeyi
africa
buzima
yabwiye
kana
ex
##shyaka
bada
##shoboka
yitwa
not
ahantu
seri
##keneye
ada
##yongera
##meze
bimwe
##bikorwa
bibili
ij
##yona
##kera
inter
bibiliya
##yamama
##mes
burundi
##jira
will
ubukungu
imari
bituma
ali
urukundo
intara
##tero
##che
kuwa
##ble
##ino
##tal
##mban
##visi
uburenganzira
##fatanya
##shyigi
##subiza
##shyan
muse
##ria
21
id
sen
##ona
shampiyona
amanota
##gamije
##tsa
1994
##hagara
bagera
##shatsi
umunyamabanga
##genge
##mbura
ubucuruzi
cha
icyaha
tv
inzo
hejuru
##us
mugabo
amahirwe
mwanya
itu
##rizwa
##shakashatsi
kumwe
gufata
##jije
fla
politi
yamu
##kurikira
##yemo
abanyamakuru
umurenge
frw
bijyanye
ako
##ruguru
gen
yatangaje
##gije
##pite
guta
24
aki
yabaye
ubumenyi
##gamba
##dana
zose
kubaka
##umu
gukoresha
##kuba
##kereza
kipe
ade
imirimo
ana
##kire
##rukiya
ibiro
##meye
##gh
##inya
##fatanye
##ano
binyu
hose
##ar
##gabane
congo
that
uw
##ndu
mutara
ubutumwa
amasezerano
ibigo
##hamya
itsinda
gatanu
tanzani
nayo
mura
ese
hano
##ssi
ashobora
igice
##dugu
turi
##injira
imy
##bon
bida
##torero
kazi
ch
umupira
##hangana
##genzu
##sen
ukubo
##zana
##boneka
##mena
##bara
yagiye
atu
kiri
##les
nzu
wu
##mb
umuco
yaje
ura
##hariko
kane
##pfuye
##kazi
flash
##itaramo
##bc
##maga
##dugudu
publi
gato
##kanga
##suzu
##giza
comment
##garu
##zuro
##rekana
nyira
udu
##girwa
##higo
##banze
##sabwa
dore
##ser
##sigiti
##shusho
uretse
ce
##nze
##sigaye
##poli
nyan
gutera
##rangwa
##tswe
bye
byaba
##kaza
##shyantare
bagomba
##oma
##sta
##kanya
22
yatangiye
zunze
yakoze
ibyi
imiryango
##jambo
##saga
umwami
yombi
gashyantare
kongera
##joro
ruta
ukwe
amateka
##kurikirana
abanyeshuri
##ks
gutu
kibuga
##zera
##geje
##bs
##banje
gufasha
##bereho
umwan
##ld
cla
umuvugizi
##haga
##hara
igikombe
##shatse
or
umubare
##rinoma
##gizwe
nshu
umunya
##itsi
##sco
zitandukanye
indege
23
##indu
##tions
musanze
ibu
amakipe
##rusi
umwihariko
guverinoma
##guri
##dre
##kub
ijambo
##ith
##korerwa
adepr
tuza
babiri
ntu
##ted
bajya
mutarama
##rurwe
yabi
##itanye
##ganye
umutwe
uwi
##mbwe
agiye
2016
umubiri
kiganiro
##inga
##rea
##hango
umuhanzi
##rwan
##shora
werurwe
mwiza
##hano
##gambi
ite
##sobanura
##yumba
ishami
ukwa
cu
##mini
baturage
kita
##saha
serivisi
##the
##ganyijwe
##polisi
ejo
##rabu
##ms
bagenzi
komi
umurwa
##rine
intwa
##giro
koko
ate
##sozi
##yimana
iryo
ikintu
##hereza
wawe
nziza
itariki
100
lin
rwose
kiza
nuko
##dika
gatandatu
##gwe
njye
ida
bikomeye
##cya
##rangira
amabwiriza
police
ingamba
##shyamba
inka
kuvu
##yumvi
##mero
##maro
##garuka
imp
win
dufite
bro
wabo
ibihe
##hindura
time
san
##muga
##hunga
ukuboza
iwa
gikorwa
26
ukun
umusigiti
nshya
##reye
it
pre
miss
##ting
bigo
ukwezi
ururimi
##kije
urugero
pi
##son
amagambo
bishobora
##yumweru
##yenda
guteza
2021
cyose
umutoza
ubusa
##mbaye
##tional
gitu
##soro
em
bashaka
##fungwa
bake
biro
umunyamakuru
##buze
kumva
##cye
ahandi
##rozi
ntacyo
ushobora
amafoto
ibikoresho
myiza
zabo
kureba
##hawe
##der
##kirwa
##biriye
your
des
nke
##kosa
##buto
##yine
##dy
##razi
amezi
rwan
muzi
##basha
inkunga
imiti
igitego
bitaro
##dura
bato
inyungu
##koresheje
##ranyije
ruhande
##veni
ntibi
##for
akomeza
##bert
yesu
sh
imaze
yate
##yaga
amara
umukuru
bivugwa
##bizi
##kani
##subira
itorero
##itswe
amatora
##lement
ngu
##lla
tanzania
##reje
##rekeza
##tonde
##ranyi
##giranye
bashobora
##hn
##ces
##ase
wor
iti
##tes
yasabye
##ked
bayi
inshingano
50
vuba
##rwaho
##byiri
##twi
inteko
mikino
tuba
##perative
##shinwa
##kisha
kuzi
maso
##yumva
##bayeho
bwana
qu
abafana
##siye
epfo
komisiyo
maga
##shyin
with
umutima
##herutse
isan
bun
ire
##itondo
you
27
rubavu
##aba
amaguru
sha
##cha
##pp
##zine
ruswa
john
##yita
##rereza
##buye
ashaka
ingo
museveni
##mewe
##nu
yita
kuta
bwabo
kayi
##rama
gicurasi
##shinjacyaha
##xt
##muka
bosco
byan
##sura
##shyushye
28
ibitego
##gra
kuki
kanama
##sira
##itozo
ebyiri
##shijwe
##uel
kire
nze
##garagaye
igitekerezo
zirimo
pla
##nde
kare
inshuti
umurimo
kwishyura
banki
##tte
imibereho
##shanya
##twaye
##korere
##shyingo
ibisi
andi
##senga
##yanya
ndirimbo
ziri
##ongera
ajya
##sera
abata
##yoboye
##zimana
hanyuma
uzi
##ons
she
cyorezo
imiyobo
ibanze
##risto
ishyaka
ingingo
nzego
##itero
##duye
hasi
ipe
##ol
pas
nyamara
##quire
##pho
##roshye
kamena
##ane
kuru
##itwe
cyongereza
icu
##komoka
ishize
ukwakira
##shed
##gurira
gace
##ruwa
##rie
politiki
make
bbc
kwica
rubuga
name
ubutabera
##shake
ushize
require
##jyaruguru
##jyepfo
burayi
miliyari
irushanwa
##tel
webs
guhera
sin
2015
yanyu
ibisigo
wanjye
mugi
save
akora
##rangiye
website
##heruka
##gendera
total
next
##kubi
##jwi
##hiriza
##gwi
mbi
wen
igikorwa
##rimana
ugushyingo
agomba
ple
##dow
zari
addre
##jijwe
##canyi
##ners
##ut
##seri
tru
##mya
bacu
mutwe
##yobya
##soma
##ron
##ph
##teri
##id
##hinduka
##cto
buge
par
##tribu
##itwara
brow
nari
##gabanya
amahanga
##gue
##sanzu
##yandiko
ibura
##hariye
##geye
musa
abafite
##ganwa
ubutaka
##baba
uda
##sumbuye
telef
address
mutu
rye
ashyushye
##swe
##ture
lea
ijoro
##tangwa
##manuel
bibazo
inzira
intebe
mwana
##subizo
nyakanga
##rimu
iy
##rita
irimo
urwo
zita
##itiye
##byara
kurya
makuru
mafaranga
docu
##kurikiran
ubuhinzi
kugu
##ziya
required
binyuze
les
itatu
haza
fili
##ct
ibimenyetso
kuzamu
##wita
##tandu
nzira
asaba
yavu
##vandi
##ball
##merewe
ingenzi
##rou
##kesha
nyu
##kwiriye
rd
##shimwe
fiel
##genewe
emmanuel
##gaga
baje
ntiya
##inota
##con
##bano
##cent
ahita
intambara
ihu
##kundana
##bire
ayi
bintu
muhanda
##rangiza
##lia
inshuro
gukorera
##tat
published
intera
nshuro
links
##rura
##shishi
enter
uni
##kini
amaraso
mana
arimo
##herereye
browser
##lin
push
guku
giti
bare
yacu
mugenzi
amado
##vandimwe
##tyo
marked
bagize
fields
##zeye
kenshi
##buza
##genza
document
##meje
umuriro
atanga
##shyirahamwe
window
umukinnyi
am
abasirikare
29
gukina
##ty
##rangije
please
itanu
byatumye
ah
##koro
umukozi
mugore
gasa
guhangana
##kandi
nabyo
wowe
muta
yamaze
iperereza
buda
rumwe
##jwa
stade
mashuri
##fitanye
##hinda
muganga
##cy
zimwe
yahawe
siporo
urubanza
##rwaye
urugo
umwuka
muha
##zuye
niwe
##tribute
dan
nyarwanda
amavubi
lu
##guti
huye
##zanyo
gisirikare
burundu
##goroba
umunyarwanda
ci
##girije
##ral
yawe
intego
##curuza
ibiganiro
umutungo
bugesera
##kuri
ubushakashatsi
##mije
##ranyambaga
##geraho
##mpa
batuye
##yobyabwenge
##toki
ibitekerezo
noneho
##huye
kaba
kiba
muhanga
##hagarariye
imu
bakoze
##kemura
nyina
ziba
mukobwa
aku
rib
lt
gitondo
##diri
##fashije
##shinjwa
##genzura
dia
gete
setat
##lementbyi
getelementbyi
setattribute
40
##fitiye
cyari
##rimba
hakaba
icyizere
##bije
por
sc
##sohoka
##zihi
waba
99i
##tanzwe
bibiri
##cal
31
##cial
##giwe
##depite
trump
##shima
##kiza
st
inyama
imbabazi
ea
umushinga
banners
ariyo
umuhungu
byabo
##gombaga
gutwara
##hagije
##minis
ubwoba
nyaru
kura
yana
chi
##kinira
##yeli
##shiman
magazine
##sse
bakiri
##shanyarazi
mfite
ben
itangazo
imbo
##biligi
hirya
nibyo
##shakanye
##onal
##shingwa
bwiza
##ubu
##nshi
wun
akamaro
##shishika
iteka
##kuye
##cwa
##rize
slo
##kane
umaze
vo
abakiri
##kwaho
mada
ishobora
yayo
##roko
##gena
##mvikana
ine
##mijwe
umusore
##ited
eric
ibita
##koreshe
imvura
##itter
##magara
##kubita
##hira
ukuntu
urupfu
nkoranyambaga
bigaragara
##vier
abahanzi
##kenshi
akana
##rengerazuba
##stin
abu
nyaga
ndwara
star
biru
runa
umubyeyi
rusi
turukiya
icyemezo
kuyobora
bin
yaho
##induka
bageze
yatu
ibin
##tic
babona
kira
##hiro
bifite
impa
bayobozi
impano
nyanza
##hitamo
ngingo
umuzi
##zanye
akenshi
yashyize
ukaba
bagira
kubaho
nzeri
ndu
##shyizwe
muza
##enge
##bonetse
kwakira
##yamamare
##huti
kugenda
##bimana
turere
##jyanama
amashanyarazi
##ritse
##muryango
imyitozo
##minisitiri
hino
ibiza
ubukwe
bwan
ubi
##boko
amba
batangiye
kiyo
##shyizweho
nt
##rugendo
two
imibare
kera
kwigisha
##yangombwa
sida
##moko
kuda
##deri
##rican
kiz
##red
##hugurwa
agera
##cco
uriya
##kiriye
bufaransa
##bangami
nige
gishinzwe
baku
ijana
##rwana
magambo
yatsinze
imyi
twari
twitter
mihigo
byara
abiri
tuka
##rom
ishinga
amashusho
sy
##shyigikira
kon
##sese
##shoramari
##ditswe
##lli
bwoko
bombi
##rwo
chan
bahawe
##hereye
##gabe
munota
ser
##kikije
ababa
##manza
ingendo
gereza
ute
##sengero
uwitwa
ubumuga
urugendo
ariwe
##mezo
was
amasomo
mahanga
umukunzi
##yamba
new
wungirije
##kerarugendo
azaba
##gurisha
kinini
runaka
##mama
umuturage
umuti
amasaha
nibura
##fatanyije
##yani
##ys
##tegan
batatu
gutsinda
##am
sita
##ction
##hinga
ziza
muda
##genze
##huje
##ther
bayo
buba
mirongo
iwabo
##kingo
##onga
##kiwe
ubushinjacyaha
gifite
##yonge
##sirazuba
##funga
##tari
bitanga
th
##kiro
bene
kub
uti
yumva
##hoho
butumwa
modoka
##bunga
##mokarasi
bindi
500
getelementbyid
mudugudu
##mure
ubuvu
clu
kari
mubi
##garutse
##hame
##gufi
kiyovu
##bonano
##sana
bagi
##zungu
kinya
raporo
inguzanyo
izaba
imbuto
batandukanye
yata
iminota
hashize
muhanzi
##pimo
intege
##com
tra
##zongera
pariki
asi
##lly
##muri
ai
komite
##shira
ubwoko
##shyiraho
ryi
abagize
alide
##muntu
abona
demokarasi
##wite
##tanyi
mpan
nanone
ubwenge
pier
ukwi
ugasanga
##mon
##shahara
##yubako
iburasirazuba
##furika
gito
amavuko
uzwi
kizito
##yemeza
matora
##frw
haki
naba
##ten
from
gutuma
ingufu
impanuka
ure
nshingwa
myinshi
guhabwa
gucu
ferwa
##tini
has
##rali
batanga
##kenewe
##op
abenshi
kugaragaza
tubi
can
##my
african
##kanwa
guhu
##ari
bice
abibu
mbuga
aramu
kurushaho
gicumbi
mpera
##guwe
gite
ibiyobyabwenge
kuya
##net
##ding
bakwiye
kwibuka
##kondo
umwanzuro
interna
##cika
ndayi
##gezweho
imyenda
##kundi
basa
res
##camanza
oli
ibijyanye
##rundi
ihe
yanjye
##ves
visi
##rego
nshingwabikorwa
##menyekana
gukura
##yobowe
abaminisitiri
ikomeye
##shimo
muto
vs
##rewe
##magana
hara
##nganya
bakoresha
nimu
##ence
ushaka
clau
##beshya
kwinjira
bwongereza
##curuzwa
##zin
ag
ukomeye
##sengi
mp
rusizi
wacu
##ura
bakuru
isuku
##ket
gusaba
intwaro
##liki
char
gutangira
##komeze
gusha
bigatuma
##kwirakwi
bon
##garagazwa
guhi
##tsinzwe
##fatiwe
##ster
##dia
zan
##gurwa
united
##banya
abaganga
umura
##hani
##mwu
isaha
##teza
##tewe
icyumweru
coun
abarimu
##yanga
##gati
##reze
bahise
35
gukorwa
koperative
pri
gasabo
one
amajyepfo
##ls
abapolisi
muhi
##teganyo
igaragaza
que
bura
prof
abagenzi
mbe
##line
##soza
##terwa
mwu
jose
cent
kwiba
##kangura
yatanze
atatu
ishyirahamwe
eu
bazaba
kugura
gikomeye
##gina
##itegura
mon
##yemeje
aziya
marie
##ndwi
have
ambasa
usa
abanyama
moto
##kari
##ring
##rushaho
igifu
pierre
mpuza
##twari
izamu
##od
##hagaze
##metero
bus
##shatu
##ciye
yatanga
est
##um
##ration
##mond
ubufatanye
rushanwa
ugere
mukura
##tsindi
kara
ubusanzwe
gene
##herero
rukiko
numva
ubwan
cyiciro
tuyi
##yin
bimu
miryango
bakunda
nanjye
##tre
##hwa
kintu
club
cyabo
hotel
##iteguye
yagaragaje
##puro
gice
nabwo
virusi
yandi
##shimye
che
agateganyo
##rasirazuba
##rengera
nyiri
abayi
rukundo
yabonye
ubun
##vuka
2014
##jemo
gisa
##raho
##yuka
umuziki
##ger
bakomeje
##tegeka
abibumbye
yako
##dukikije
iriya
##yabu
mazi
##cation
ikiganiro
##ditsi
##vugo
natwe
gitaramo
gukorana
umwuga
kili
umunani
inzoga
mbona
mini
##ngenge
##siyete
abadepite
ngabo
##ise
muke
##koreye
##korewe
##siti
ababi
##garika
wayo
##per
##use
##gaho
batari
uruhu
umubano
kanseri
##ganiriye
##kangurambaga
iharanira
bagabo
##rohe
kanya
abahinzi
##kono
##dini
bam
imitu
amajwi
musore
nibo
nigeria
umuhanda
##mbuka
mukan
bwose
byombi
international
##girira
kagari
cg
##vuza
igitabo
##tegereje
##koraga
yageze
##gukanye
amajyaruguru
wara
##itwarire
ina
ibinya
ukuvuga
batara
##ong
##menyesha
mw
papa
##ngiye
muba
bisanzwe
rubyiruko
bakinnyi
inganda
munyan
nshinga
mibi
yinji
zitu
kicu
reka
##rari
##gombye
yagiranye
yanditse
amakosa
amwe
mute
##pani
badu
ahanini
icyakora
##lari
internet
imibonano
kicukiro
who
##wandi
mugabane
##zaga
##ngura
yab
ibyamamare
##don
babonye
##mbyi
##bitsina
col
2013
##kurwa
wamu
##king
maro
agaragaza
##juje
##ruhu
ugomba
ngoma
##ziyo
cumi
kiriya
##lop
##vamo
##shyikiri
##yura
wabaye
##gram
masezerano
##itangaza
babu
##sinda
telefoni
kuzamura
abarwayi
tran
ut
ahitwa
##ua
##lisa
##tangiriro
##siya
##mvise
byabaye
meza
bitwa
##kize
mateka
ruri
##ciwe
##koko
##ed
sou
##komere
yuba
ubw
kubura
banyarwanda
portu
mpa
##latini
##dent
igitsina
abanza
198
igifungo
mpuzabitsina
32
##myi
gusi
##vugaga
yafashe
##shyigikiye
bar
ryari
ruda
ibitabo
60
ibyiza
##tungo
##hanu
byu
fpr
##hoza
ibyishimo
kongo
imikorere
##rengane
barenga
mubiri
soma
kugaragara
##banyi
aribo
##suye
ve
rushya
sacco
filime
##viziyo
##keye
their
butaka
##nuko
magana
ubworozi
ubwe
hata
kiliziya
##pfuka
icumi
##liya
##dwi
uruganda
gukumira
##sobanuye
bufatanye
ukora
##tsindwa
nyagatare
guca
uturere
ruza
guhura
olivier
##byaye
inkotanyi
##gukana
usi
butegetsi
uzaba
impinduka
abatuye
muru
mama
##zeyimana
##ssa
mategeko
igira
##ree
bavuze
##hembwa
twu
##rukana
##gengo
bushinwa
bibi
##ctor
ibice
sport
asanzwe
##ganire
##kingi
##tinya
bane
izuba
bagore
##as
interahamwe
gutegura
ngoro
##nc
bandi
##shimishije
usanzwe
##tsinzi
##nziza
riri
gifaransa
##guzi
##gamizi
##sena
ferwafa
whi
##rekeye
##merera
gukurikirana
yayi
##ok
##butsa
agu
league
mutima
amabuye
nteko
##menyekanye
##rerwa
##gega
taliki
##eu
##kimbi
bifuza
claude
inyandiko
##yuze
ange
muzika
biteganyijwe
kuga
abahanga
ibyangombwa
kivu
akagari
##kure
igera
rutonde
his
yongeye
gita
ubona
per
pen
ahari
##gane
##genzacyaha
niko
zifite
atangira
baru
byaha
nyarugenge
zite
basanzwe
##shinze
inye
ibidukikije
imiyoborere
kuha
##mereye
##sis
##tani
tugomba
deve
impungenge
##tware
##port
abakora
##lamu
diamond
urubuga
guma
mara
gatu
##hingwa
ijwi
abikorera
ima
##rero
##kimbirane
##yite
##chi
##tira
caf
karu
rura
komini
ireme
uki
##iterere
45
##mar
twese
niyon
sina
bwari
giturukiya
kamo
muyobozi
ibihano
min
atara
pour
part
##rick
bumva
##muna
abakunzi
igiye
ruhango
##phone
sosiyete
##ny
rufite
##sobanuro
slova
##mpu
guhindura
bikwiye
imishinga
##sed
##gihugu
##giriye
vide
##zanya
eshatu
##tangajwe
asanga
##tsiko
##bandi
mirimo
imisoro
op
bab
bako
##shini
kumi
bariya
all
amasoko
bimeze
##muha
63
ibiciro
el
basaba
yise
televiziyo
ake
imyan
fu
##tandukana
##shimangira
amata
cyiza
padiri
##rijwe
##gora
##gejeje
abakuru
##shishikariza
uwari
##res
mala
air
##hangayi
##nya
##haranira
zikomeye
##teli
abacuruzi
makipe
mushya
##koreshejwe
sho
##ques
kilatini
##kunzwe
tuga
va
ntibya
##rokotse
bakozi
##tangaza
bwinshi
##vuzwe
rivuga
atandukanye
gra
rubanda
hon
wenda
kurinda
##baga
rugamba
##jura
bizaba
##kandida
##20
##phe
jye
said
300
kugabanya
kunywa
gushyiraho
abasi
##tyoza
yemeje
igitaramo
##eza
ikinyarwanda
habya
##hwe
##mas
amasa
bivuze
##shyirwaho
##bwoba
buza
07
##gisho
intyoza
icye
##tana
##neza
urutonde
avuye
bazajya
nkurunziza
##ff
kirekire
bahabwa
madamu
##vana
##fashisha
une
bakomeye
akiri
pat
##cia
zombi
up
joseph
kubana
##yamamaza
ukomoka
bas
kigero
intwari
##ngire
bakobwa
cyaha
uhagarariye
##vutse
##ner
##ngira
rushyashya
intumwa
bike
biganiro
kwandika
batangira
igitu
nshingano
##hutu
kudu
riza
tuzi
##fungura
##shakaga
##ineza
yifuza
develop
baya
ubufasha
##bonera
her
ibiribwa
##19
36
gukemura
guhagarika
inno
munini
ami
itandukanye
inc
abasore
kubo
gakondo
ibitaro
##sabimana
hagamijwe
kuburyo
##peri
kutu
baturutse
##funzwe
kubunga
ugiye
zida
##itabira
trans
gishize
##vuguru
##dani
##guze
uvuga
##kangurira
kampa
##ddy
##gereza
zira
dukesha
##gereye
grou
##gishwa
##shumba
##yumvire
##gita
##goye
##itana
kayumba
bitatu
ikarita
ibicuruzwa
##munwa
ihuriro
uburayi
habyarimana
04
##kuwe
##geni
fd
ageze
bugufi
##shakira
##kinnye
ishyamba
2012
##rima
muhabura
nara
misi
##cis
##size
asa
byeme
amadolari
##bin
bakorera
yabanje
bakabi
ibanga
ale
##ganjemo
##bwire
##kurikiza
byiciro
ndan
ubushake
rira
##vers
##riweho
imiyoboro
karo
##huri
busa
data
uburwayi
##ad
##jyaga
##gitu
kum
bakajya
##hinde
bubiligi
##banuka
bisaba
abahungu
##banye
gufatwa
buka
yisumbuye
intambwe
kubahiriza
bwite
hakiri
99u
kikaba
##zihiza
##vin
##yweho
##horaho
##ght
yemeza
##garagaro
iran
hato
##yira
fil
imitwe
##suzuma
##gaze
amoko
##med
world
kubungabunga
##kol
ibiti
wose
##nan
abanyamuryango
ijuru
basanga
gupfa
##zara
bimaze
##hisha
33
abamu
robert
imyitwarire
##rk
##caro
imitungo
metero
mushinga
##gezi
##hungabanya
##huriye
ugereranyije
bahanzi
impunzi
tuta
idini
bavuye
ubugenzacyaha
rishinzwe
masaha
baramu
##yire
##panyi
manda
##yapani
bishwe
##gerageje
impe
bashya
ay
rwamagana
##gezaho
munyaka
##kurikije
ubuvuzi
##jyambere
mabwiriza
they
ethi
koro
##gy
##hagari
abanye
app
kida
gufungwa
##zamuka
##min
aribyo
iterabwoba
uyobora
akaza
umushahara
##rwaga
##50
muhango
adj
agi
196
##enga
##zeza
ntaho
wahoze
##deli
##duka
ruse
##tho
##garagu
zika
ngi
##mve
gutangaza
yasoho
iman
##shema
##yoboke
##cide
##garagam
niho
##opi
##hombo
igihembo
mike
##funze
34
##injiza
##rondo
buvuga
reba
bagaragaza
##bukuru
##hesha
isira
##shyizeho
gitabo
kamonyi
##alth
##jyanwa
chris
##shiki
abaza
pho
ububanyi
guto
##kwirakwira
umurongo
##fatanyabikorwa
gusoma
##jugu
##rm
bigira
val
70
##hili
guhuza
hare
##hindutse
kuwu
##gezwa
inkiko
mwene
igisubizo
amazu
bumwe
ubwicanyi
##hizamu
abwira
##rwara
##mic
##fura
##yubahiro
##ariko
yatangi
akarengane
twara
##pfukamunwa
il
##shimisha
dis
gusura
francis
##itangaje
##ley
##kubahwa
iru
mr
##mber
amahugurwa
##ranire
kampala
guse
tumu
bizimana
rnc
##land
##lles
##butso
bisa
##rekezo
ngufu
##tere
maku
itari
##xi
##gerageza
kwizera
ethiopi
ava
myanya
##daga
tour
197
itike
car
inyuguti
patrick
face
yafashwe
shyaka
##rekanye
##pima
imyanya
##rebe
##garama
yuko
peop
##rwamo
##int
##rebana
abate
theo
##comment
##und
kuganira
city
camero
usibye
ntigaragazwa
getelementbyidcomment
kwitabira
##nko
cyarabu
##sohora
but
dani
yadu
imiterere
yigeze
run
##mani
amase
nto
##tra
##mer
nyakubahwa
akomeye
kayon
##bel
cyacu
abakoresha
##itabiriye
##bonaga
##kuramo
##hande
2010
ikorera
ishimwe
ikirere
servi
ivan
agace
##nes
hakizimana
isango
##guruka
ubwu
mudaso
byamu
nyamu
kwandura
cap
##tun
##fuzo
rubanza
yavuye
##shyiki
sur
nsengi
##hamaga
muvu
yahaye
mbese
ingengo
ubukangurambaga
##bunda
ibaruwa
nge
amakimbirane
pasiteri
##hishe
utara
muli
inyamaswa
ps
##sabagina
people
akajya
agahinda
munye
rutahizamu
team
##wer
##duko
imihanda
murongo
bavu
gusu
azajya
kinyarwanda
bat
umukono
bigaragaza
ikora
ber
inzara
08
van
yabu
champi
rusesabagina
00
kose
kindi
##itani
utaha
mugaragaro
bito
imbogamizi
maj
icyongereza
##gamo
ibyago
birori
2011
bafata
icyiciro
bakunze
ibyemezo
akunda
den
##hirizwa
umwarimu
ibirori
nga
mudasobwa
km
##riri
burya
mart
muti
##shuli
250
development
##turutse
bigeze
##mbitse
tho
guseze
amaga
ariho
tukaba
kimi
fin
kwiyongera
38
##stra
##mpaka
yapfuye
##citse
##feri
##situ
inyi
ingabire
ziga
misiri
aru
##pamyabu
yashimiye
##ee
##hanganye
90
kubaha
##cumbi
ikoreshwa
bitabiriye
##yoma
utuye
##ments
isano
tugiye
nyungu
video
ruganda
icy
ubucu
akamu
ubura
##tangiza
cal
wumva
isezerano
ubukene
##geyeho
##simbu
interine
yare
ahagaragara
##fashishwa
gukunda
gatera
##kwirakwiza
mezi
dans
edu
nyandiko
national
lan
##uld
akan
##rikana
mugabe
ubwami
##bari
##bibi
igihano
##mpinga
ntawe
cana
bitari
kirehe
##sangan
aherutse
##yahu
ibisubizo
basket
2000
##kurikiranwa
petero
banya
aravuga
ambasaderi
##zindu
karongi
##ac
us
isanzwe
##mbaza
##gali
maroc
habaho
zu
ngaruka
remezo
ububasha
jeanne
##zura
ruha
abavandimwe
##ses
ubukerarugendo
##gendan
isirayeli
interineti
imyu
ntago
##shyurwa
sena
wenyine
##rengeje
yagombaga
nki
kirimo
##neze
##tunga
gate
ibizamini
patri
##rindwi
##yezu
intoki
##prc
ap
iko
uyi
##biriwe
nyampinga
ahagana
bagenda
##ruru
impamyabu
rugendo
##ef
charles
##bwaho
##herezwa
milli
ibihembo
er
indan
igita
ifu
##rekeje
ii
gut
amatungo
zikaba
##mbanyi
kristo
ifoto
ntangiriro
basanze
umugambi
habaye
utari
##kere
fan
spe
dire
telefone
##kemu
ishoramari
bamenye
##shidi
busanzwe
ruku
ikiza
##renza
##gaba
ikirenga
##fashishijwe
##senya
##merika
##ganywa
wundi
##kanisha
baho
umusanzu
ikizere
##sheke
twaba
iprc
bushya
ndaba
ubwiza
kwivuza
tumaze
igitero
jya
##wabo
ise
amarushanwa
agenda
##rit
nako
james
abamaze
##mire
##misha
##ded
##inyujije
##urs
kompanyi
cip
nyamira
##30
bakana
ubuda
##inyuguti
qui
kayonza
ste
cyumba
##rema
ubuhanga
abashinzwe
produ
mugoroba
gusubira
rwaga
alex
jac
##garura
ishinzwe
##ber
##giraho
rurimi
vin
remera
##mbira
##jan
marushanwa
##gal
wine
umunye
batanu
igiti
##ziran
##hen
akavuga
mwan
rundi
##now
##ganza
nicyo
igizwe
##fashishije
##tekereza
rwabo
minister
bigize
icyu
37
bagu
bushakashatsi
yize
##nyeri
telephone
iku
igomba
##hitana
##huse
##cer
##komo
than
yica
king
yagarutse
##guro
gutekereza
don
pano
yaku
itegekon
munyakazi
awa
pan
##bola
##tungu
##mbia
##gezeho
bakaza
##refe
uha
##zamutse
##yubaka
majyaruguru
ane
reg
yabereye
atandatu
gatolika
##bikora
##sangira
##rineri
miti
yatumye
yanditswe
##fatika
##biziga
group
cup
##tegetse
ahe
##ship
##fashwa
##cyari
which
nyubako
##geko
ruga
nsabimana
ndege
akwiye
mushiki
panorama
kwitwara
innocent
rdc
ou
##bitekerezo
##ziba
hate
kwambara
igamije
ind
myu
para
##cyu
umucamanza
##ranwa
bica
##gerwaho
##ranyo
##hagarika
##buri
samu
41
insta
##rity
ibitero
irindwi
##taka
##jima
bwawe
ahabwa
kuno
ikomeje
##raba
##sora
general
regi
offi
ver
##kongo
mugihe
nyamirambo
nzo
##kwan
ukuriki
##motari
mugisha
imbunda
kubaza
isonga
ji
##lis
kimaze
##gongo
##kenera
rwari
kumwi
##manaho
urugamba
yanga
ikosa
sun
##lr
##itangira
imyanzuro
burasirazuba
##ruye
umudugudu
karangwa
ebola
zishobora
##senal
ubanza
yongeyeho
musaza
baravuga
##rent
amavuta
##hanuzi
yaka
kirere
men
abazi
##vanga
abagera
basketball
01
imyumvire
cho
urwi
ihoho
mbo
turimo
arsenal
kinyamakuru
##ving
igisirikare
##tsibo
bri
ndo
isra
##ziranenge
##shyire
##itiro
##forma
##88
##shoferi
##zuza
##onald
murakoze
##gb
mukinnyi
##zabu
##date
##ranze
gori
42
gushyigikira
##kwigendera
639
ethiopia
##gn
##mina
##muriza
yunze
cn
##iro
##lie
##mbera
rca
har
bakamu
##cess
kiciro
gitsina
buriya
##shanu
##ot
##des
urwanda
##kristo
muco
##vaho
imipaka
thu
bina
bakeneye
##soje
##las
ltd
biriya
reb
##lometero
##politi
afata
##bangamira
yambaye
##rukanwa
bihumbi
bishoboka
kabu
butare
ntera
confe
mirenge
presi
kore
buyobozi
##aniwe
##rusiya
jan
nini
imvu
##spe
arabi
bahita
##toni
day
canada
##cien
##rega
yasin
##limu
##ffe
scho
ibyumweru
organi
kama
##nzwe
##ristu
##babaje
eshanu
umusi
##rekezi
icyenda
abahutu
buhinzi
masa
mali
##shanga
byagenze
bobi
also
nyakwigendera
##byina
gover
##mit
sup
our
zinyu
yabaga
cyaba
##koranire
gatsibo
##ssion
instagram
itegekongenga
sudani
##gihe
zayo
gukoreshwa
mat
hantu
dieu
##cyi
kabi
##zengu
iburengerazuba
##pool
more
ren
##tinze
##ngwe
ikimenyetso
njyewe
inyubako
##shanyo
vita
wabi
zigera
##sia
##sesengura
chu
liver
##piteni
yatangarije
##book
gikombe
##tinda
bafashwe
##rds
##kenke
ntego
abanyamahanga
butandukanye
igiciro
##kuraho
##genzuzi
itumanaho
nshimi
sp
bakoresheje
ubuziranenge
biha
rep
bru
##yeri
2009
##beshye
rita
##kanda
mubu
##kindi
daniel
mani
nshuti
##kia
bukungu
kato
know
##hurira
vincent
##mategeko
biterwa
frank
its
bakomeza
yato
yahi
abada
ukuriye
03
##ins
##mukira
##yunge
ikamba
kamwe
toni
hifashishijwe
icyayi
minist
impapuro
##koma
abaha
##garariye
gushakisha
ashinjwa
400
ikwirakwira
sofi
rite
kugenzura
bagaragaje
kano
ntambara
liverpool
##yisi
gufunga
mitu
nyine
fdlr
gusin
##kurikiranyweho
nin
abone
mwarimu
ubure
##lix
paris
##rwanyi
facebook
ivu
ituma
aribwo
##giraga
far
stan
##byaro
bucuruzi
##byini
isura
imanza
nyabi
babaga
abaturanyi
mupira
nizeyimana
##ranywa
##merere
##raniye
univers
##sp
rushinzwe
##dufasha
umugabane
09
what
kugaruka
bakavuga
##hangayiki
##gne
banjye
##mererwa
gutaha
2008
##gariro
54
##kw
banyeshuri
inzobere
##byino
##liyani
yegukanye
guverineri
bank
##rise
women
mine
##mwo
##sengesho
rikomeye
##up
majyepfo
ed
##nganira
niyonzima
39
bize
ubutu
imashini
##poir
##stitu
umuhango
bukomeye
batazi
ingagi
binyuranye
##yuranye
##cul
bemeza
cor
##weho
fami
cyenda
basaga
gushyirwa
48
igena
##ranisha
##yange
##enne
##miwe
##subije
inge
ibisabwa
##rabuzima
##girana
gufatanya
gre
##cs
kubanza
namwe
##cono
06
gise
ugira
yagu
ruguru
avu
##gishije
virus
##nezero
##bazwa
##tuye
ango
cyemezo
albu
bwanjye
yavugaga
umwanditsi
guhe
ihazabu
abakiriya
##rinde
bigomba
##keka
kt
##hanganira
gisagara
##ars
##ruta
kwerekana
##ters
##chard
bafashe
##ranije
yakiriye
nazo
##beho
basi
amadini
##bite
gusubiza
ikira
espoir
##zamura
icyubahiro
syste
nona
mug
##guke
##ders
coo
##baka
ruhu
ngiye
nkaba
kurengera
akabi
##tegereza
##sobanukirwa
yindi
##tsindiye
school
##rinzi
ubwandu
rwabu
##mogi
ingano
best
bra
intsinzi
##mirimo
##cel
##shyitsi
##rate
kapiteni
##sirayeli
kabera
umugisha
tegeko
##shingizi
##wn
##fuzi
##ux
ubuhamya
##shyiramo
araba
kwitegura
##hamagara
##migambi
kwite
##yahudi
koreya
shi
##banire
ubwiyunge
atanu
cen
yahu
martin
##yongere
amako
richard
diane
##diyo
nimero
urukingo
munya
seru
##injiye
real
meya
umuce
##jeje
stu
nderabuzima
hamaze
##led
##ung
itara
patrio
miche
##shyuhe
imirenge
ryita
imyamba
##ntu
yemeye
##dri
incu
##renzi
##rizo
iwe
##tanira
tom
akanama
munyaneza
##ruhuko
##ace
##soni
prin
bikoresho
urimo
bafitanye
yerekana
##zwaga
kitari
ik
pr
##tor
inclu
##munsi
nyungwe
nyaka
##hh
ubushinwa
ingenga
kurangiza
ibye
kwiyamamaza
44
##ges
nonaha
tanzaniya
budage
##mpe
hoteli
sibo
##meka
christi
ak
##vugwaho
wasanga
mashusho
##shuti
atuye
ibisa
ntiha
inyeshyamba
##bri
impande
abayoboke
##pas
##boneye
ngamba
umurambo
album
econo
##butse
##mbika
badafite
##mutima
##garagambyo
ngira
az
contin
##mamaza
sahara
buga
##vugaho
##two
##fate
imibiri
##sinzi
champions
nacyo
gutandukana
govern
bigenda
##fungurwa
myugariro
##hinduye
##gatifu
israel
##shoboraga
kunoza
##ringanire
##shidikanya
##ganyije
gusenga
amaboko
##fari
kitwa
bakundana
dukora
abategetsi
kivuga
shuri
##heli
nyafurika
##ek
umupaka
urumva
##gure
##h00
bahe
##ngani
yaguye
tuni
##rien
##wandiko
##sipan
##garije
##ngwa
bubi
igeze
##gema
##bora
ubutwari
south
##masa
##sion
ikiri
##fuje
health
##mbano
##bashije
##tura
##shakisha
yemera
batanze
##sobanurira
rdb
##ngeye
##raniro
rifite
musi
kumara
##kon
amaka
##try
abami
waje
kubyara
##birwa
##moso
umwenda
##mburwa
rusengero
bahi
##guma
yaseze
kuririmba
##manzi
bibaye
kumenye
nyamasheke
99a
##dukunda
gusubi
aro
bigamije
david
umugoroba
kwemera
ujya
bakorana
nye
ukunda
##pen
##hangano
gukome
##gurura
kubwira
amatwi
buke
ibiryo
zindi
muga
yatanzwe
##teguwe
##hite
##mbire
tanga
##kurura
nkunda
ingoma
samuel
myi
hagiye
yigisha
##yongereye
wita
02
babanje
##habu
wabereye
nyabu
##byaza
asobanura
twabi
##kundaga
imigabane
umunyeshuri
angola
##bajije
nibi
zibi
centre
46
mbu
##mpi
##duha
angana
##runga
##baha
bufite
paruwa
##baje
##mbaro
##hamye
gaso
izwi
##mbanya
##bangamiye
##kiran
murimo
peace
nyamagabe
parti
guhanga
##tiwe
##llo
##hia
##funguro
52
##ziti
##raribonye
zinyuranye
urwa
gushyin
##illa
flo
son
##tant
rwiyemeza
tshi
##dari
informa
##shaje
ibishoboka
social
sitasiyo
aganira
##beti
kuboneka
##sure
##widi
kigizwe
mupaka
kubyi
tech
ubwabo
##kristu
kuku
nkiko
##gua
ubufaransa
##shejwe
amen
##giteri
##hereje
maboko
politike
##kinisha
bivuga
eng
dosi
bise
yasa
konge
##mbabwe
##iness
##bantu
##subiye
tsinda
##ns
asaga
mt
umujyanama
lou
##baho
matsinda
##perezida
umuceri
bakina
##miye
##guza
##kundwa
##sun
banduye
imbwa
##ganisha
kuguma
gutyo
##shop
mukaka
ishyirwa
zacu
mwiherero
igenamigambi
##ft
bine
##tro
hakoreshejwe
atazi
##kurikiye
yavutse
ntitu
donald
nubu
##itangazamakuru
ishusho
##ant
abare
mbabazi
##bani
##kode
##kuzi
were
aje
bur
##gwiro
ibinyamakuru
zara
##yoro
##bika
kavu
ten
##11
##byaha
heza
aca
##hiye
sala
oms
##moni
umuvuduko
agri
imyuga
plan
ndabona
##sti
hazaba
depite
magu
mwuga
republi
urumogi
nshimiyimana
kanada
##gagaciro
university
akanya
imbuga
imikoranire
beza
poro
christian
inya
nyaruguru
ibyuma
ikinya
##hariwe
cp
mari
##rand
imizi
akoresha
mukaba
ubushyuhe
zirenga
agamije
geor
amanywa
##cor
##rique
abati
99aba
jacques
habayeho
other
banga
abafatanyabikorwa
##hondo
igifaransa
yanze
bidasanzwe
kabuga
rwiyemezamirimo
##garara
muturage
chief
ryan
cyara
secon
##huta
country
munani
##hisemo
hegita
kibi
rikaba
paruwasi
nsan
##saza
kamere
bava
zimbabwe
kwegukana
afrika
uhereye
yakozwe
mashya
bwu
yiga
yishwe
##aa
##hembe
47
##yemera
file
##ance
urubyaro
bahuye
##songa
yashyizeho
rgb
##die
##ston
education
##guta
##hirwa
una
christo
##jana
##teur
kwemeza
##lley
phi
ibibi
eva
ishema
9d
isaba
##rst
##kuko
##sekedi
base
kika
byayo
##kubise
##funguye
kohereza
##shingira
ryose
yakwi
kdi
akoresheje
##hakana
yakoraga
bibu
azwi
bap
kwicwa
murwa
rutanga
rev
yezu
##shon
gishobora
##sohotse
##dagadu
##ije
##len
ikigega
##negihugu
ntiyi
year
##nyine
guhinga
##stine
dosiye
##ach
habonetse
yewe
ubwonko
gutunganya
gakenke
ter
mal
mihanda
out
tubona
impamyabumenyi
oba
bwayo
president
ike
##ition
amubwira
artic
ishaka
umuhanga
twifuza
baran
abarenga
years
##kuza
##ringiro
sco
##gurika
##yongeraho
oya
ino
bizi
##shimu
yerekeza
ubwongereza
##ramutse
yateye
rukomeye
000frw
ankara
augu
kubikora
amagare
##kekwaho
gucunga
bajye
perefe
600
##ard
##ocide
made
##linda
patriots
##myabiri
yinjiye
##taha
chri
urebye
uwama
##erry
##fatira
##riritse
bigi
zaba
bahuriye
akoze
##rukan
umupolisi
##hanwa
##chester
photo
ihohoterwa
rwandan
##garagariza
195
ahani
##karaba
##ens
75
##sheho
##her
konti
##gitura
2003
cameroun
##cungire
filimi
thumb
##gande
bitanu
volley
##cted
airtel
makumyabiri
##lf
amajyambere
amb
##yane
gera
98
ibinyabiziga
yves
kur
bawe
yohana
bute
##shyiriweho
indimi
bahura
abanduye
tshisekedi
bafun
euro
##uri
gukin
mwinshi
##munara
##shingiwe
##cisha
urwan
##tina
##hitanye
yamenye
promo
impuguke
##holan
ruka
abavuga
sadate
##ranyijwe
butu
abicanyi
##tangije
saint
enye
gutangiza
##guha
uburasirazuba
ibitaramo
manzi
##rc
house
guhungabanya
mahoro
##chael
ndayishimiye
##bure
hab
##kangu
when
##myo
##rusa
kuvura
abatoza
gasogi
arenga
mubyeyi
byakozwe
hariya
##jora
##mamaye
uwu
##rarwanda
byatangajwe
ruzi
##mbiye
mpande
ntimu
##pon
guhora
##simbura
##rson
iradukunda
rba
##itsin
muziki
##pf
##ries
##ney
##gayi
kibu
bwacu
194
muhire
iherereye
kubafasha
christophe
##cira
manchester
##zinduko
haka
rute
##tsiro
abaki
akagera
##yoboraga
kuzamuka
##banutse
##kumi
hakuriki
ruke
ryabo
nyobozi
53
akorera
glo
umurwayi
burezi
##win
bakomoka
##ngeri
inkoko
been
isabukuru
iwacu
##px
##generwa
nkera
##buzima
amaba
##celles
##dagaduro
kizaba
sibomana
loni
##giri
ingengabitekerezo
guhana
east
##din
bimenyetso
nyamwa
won
gucika
haje
##bukije
yaravuze
them
gitifu
##burira
gufungura
##dera
cyamunara
hegitari
800
ivo
ibyabaye
bawu
rusa
imirire
guharanira
##silamu
##shisho
ndumva
mpanuka
babyi
##yoboro
shin
rishya
##ille
##kubiye
##rabura
##byemera
isomo
##gonda
kamu
ibigori
##tus
mibereho
tou
dja
basabye
##onjora
atangaza
##rence
ukwiye
abisirayeli
equ
kabo
dushobora
irenga
abayahudi
##gufasha
##zon
first
ahanishwa
iji
nzaba
vc
america
wigeze
##fatirwa
mukakarangwa
umuta
rutsiro
br
mafoto
ikirego
isoni
fore
ifatwa
wakoze
imyambaro
05
hatangi
sudan
ajyanye
##cts
yasobanuye
intama
ndanga
##plo
##tube
burera
goma
gisenyi
nyamwasa
bambaye
business
uwan
##tincelles
basigaye
ndende
article
##inea
##politiki
fred
##kuze
kimenyi
ukorera
##yanja
rt
ukiri
##sabira
##dege
##mburo
##zambi
##car
ujye
##vest
##fuka
ayobora
namu
##remye
babe
akaya
commun
gusiga
biden
##himba
media
uburinganire
kuvugana
itandatu
##kishwa
gusuzuma
intanga
##vuge
proje
##cen
##hagarara
ele
##kereje
guhinduka
##sobe
##lemu
bashinzwe
ingana
hana
ishingiye
gutora
institu
nabonye
51
imbyino
aricyo
bapfuye
ibyumba
ikibuga
##kurikiraho
dro
##padiri
dawidi
guterwa
##koloni
abanyafurika
gitero
batandatu
biteguye
gor
##huka
##less
ubuhu
##garitse
##lbert
##koni
birashoboka
yatewe
sil
yashize
umuvandimwe
abafaransa
##lon
##shushanyo
##bwiraga
yiba
gorilla
##mbwira
##rebwa
basabwa
riba
adu
yitabye
##gogo
ibisobanuro
kuzana
mose
##taba
uwe
##kurikirwa
##kurya
throu
yahoze
ifasha
##cra
kumvikana
izajya
abashaka
moro
bigera
##oney
1000
bla
uwahoze
##mungu
##kunde
theogene
##gereje
##ning
yishimiye
iyobowe
##yiko
##yoborwa
bigoye
##lica
yakoresheje
manager
tuyisenge
etincelles
ameze
manota
uvuye
kwizihiza
ambasade
babone
colle
##swahili
abarwanyi
mazu
yuzuye
eve
##mbya
mugu
there
kuruta
ibikombe
munyarwanda
volleyball
babaye
umuganga
##tanya
##ling
##yobwa
birebana
##byu
noheli
banyu
basore
##buke
##subu
commi
sinzi
byatuma
michael
eac
##himana
##hutira
##rp
##dindi
indu
##cece
##pany
43
dj
bamwi
##mejwe
imbibi
yasohoye
##bindi
##hitan
kuti
bishop
tuki
##cie
million
yahuye
##ities
yatwaye
yakoreye
##kubiyemo
##kundiro
##roheje
yazi
burusiya
mashami
abarokotse
misozi
##yamamariza
genocide
rwandair
nyakuri
yatawe
abura
gukubita
ndagi
biturutse
##at
##kubiri
ibipimo
nkaho
##shyuye
inkoni
igenda
##10
babyeyi
##gango
##mvu
umugi
ibihu
magufu
gutsindwa
ubuvugizi
mitwe
thierry
penal
use
##hing
##mbuzi
yongera
uherutse
gro
##tegura
##pre
##bal
##zure
state
##duza
##tta
bashakanye
byatangiye
sto
pawu
##kabaye
buhinde
dusa
mwashakanye
##gendeye
ng
##times
bushobozi
mozambi
plat
##val
mishinga
buhoro
kurenga
rure
55
kugwa
##kweto
##pfobya
##mwuga
##ctive
bizatuma
youth
nsengiyumva
kuvugwa
ibyan
nyir
if
abashoramari
imvugo
some
zahabu
##lation
##stru
inkomoko
##girika
##sani
zimaze
guka
kilometero
##fatiye
ubusabe
yafatiwe
ubwishingizi
##butumwa
##jimana
2005
##bozo
abarundi
berna
cer
biteye
cri
##diko
ghana
uzamu
umucuruzi
rukaba
##lus
##lp
##gama
babana
##biya
cyabaye
ntawu
masomo
yaga
inyigisho
##mwita
150
josi
##kaye
65
rwamu
##komeretsa
gucuruza
bishingiye
urw
##df
##yejana
yihariye
through
##gozi
kayita
biki
##henze
kwibaza
icyerekezo
ijisho
guho
bihagije
##sso
##sitani
##rejwe
ikomeza
##and
gukira
##ker
mate
##ganijwe
##cana
amatsinda
##dina
abajijwe
##tiste
andre
ifata
##lg
yakinnye
##shimana
aze
##vugana
franco
anasta
##shyikirizwa
runini
urwibutso
over
karindwi
victo
mujye
##yehova
yaran
##gororwa
idasanzwe
##boka
wasa
ibitu
##bwirwa
sam
awu
guinea
##hemu
##vise
rishingiye
pasi
muvunyi
##cho
gushinga
karekezi
youtube
##ng
abazungu
tugize
juru
ibe
sofia
musozi
##cibwa
yego
super
alfa
68
uk
##byumva
company
habimana
byagiye
imitima
government
ger
igihombo
njya
bukaba
bifasha
ntiwa
##sanzure
abashakanye
system
rukuru
imihango
hazaza
##holandi
pawulo
mucyo
##byaranye
##dite
##tain
nor
##herejwe
1990
stanley
mina
umukandida
##itera
##liza
imyidagaduro
##sanya
barabi
josiane
##shing
miri
kwigira
udushya
##tar
##ou
##tego
duce
ibinyoma
barcel
##cti
mac
##furiza
##jyanywe
mukamu
umunyezamu
kurwara
baganiriye
##gome
##herezo
burengerazuba
habu
notes
ntawa
cyitwa
kurwana
bishya
bikunze
zin
##mezwa
niyi
##fashijwe
##tries
yabitangaje
intare
marine
ryitwa
nyiran
times
nkunga
umushinjacyaha
countries
##shyikiriza
agricul
yiteguye
gusanga
icyari
##mbana
ph
byoroshye
ibyiciro
49
gutoza
##ires
high
##drid
ajye
ly
##komereza
jules
sma
bwakozwe
##vuyemo
egi
##sabaga
tha
magufuli
gukwirakwiza
##cunga
##viramo
abaturarwanda
bitera
bagakora
rwiza
##rangamutima
akimara
##riba
inyo
##kennye
ayoboye
njyanama
had
mtn
imisozi
mukunzi
umusirikare
sugira
tangazo
alfabeti
uburengerazuba
ani
human
##hungabana
##rusalemu
free
rene
ven
turaba
bikaza
##herukaga
abakirisitu
yashyizweho
nkambi
##lande
inkingo
##diya
##rankunga
byaje
peter
yagaragaye
iriho
yashakaga
guhita
ariya
##manuka
fau
##lindo
ob
yabuze
haruguru
aturuka
erne
##zaho
bigiye
fifa
kinsha
union
##zanira
2006
##roka
gukaraba
##dis
zambia
##logy
services
comp
##fatanije
##hugura
zisaga
rika
itabi
yerusalemu
albert
ave
torero
nyaba
kwagura
yagera
bibaza
##lity
##deration
madrid
myitozo
57
##bahi
##itekerere
isuzu
##miya
kuzaba
kay
rulindo
secu
amadorali
anto
ubuntu
ntaki
mane
ibara
bak
##cakubiri
##gereranya
abdu
##dine
##rukira
buvu
yagizwe
ibitangaza
yandikiye
yama
nijoro
musenyeri
inzozi
ijya
##mutse
##anirwa
##mvira
gakomeye
imboga
##zenguruka
##boneza
france
uwimana
ivoire
edo
slovakia
sunrise
gaciro
gasana
juli
urwango
kinshasa
fon
wuba
##sea
bundi
ibicu
##lar
program
center
akomeje
amafi
##tsweho
##rwano
irya
##ciriritse
abanyamerika
##kubwira
navuga
pl
##onel
bwicanyi
mahirwe
kabila
kunye
##semburo
dushaka
##singa
twebwe
biti
##ppe
kugirana
kanombe
ken
bishimiye
watangiye
kitarenze
kureka
yajyaga
amashyamba
##ghts
masoko
sitade
public
gusohora
mahugurwa
##gendana
agapfukamunwa
radiyo
life
ibira
##ngero
ikiciro
ataza
atangazwa
zina
bible
##mvikanye
99ubu
bunyu
tuda
tuzaba
##mirwa
prote
habineza
money
yahisemo
##mwaka
post
ndagijimana
irenge
abako
burimo
gatuwe
##byiniro
ashyira
cro
##kemuka
baseze
##rwenya
itsinze
wagize
icumu
##garagajwe
##riraho
ikizamini
antoine
##geka
agenga
moko
lon
batsinze
##kerezo
bitangazwa
kabe
ibihangano
mikorere
700
abonye
ishin
##bul
premi
damas
gutya
kuz
kugurisha
kwiya
baraba
##zamara
##sobanutse
muho
##ous
yasanze
abasaba
bukuru
soko
##sobanukiwe
##ved
burugu
abinyujije
250px
kwiteza
##koreraga
##kurikiranye
##garagaramo
##gendanwa
nina
ukeneye
yaza
##shimire
ikawa
hita
barya
zivuga
##cus
##manye
##nse
bapfa
yatsinzwe
##shyuza
akomoka
karuranga
bitwaje
##mine
##girango
umuha
##tingito
menya
inyoni
ruhame
##suzugura
##ganiriza
wikipe
food
bampo
green
iheruka
bafana
bashinjwa
gusohoka
george
skol
##garitswe
ngororero
amikoro
##unda
umukiri
wagiye
ubuke
zawe
kaban
kurangira
bazamu
##leb
habaru
yongeraho
perefegitura
##ln
rose
igitambo
##ffi
abitabiriye
##itor
again
dist
##sengimana
kumenyekana
##tizo
matayo
zituma
impeta
##tt
##yer
##haha
like
##raneza
yaru
yashyizwe
pra
##boni
##yika
diya
yitabiriye
##irobi
minota
##sk
kubakwa
##sipanyo
bashoboye
augustin
byacu
about
abahamya
even
##gamiye
inyanja
ibimera
##ngirehe
gare
bemerewe
nyanja
arwaye
##23
##mad
cyayo
##cike
urugaga
baz
akeneye
imideli
sawu
hand
##lls
kumuha
witwaga
##magazine
nshaka
manage
ifumbire
##banzi
##gurishwa
##raf
mumu
##rum
nairobi
##mbuwe
yite
byabereye
##komeretse
imico
yishe
##vision
igu
uhu
kurenza
satani
##rem
gipimo
ndimi
##magaye
##yenzi
##higa
##gwate
##ronavirusi
ubujura
foot
zikora
good
##uard
##itsinda
biranga
bushake
byana
bitarenze
##hagararira
##vugira
byatewe
mibare
obama
wana
after
party
kab
##sub
camp
penaliti
##jurire
##rwanira
ukundi
abatishoboye
irengero
##bile
##sigara
these
##puta
anastase
##tangazwa
##vie
imibanire
##mc
ibiba
ukuboko
damasc
##kh
##ibi
##nyu
##ruti
gusoza
##twaro
kugerageza
##bane
york
imbaga
economic
ubutasi
imyigaragambyo
##ps
##muco
umuhondo
yere
2007
yavukiye
##itekerereze
##rengagiza
ngororamu
##au
inkweto
abaye
ibirunga
buyapani
abanzi
##torewe
##hutisha
73
##mati
guko
iyica
mpi
##mme
munezero
ubukana
##miza
baregwa
##ganzo
##ndera
nyabihu
ikorwa
yinjira
##roma
twavuga
live
##shime
##mie
white
bakan
kwinjiza
##rindi
ihame
kugarura
##masi
##bonamo
tatu
izabera
burugumes
##cr
gusobanukirwa
ibiyaga
imigani
##nick
shingiro
asigaye
uyoboye
bama
rwandamagazine
##vel
##itekereza
jambo
bategereje
##ziza
twagira
kwandi
udupfukamunwa
bikomeje
ahamya
provi
gitan
##rch
##remezo
##simbuye
bushingiye
ant
##inema
ruhe
bagombaga
##sita
indo
##kecuru
##hane
##yamatsiko
##itwaye
mwami
budasanzwe
ashingiye
sene
##rembo
##tifi
byagaragaye
##nararibonye
global
##jinya
muki
mazina
bahungiye
work
gt
wayi
demo
bagamije
asso
##cle
##hererekanya
bizwi
##tangirwa
uruhushya
power
ivangura
inf
cnlg
##17
##bigwi
any
nyamata
##taye
##haza
hariho
simba
##sanganyamatsiko
akaga
meddy
##urce
umutesi
##ngiro
iburyo
baptiste
##fen
impaka
uburusiya
amacakubiri
##garagarira
miriyoni
mpe
##hemuka
clo
vu
##ruke
uburundi
nizo
rube
##ines
##muremyi
kwerekeza
##itiriwe
umwijima
mwese
9c
umuganda
##tiri
##mbutse
##kiriwe
igize
58
##kuta
tubikesha
yiswe
founda
##genera
mukerarugendo
##korezi
ziriya
mode
bitaba
56
66
##guka
##hama
##shobore
republic
avo
##vile
willia
well
kwihangana
amakoperative
mozambique
##mpaye
bungana
##kiniye
grace
##24
kigeze
##riyeho
wifuza
burugumesitiri
##phonse
muhungu
##rubozo
umusoro
gushishikariza
bishimira
young
aramubwira
twumva
##gijwe
war
##iteguro
bou
ryayo
koronavirusi
arc
asimbuye
eti
##kiya
hasigaye
ruge
##herereza
edouard
foundation
wit
zuba
kevin
ayisumbuye
iruhande
64
##gon
rab
faustin
akina
bumenyi
profe
bashyira
ukuba
dar
99umu
roya
igitutu
##et
kiro
irindi
##kenerwa
##teganya
kim
ito
barangije
uhuza
bacye
big
bibli
##genderaho
emp
wanyu
yerekanye
ikina
chall
akurikiranyweho
##im
##higwa
cyatumye
isiga
##garijwe
aheruka
fr
##giritse
gukuraho
bifitanye
tur
ikaza
kugeraho
yakunze
domini
kujyana
##randa
ahora
##mvikane
muge
##batsi
zishinzwe
lau
##geya
ipa
ugera
kuro
##bwiwe
ntizi
ukumva
bakekwaho
ato
##lita
guhitamo
vis
ran
rbc
##gerere
##bero
##hohotera
##geragere
perezi
abigishwa
indangagaciro
##buja
imvaho
##giramo
imihigo
##gejejwe
amasegonda
##shen
football
bakin
ubwigenge
##tandaro
##ozo
amahame
nonese
gutakaza
icyuho
85
umugaba
inziti
##hato
ubusu
ibikomoka
##beraga
kwamamaza
ineza
ibitangazamakuru
##zanywe
sankara
amenyo
henshi
hashingiwe
chel
cami
cyera
##baro
gisi
##kwirakwizwa
bamporiki
yam
icyamamare
##yandikisha
gutura
wahawe
catego
yaramu
serivise
abatanga
umusaza
hy
##pt
##remwa
gushimira
abamotari
##nika
ihari
qa
umugongo
anti
amande
78
abahagarariye
igisa
isaac
ugeze
umuhe
umuhoza
cyanditse
##kuruza
gusambanya
experi
buso
mijyi
jeannette
gukorerwa
##deni
umuvunyi
basirikare
bashyize
gikundiro
itangaza
umwanzi
kuvugurura
##hangani
adver
##mple
##guriye
popu
##ronko
ibinyabuzima
##mugabo
##ranywe
kutagira
##yinya
##weri
gukangurira
abakandida
##dom
bavugaga
##sipanyole
itangira
gupima
##itezwe
kalisa
ibirwa
rema
byibura
igenzura
uzajya
itangwa
bwaba
##itange
bagiranye
ukabona
igare
nkora
bakwi
##garamu
##jiji
kwanga
startimes
iyicarubozo
ikwiye
gukundana
jack
idu
respon
##hiti
cyawe
bataza
ubutunzi
bukangurambaga
aregwa
hakurikijwe
##rahi
bafatiwe
yashimye
##biye
nawo
amarangamutima
##mubwira
##geri
support
gutangwa
##somye
arangije
inspe
ntama
tri
##cca
umwanda
information
challenge
ugi
bateye
abagororwa
urusobe
abayisilamu
##banji
kali
ukabije
##uru
majwi
bakagira
##riste
rwagasana
marines
##dji
kuran
bareba
umwo
cyuba
kabari
67
##bita
ukina
umukoresha
abahe
news
kwitabwaho
byumba
##sto
##rara
##yumu
##nis
##rinze
nzaboni
##gavu
##rena
##hanyuma
fatizo
utwo
##seka
akagira
juven
binyamakuru
##rwi
amatorero
kiyaga
##nguwe
church
myan
##ler
nimugoroba
mwanzuro
perezidan
ntitwa
ministeri
melo
kubuso
##mz
##tiye
kanwa
##hagaritse
azira
ukwizera
ashimira
umushumba
abarezi
bitwaye
72
dona
gitekerezo
##cara
kambanda
musaruro
mushikiwabo
##sungane
ihita
ubuso
##tange
ili
##kongera
atigeze
yannick
##hangan
##kinwa
##cuza
rea
banze
agaruka
chelsea
where
abasaga
ibirayi
rigena
ikaze
ruti
babwiye
dutandukanye
bruce
##cd
##banki
imicungire
espa
yakobo
bukabije
cur
isha
##itwi
yabyo
##ruza
uburi
##hine
##subizwa
urwandiko
uregwa
##rpong
security
yaya
##ced
rela
inzoka
##senye
kigaragaza
villa
wat
59
yamenyekanye
##gunga
##tiona
mvugo
##mmy
##dehe
yibukije
pac
bangana
buntu
fina
##mable
gukurikiza
cyanjye
120
roma
##cumu
birumvikana
isuzuma
##weli
abivuga
##hammed
##rekejwe
yazo
##pis
murenzi
##shyurira
nganda
hashobora
imishahara
##itwaza
iburanisha
abatari
gatete
biganjemo
##aniye
##geneye
mul
kwitaba
rin
##shyingi
biyi
turebe
impyiko
zitari
ahaza
nyamukuru
rukuta
nd
##wemo
##teje
##vate
husse
iterwa
shyira
service
ababwira
kaza
##oniya
kina
##dr
##yonga
ibite
bwara
##gurutse
last
initi
kigiye
safi
##tumvi
##form
bernard
ose
##baze
urun
byerekana
gushize
##dence
##sesengu
umuyaga
umutoni
ubunararibonye
barwaye
##sengera
biciwe
mariya
aborozi
diyo
kabgayi
umugaragu
nations
twabonye
joy
baganira
imfungwa
##jeriya
##sohoye
foto
gukuramo
ukinira
##dier
wavu
ishingamategeko
ala
apo
bahisemo
bafatwa
rida
##rereye
##menyerewe
##rindwa
libya
kiriziya
##merwa
imfura
##mbure
austra
publique
rirambye
music
associa
##pha
inkingi
ubugingo
kwikinisha
##riyemo
kumurika
ubwenegihugu
##14
isiganwa
barebe
##senateri
amasasu
organiza
rimaze
yarabi
joe
icyicaro
ukoresha
##hamu
##tire
rugero
ikiba
ikimera
gasha
nduhu
yakoranye
community
mako
master
##sanganywe
cle
ntoki
ois
##yij
mavu
##gizemo
##kurikiyeho
ihene
blica
##rukanye
##duku
sec
##pora
##gendaga
##shimangiye
##anira
mugambi
bamenya
##rekeranye
umurage
##tangarije
fabri
adverb
kha
99in
child
aimable
bn
boy
isaga
auto
yitwaje
##sire
##imi
abakristu
wavuze
##inyuka
ishingiro
tre
##mate
##hungiye
##sanyi
ndashaka
##ans
##biza
kuy
##muzi
rdf
##ice
2004
gituma
gituruki
##giriza
ubudehe
michel
erega
akumva
while
abakorera
##enze
inkongi
##rohera
ingero
inyongera
yiyemeje
sarpong
acade
barcelona
eph
muku
akabona
istan
adafite
yakuye
mahia
butaliyani
esther
porogaramu
ububi
gafite
kunyereza
azamu
ibuka
yajya
rumaze
##ngere
##mbona
##itora
##gererezo
nagiye
##wanye
##teguye
wakora
ruto
##hutirwa
premier
bakayi
such
umusifuzi
##shuka
##garikwa
guso
abacamanza
##rande
see
ubwisanzure
istanbul
##cc
##turuka
into
##logi
##bai
##wani
ibirego
mauri
zaburi
##tegerejwe
hope
tanu
baruwa
##genzo
kugirira
nsengimana
##meranya
##sal
compe
litiro
##mariya
##tis
##kers
##papuro
major
tugeze
yen
##bahiriza
##roni
mageragere
##shyimbo
yacyo
bukwe
##hinduzi
cyesipanyole
isukari
yasuye
mayo
##nguka
ubutabazi
keretse
##tezwa
##siwe
kariya
ngororamubiri
yashinzwe
##rohereza
kopi
abahoze
##gendu
beca
gikongo
akayi
source
utubari
category
fln
ibaye
##hire
covid19
##yumvise
seba
bitaramo
ibumoso
##tsindira
yatangije
ibikomere
seka
teta
non
##rye
bushobora
rukora
asabwa
wera
##shyikirwa
##byita
agen
##64
ririmo
mohammed
bwagaragaje
pays
##byiza
director
wasangaga
shu
##mene
rugira
##dou
twose
australia
bireba
gaca
##12
kigega
zigomba
yemerewe
ibikorwaremezo
birenze
yishimira
bakabona
babashe
##vention
vision
bashatse
##bujije
##gereki
ibyakozwe
##llah
murumuna
##konje
ifaranga
riti
rwu
##byin
ahi
ikurikira
##buhamya
##kumira
##sirwa
##sul
ntebe
##shwana
magendu
gica
gahana
imidugudu
##jyamo
twasanze
byerekeye
zanjye
##pasiteri
plus
bigisha
gilbert
##menta
bitangazamakuru
ugenda
##pfi
##biro
##yumvisha
ngaho
##ate
##yiti
##dra
##manu
##hurura
##ganura
##sangwa
kwirukana
##ville
##kwaya
##cururiza
nyamaswa
##lixte
bikurikira
bakoraga
muzima
##ryohe
##kubitwa
muma
ababo
##kanywe
ukugira
mobile
under
hassan
zitwara
bwami
ue
umushoferi
bure
gake
colo
mpinduka
eco
##wing
rutare
tuna
##hangange
hussein
hagaragaye
vian
mukaru
mudu
##limana
##tha
barenze
watsinze
gihari
igiswahili
##esti
kumenyekanisha
amwi
ububa
##kekwa
migi
bakazi
umusozi
biyemeje
barindwi
project
ryu
bahoze
bicwa
zisanzwe
gutunga
shami
centraf
fabrice
##ww
izakomeza
##13
##ramba
kugo
##tike
99ama
timo
iyitwa
crea
eme
##15
gusobanura
wamamaye
ruvuga
yun
##lk
##inda
##zerere
abagi
##hemba
##subize
mugitondo
anthere
ugizwe
##cifi
person
egiputa
haru
##shaho
messi
autho
##reat
##rwanye
##ririmbyi
##ak
urusengero
rights
ubwikorezi
gore
bibaho
##shyo
amaho
prima
imvune
ole
rupfu
washing
amaf
##kundan
numvaga
##shyikirijwe
special
##cture
babuze
hatandukanye
barasaba
kwangiza
##yumvamo
giherereye
diplo
supe
nduhungirehe
##18
kingana
only
bajyaga
##kiranuka
ashimangira
eli
now
bworoshye
##gamira
##sezi
##ports
yaraye
##kubiswe
##ika
naje
##tiya
##cip
entre
ernest
experience
##rambo
yashatse
togo
##kingirizo
kizi
##hie
twamu
umuhanzikazi
##rondoro
prince
fer
ngamije
ubujurire
dukwiye
ubwato
bazize
twan
##ption
abakoze
##yuza
havugwa
kwishimira
##lam
baro
way
##dende
rwanyu
amenye
arusha
asubiza
opera
gushora
butera
alge
##rg
##ining
yabonaga
##kiranya
hakenewe
##vanye
##voma
yabivuze
yagerageje
duto
##bonana
ubusambanyi
kubohora
batera
##muni
##rungu
amashyaka
giciro
ubwisungane
##koreshereze
ikana
##bune
cyaro
umwalimu
##shyikirano
74
bikiri
cyabereye
ntiru
commit
##sted
##rure
byibuze
itwara
yabyaye
##seneza
ubuhinduzi
gir
urundi
##dore
62
babanza
birinda
guhamagara
nkengero
ntiyigeze
##pro
ins
##waneza
ral
ashize
ihuza
uhoraho
##pimisha
moya
bitoroshye
tugira
##cuku
top
azize
ntekereza
distric
##sangiye
##itonde
##kundira
##kwita
##ziga
##kumwe
mai
dusanga
agahita
die
confederation
##yetina
umutingito
hagu
gisozi
kinyejana
utazi
##tandukanya
##yetinamu
phili
ababu
wakwi
ubuki
mas
##jyane
francois
mor
nkun
ibito
cou
twagiye
peteroli
djabel
##rant
##cell
##twali
atabi
insengero
ruhare
most
##ix
karama
kanda
##vili
ihungabana
njyana
mico
impuhwe
##hangayikishije
omar
ton
bazwi
##bundi
ubuhanzi
kwirukanwa
##koraho
uwase
##yambaje
##dge
imani
ubuyapani
zigamije
##cura
ubwanditsi
ifungwa
##ila
mutoza
umuhuza
abashakashatsi
##yutse
##bete
##hindurwa
ihabwa
follo
intangiriro
main
##nguru
dalla
##koza
##gugu
bukene
##turage
##meri
invest
bijya
amagi
##ngerera
umweru
indanga
smart
##rimbye
kibe
##rikira
mutungo
iherutse
##tural
kame
tujya
##shimirwa
aux
inzovu
awards
iteye
mbonera
##dation
##bohora
##shakiye
icyuma
reso
##pfura
avuka
barwayi
babayeho
kwima
##numz
##kubye
corona
many
huba
initia
guhitana
rigira
jay
zone
mufite
abagaragu
abakristo
##sisi
##via
mwiseneza
##babaro
gukomera
hen
yagiriye
cyahoze
take
slowa
inspector
ephrem
ugamije
##tita
##zefu
amate
niki
##hishu
film
cli
gerard
ado
basabwe
janvier
abakiliya
ipfu
bag
bahora
abakene
aririmba
magingo
##jagari
uburakari
nyabugogo
itora
##kenga
ruban
yizeye
mukazi
buvuzi
95
bashi
abarabu
waha
uruhande
cyatangaje
bitero
byiringiro
##tangiriye
abdul
umuririmbyi
misa
sub
access
##wanga
socie
##kishije
sema
buriri
baturuka
ibyabo
inzuki
bac
gusenya
buhu
##hizi
ntaza
imigambi
##pfumu
##tangire
##gutabara
kubya
abajyanama
mee
mwalimu
batewe
iva
bihari
urusa
agakoko
udukoko
gusangira
siyan
mbaraga
batekereza
senda
izamuka
84
##yitse
kima
##komereka
rwasa
abiha
bitemewe
icyifuzo
akekwaho
76
##ngutse
##mugayo
ziterwa
dji
gukinira
ndayisenga
##uti
##dro
yakira
ntarama
muhadji
byemewe
agize
bafatanyije
batinya
umujinya
bugamije
maka
urugwiro
##ors
##rageza
##byibu
utugari
washington
##kamaro
abato
##bereka
##fitemo
##meni
uburebure
##rora
##garukira
imyanda
brazi
bisobanura
##heba
##mbiya
##subire
lib
exc
aramutse
agriculture
kenyatta
china
##mpundu
##nganizi
##zemo
buil
common
##burayo
ndabi
##rume
ubwayo
should
vianney
akinira
kwiyamamariza
gihembwe
aragira
afungiye
zibishinzwe
senegal
rra
kuzuza
macye
uruza
cyatsinzwe
##korwaga
##fili
yumvise
rwigema
platnumz
ikub
umugenzuzi
yarimo
ibyavuye
2001
rwibutso
yine
##rike
birenga
birangira
buha
##kanywa
imirongo
bahagaze
morocco
baherutse
##kugira
family
arya
ronal
mukozi
imitsi
##sation
berekeza
##ingye
help
udafite
algeria
##25
back
##tur
injyana
##tirwa
bitabo
etc
##koman
##bushake
ingoro
##wisi
ubuha
uburanga
zizaba
mihango
bitekerezo
##kwereka
ikiraro
akayabo
atangwa
ibivugwa
gishya
##durira
##tory
bitara
##gereka
##tangijwe
##roheye
ronaldo
##mfura
yahe
##yiri
gukurikiranwa
amashami
amaherezo
dukeneye
umwimerere
##uro
inkumi
akabariro
solu
bameze
##turo
##hangane
felix
madaga
ashinzwe
##ii
##bia
##mubiri
rwaka
bahurira
##py
bavandimwe
##bujijwe
ikibi
kwihan
biribwa
atera
apfa
##ryi
ubutayu
atwite
seconda
gacaca
##dd
abapfuye
amasengesho
gishanga
##rokoka
techno
##rebera
buholandi
kibuye
umunyu
ration
babarirwa
alphonse
umunyarwandakazi
gusiganwa
yasohotse
manishimwe
uwamahoro
emi
mona
##fil
basha
ibrahi
##gerero
mpunzi
kuramya
damascene
##kaje
yaguze
##rance
##neri
##senyuka
danny
cul
##ctions
intandaro
amarira
kigomba
wange
##murampaka
##twika
##subitswe
biva
##sive
ibishyimbo
rugan
icyumba
##vis
rigizwe
##suzumwa
guhimbaza
ef
ijyanye
yatangira
amatsiko
buju
##jijo
how
kwegera
guhagarara
jour
##genderwaho
mutabazi
imfu
mikuru
would
##ily
##aniro
umenya
wato
##ality
mwara
##shishozi
luka
png
##63
##itandu
##byimba
atarenze
rwigara
akaru
##yoboka
ntibu
whatsa
isesengura
##kuriye
bikana
##tif
birababaje
kayibanda
syl
meeting
ikubitiro
##vation
law
umwiherero
kaburimbo
initiative
##oo
mum
imfa
gikuru
abangavu
##menyin
theone
positi
##mbuga
##ramuka
isho
may
kwishyira
rama
##sirikari
1993
gatabazi
##mpike
agaragara
##fer
bay
naryo
yozefu
sebu
past
get
kimihurura
##yijani
mayor
##tunganya
inzi
imyuka
thomas
##banjirije
game
come
kitara
##ribayijani
bazanye
wambaye
makosa
igipimo
coup
twakoze
ndashimira
biragoye
yunzemo
yasubije
umuganura
ingwate
yibaza
##hangarwa
interuro
justin
##ream
##barira
kwiyubaka
##sinye
##rasira
onu
gutabara
maraso
yaki
ntib
urugomo
ally
burenganzira
sector
turasaba
private
ikiremwa
acco
busingye
avec
##menyingiro
##geli
batawe
indashyikirwa
nzeli
umuhinzi
bukeye
imipira
##nie
local
iteganya
yagi
##yobe
zijyanye
hero
online
kuzirikana
johnson
iry
##rah
##babaza
bisi
##yanye
nico
##kinaga
umutuku
qatar
nijeriya
##part
labora
##vugurura
harelimana
mitungo
##pla
bugaragaza
rwacu
bel
uwamu
umututsi
##yangamugayo
including
ububabare
ije
muhe
mubare
##rikire
bots
ryara
##rizwamo
malawi
ubudage
##zza
kuma
nakoze
end
imeze
##zerwa
yigenga
cooperative
imanishimwe
ashoboye
##yobera
korali
banyamakuru
kwegura
huriro
mutagatifu
against
ahazaza
##ande
##teze
nayi
buti
igihu
ntaba
gihembo
ubwiherero
bikamu
murakaza
cameroon
byumweru
##ful
##yemerere
ishuli
ifunguro
tro
##gg
kabanda
##itize
nkana
accor
ubwitange
##garagambya
##yongereyeho
william
tito
cyashatse
kwihutisha
##tswa
abirabura
nkusi
blo
bire
numvise
inguge
ibihuha
##boneyeho
##jugunya
management
murima
##itabirwa
theoneste
evo
ubumenyingiro
##itabiriwe
butemewe
usengimana
rwatangiye
##sigaranye
yateranye
kata
byateye
rikuru
kayihura
inzitizi
bahinzi
##tien
niwo
##tanye
mishya
migabane
board
byanze
brazil
##iyo
##90
rukara
##komera
indishyi
kuvamo
gushakira
##hangayikishijwe
mukundana
##itsa
byavuzwe
ahagarariye
medi
rwanyange
udasanzwe
imitekerereze
mabi
ryatangiye
bazakomeza
acp
mbaru
cmi
umeze
ubusho
hakwiye
yifashishije
batabi
##dents
uburozi
hagomba
zimu
##vaga
##menyereye
amadorari
##hagaritswe
makuza
botswana
art
bihu
mou
francisca
riteganya
##ress
yahuje
##tete
abagiye
issu
nyiraba
because
##hize
west
kuzajya
##thers
77
ip
gabon
drc
rudahigwa
callixte
ryanjye
uva
kiru
##guraga
faso
yamwi
zirenze
irembo
forever
emplo
bujumbura
dini
##83
guhunga
ntaganda
forum
##cyuho
61
##kurikiranira
imyiteguro
nous
##yemerera
adashobora
kugabanuka
uburemere
evariste
nyo
ngomba
ryawe
pascal
indone
ahana
##dc
kuboneza
##gisa
habura
week
sea
##yumvikana
nkemurampaka
##gendanye
bafungiye
##batse
abaga
byawe
##dor
ngarukamwaka
academy
##gukunda
tuti
zagiye
dubai
arena
tuzakomeza
mutekano
sti
singa
batangaje
bufasha
kiris
##ital
gaz
turashaka
urabona
finan
##ozofi
##kabije
##sie
mashyamba
rigenga
amusaba
nyirama
##rwanaho
ugereranije
ruhengeri
ntan
##garagarije
del
##ndiro
babikora
##hindagurika
nshingamategeko
rwabugiri
siyansi
##shege
bet
##rente
umwambaro
those
rmc
##iki
##bagirwa
##meke
igendanwa
insanganyamatsiko
igishushanyo
##gararira
riga
umunyamategeko
##hanirwa
filozofi
tuvuga
imirwano
azam
madame
mubano
kubyina
yasize
areba
##mal
didier
somalia
whatsapp
ishya
##goma
igihumbi
kongerera
bemera
siko
afrique
diyabete
##sing
bafasha
umukara
gutegeka
kizwi
gashumba
convention
guhumeka
future
ubwubatsi
akurikira
##cing
##reta
bafunzwe
rwisumbuye
knowless
association
src
www
##mers
##tique
afatanyije
iboneka
imijyi
ingorane
##riti
##basiye
wayoboraga
##gengwa
sal
harerimana
##bajwe
democra
kubyo
##ingi
nee
##hererekane
##mbane
mpita
district
gikondo
uwabi
yabashije
bwihuse
uz
zitanga
##gombwa
uburere
##marayika
komiseri
since
serge
ingeso
incuti
effor
bahanganye
2002
ibicurane
umukiriya
atangiye
wamenyekanye
iteganyijwe
portugal
yigaga
amagaju
uhagije
##fc
yasoje
rwara
daily
1997
##yandika
##shyikirije
ukurikije
mure
basu
kigira
yiya
head
fashi
##none
##stan
biko
nifuza
nyirin
bihembo
gicamunsi
bazira
yatubwiye
kuryama
sinema
##kimana
bihuriye
byitezwe
rese
##itura
yumvaga
ruhago
inyota
icyangombwa
##oner
mwari
murugo
ateye
bacuruzi
bihano
##dizo
mati
ici
segiteri
barasabwa
bagerageje
gusinya
iye
bipimo
##hinduwe
bizajya
##minari
dieudon
kabandana
haruna
atsinda
ukekwaho
##shonga
abashyitsi
ruki
byafashwe
##ned
zigaragaza
##subiramo
bonyine
icyarimwe
wikipediya
##tine
banyuze
##mbukiranya
guhatanira
just
itwaye
scien
utanga
yashimangiye
193
kwereka
magare
hambere
gihu
babasha
wica
##fero
cette
##blika
##sb
##kapu
yarangije
kabone
##tors
cyakora
cyatangiye
##ranishwa
##garutsweho
##garutseho
oppor
69
##uko
yakundaga
gukiranuka
bugira
busu
##sus
komine
##kundanye
ibrahim
utwa
##ign
##scar
twatangiye
jeu
bizafasha
kuburana
habarurema
##giti
##gizwa
##mihigo
##hiri
kwifashisha
2024
biruta
##tics
site
uruzinduko
official
mc
kurangwa
##rurwa
abadi
gatanya
bakize
cyicaro
alexis
##lit
mugari
##bibe
kacyi
nyayo
##pore
utundi
bikabije
umutware
yazanye
##zewe
##kirana
bisobanuye
mashini
ntayo
mer
aline
##itonze
rukumbi
cris
fun
sk
wiga
imurika
trade
gmail
##muro
iny
abatavuga
##hindagu
##komotse
##banziriza
fashion
resear
abyi
ritu
impor
care
##elle
bakumva
commissi
wda
hashyizweho
imisa
ijonjora
bagerageza
##gurishije
mwuka
espagne
uherereye
##ile
butuma
kijyanye
101
kacyiru
epi
nsanga
ibirenge
imirambo
ryakozwe
jene
atekereza
place
imperuka
##tumvikana
ahera
bk
haboneka
##sozwa
##yamabanga
##pfunyi
kwicara
##hamagaye
hiti
umufana
##ness
##yamahanga
afatwa
nkingi
ubuhinde
##ganaga
##kurikiwe
ngara
##vanwa
##phy
techni
christine
umumaro
abashoferi
##cipa
bahari
myanzuro
atuma
ngengo
##kubera
amafunguro
ibikorerwa
ikiyaga
mic
pet
##pimwa
yitwaye
yabikoze
opportun
bor
##16
##kori
##inze
##mazi
gutegereza
##vugiye
hako
##genwe
barayi
number
butayu
ngenda
uya
##horera
natangiye
waga
yishyu
ataba
ibarura
ihema
##cri
hakorwa
##mideli
##singwa
iii
olempike
ntiyari
buriho
yicaye
camii
ishyan
##wei
##ined
##jugun
umuhate
cote
##nguranye
ndamu
umunyamerika
uburaya
yitegura
##romo
kwizi
let
bituruka
ateganya
uheruka
##40
##vugi
abaregwa
amafranga
##haguru
ndayambaje
akongera
umwamikazi
yakora
##hirane
bagakomeza
yababwiye
ruzinduko
icyatumye
##gabanyi
##hamed
bikekwa
##itangarije
eta
bakwiriye
abatwara
igite
##nwe
salo
afunzwe
##kungahaye
indangamuntu
alo
akoreshwa
imideri
iherezo
gushyingura
louise
kugerwaho
ukomeje
rwawe
##lands
##hindagurikire
##ie
korana
kwifatanya
saba
byihariye
##rth
ont
amakarita
village
ces
gitego
##main
yaryo
byagenda
urubuto
##sante
yerekeje
afitanye
atta
0788
nzoga
82
##imba
busha
rugwiro
mire
byitwa
pacifi
kwiton
wishwe
kayiranga
tunisia
uburiganya
##vement
avugako
der
robo
ubucukuzi
##tunguye
##ola
##cyan
kubeshya
##kamo
arizo
valens
imvururu
gikomeje
urumuri
diyosezi
buki
##sabwe
##shinge
##koreshaga
bahuje
##onat
kimironko
uwera
fre
gan
waka
ikiguzi
##toire
##tegekimana
##sinyi
bagahabwa
mutesi
iyuba
##loni
ubushishozi
##zukuru
##fore
##tween
paradizo
uefa
avuze
##aka
mureka
bakunzi
##dayi
##zuka
##sting
mohamed
##zihizwa
training
##itsinze
black
ski
intore
yoweri
between
twahirwa
yonyine
iro
ikan
##tesha
bizeye
rugerero
bakame
kwambuka
jyewe
atangirwa
##76
##risha
umurego
abatara
ibitsina
##ritrea
##70
##shashi
gaho
urujya
umwete
kwitwa
conf
##mvisha
yujuje
##rdc
ingeri
mva
##gs
##jn
abara
wavuye
##tsemba
yandika
communi
##yaniya
##zibacyuho
cyubahiro
binya
eritrea
##mage
##biba
abacu
gas
##kurikizwa
bakaya
##ella
##rugero
##garagaraga
mibonano
bariyeri
dasso
tea
yahagaritse
kubuza
##yumbati
yateguwe
ngirente
ubudahangarwa
oseyaniya
##diti
umufasha
umukecuru
buzaba
semu
##rengana
##anda
bahitamo
buhari
##zamuye
affa
aran
nsengero
zh
##ep
ingira
##manya
yatangajwe
college
amon
mureke
##kaga
yagejeje
##yoye
kada
##itoza
biteza
partner
mwo
##yija
burwayi
zigenda
agahe
uduce
kizabera
dominique
commissioner
aseze
##ruya
##kumva
gusesengura
abaso
ambwira
cnd
yafashije
gushimangira
water
##ilo
umuturanyi
ukamu
umugani
netwo
biravugwa
batishoboye
ubucuti
79
kubwiriza
bakurikiranyweho
buzi
##kemwa
##gwamo
##twawe
bwonko
boys
##come
yanduye
tere
tekini
##fataga
##gereranywa
uwizeyimana
sci
##ghe
ibere
abaje
ntamu
tujye
twavuze
numero
biteganywa
espe
ibinyobwa
yubatse
##hina
##witse
mubyo
##dist
##haguruka
ubururu
##wandikira
conference
baze
##bility
wayoboye
##vugisha
kwiyandikisha
##mbers
##ngirije
kwibohora
hea
ibyari
sawuli
umunezero
##tiv
arindwi
imikoreshereze
yemereye
gukusanya
bingana
mbega
##yitesi
yamenyesheje
ty
inzibacyuho
##vuganye
##mili
agatoki
##lova
butari
continue
##randasi
kya
##gerwa
##rurira
ibisanzwe
zafashwe
ahawe
##zabaganwa
jimmy
dra
mb
##lina
##giyimana
nata
kumufasha
manza
atubwira
##tandukani
ibona
kwaka
umuhigo
##hagera
##onne
##manga
byangiza
compet
gikongoro
kubwi
ububiligi
ibyu
coach
bakamenya
bamubwira
akunze
gs
ikwirakwizwa
midugudu
##itangire
myitwarire
yongere
increa
mbiri
uvuze
amabanki
rizaba
agasa
abongereza
abimukira
##twere
bwihariye
dallas
##mpan
##mbirwa
during
bahagarariye
##rangirwa
kunyura
bitwara
sindi
##rge
##af
amabanga
hategekimana
nomero
##pac
##rweho
tex
uwaba
badashobora
ministre
mvu
nkan
zon
##inho
##kie
cour
##renganu
1999
bnr
pha
##cb
yaherukaga
buhe
ham
##sangiza
agatanga
yanganyije
gushyiramo
mukecuru
##nta
##rda
##rebye
yashinze
##gwaho
byaga
camera
##kurambere
keza
marsha
colonel
appro
##dda
umudepite
buto
kawa
##manyi
##bweho
kwiyahura
ikoresha
##aho
##tial
##mbabazi
rwatu
twaganiriye
umuhuzabikorwa
fra
mbone
##ume
##koranye
##mamara
yagira
yawu
##rore
madini
batagira
ahura
nkokora
##mpeke
kibungo
##om
murandasi
zijya
##amagambo
kumubwira
kayirebwa
5000
wite
##hol
wawu
kimu
evode
hit
##mm
##yed
bakomeze
umugenzi
abakundana
abasenateri
rurimo
conse
order
mukeshimana
##tunguranye
##43
kurera
biku
##rangire
turacya
jud
murambi
gusezera
ngarambe
89
##geranye
##sibo
ntabyo
##rasire
isabune
change
hateganyijwe
umenye
##nt
kubabara
fao
iravuga
ijosi
##myu
##yigisho
umuto
imin
zigiye
##gurube
fardc
yitwaga
ubwuzu
##fashijwemo
koranabuhanga
bona
##reman
abasa
wegukanye
bazahabwa
twizeye
chantal
##yisire
kd
##ud
miriya
##yoborere
mexi
yaraba
##shywe
##rwanashyaka
ibendera
visit
##29
##anga
bago
amayeri
rushobora
gikwiye
bea
compu
dream
uhora
bikora
nao
narwo
amatara
zizi
ibyokurya
ndavuga
kurebera
ayandi
ahembwa
kugendera
urujijo
yishyura
bataha
wihariye
1998
guin
imbibe
bumaze
rubi
maje
igicu
##shakamo
agahabwa
kigamije
excell
quar
kutabona
##89
##kijwe
##tema
##gui
##riramo
byemejwe
among
##kopi
yagenewe
abaya
##vio
ceca
##koroni
ashima
brea
kini
##ghan
amashyirahamwe
maguru
tugi
##rengwa
areruya
##gejejeho
organization
##yuda
##ranzwe
bert
march
nkeya
gukingira
tana
tuzajya
mpana
yawo
kabare
icyiza
diva
lili
god
##sigye
agerageza
ibisasu
christ
mpimbano
miremire
citize
umushyitsi
ubugome
##itaye
zigezweho
sezi
##ganiye
manywa
bashakaga
second
nsanzabaganwa
##sesenguzi
boni
ir
mvuga
##65
umubyara
guke
gushidikanya
##dium
wamaze
yoro
zikurikira
##cupa
##shijeho
rou
bizakomeza
rutayisire
children
urwaye
bib
imyumbati
ikirenge
batamuriza
bizakorwa
ihagije
ubald
mpano
impamyabushobozi
must
batwaye
ibyifuzo
kugana
abasha
bikoresha
bikorerwa
ririya
sefu
ibaze
ntuka
resitora
kwitwararika
hil
ishyirwaho
kami
ziki
mirima
ntuza
korohereza
##busa
nahise
bugiye
kiruhuko
ruzin
mikoro
indyo
yakatiwe
bunyuranyije
iwan
##gna
##mv
##pri
barokotse
barimu
bei
fide
cele
##os
gusira
abashe
##some
refu
recor
##rageze
##ppy
fondation
93
ashyiraho
##icyo
##cinya
yategetse
##stry
joro
marc
kingdom
every
great
ngenga
##byanga
##kisitani
guhugura
havuga
##saya
report
page
##sheshatu
##rekera
sul
##gabanyije
nange
idafite
karegeya
monaco
##gers
##mico
bwuba
caleb
provin
##funguwe
binini
bakorewe
bumu
rubyiniro
##duhaye
##shoro
deli
agasanga
sibyo
mwebwe
malonga
watch
900
irani
inkuba
buhagije
zatangiye
being
##urces
card
bakongera
macron
laurent
binjira
##hanan
itungo
kurasa
mpapuro
mpanabyaha
83
##ab
##mimana
mifo
need
guhaha
ibyatsi
kubika
bizagenda
ipeti
andrew
society
pacifique
cecafa
murekezi
yatsindiye
yakabaye
##gishi
hagende
urutoki
zigira
dutu
urwu
##gwiza
mifotra
babyina
##damu
amabere
##ono
kagali
inyigo
wahuje
##demic
##caga
kavukire
aburahamu
##sme
mus
kubyaza
gushi
akagali
guhashya
bamushinja
kunyu
bwanyu
rusagara
##84
##gurirwa
karasira
yabajijwe
yataye
##pfiriye
atan
fit
ide
##85
##hure
buc
defen
states
ateganyijwe
fm
minu
spa
##range
kabuza
kamanzi
bataba
confi
kayitare
wasac
isigaye
akwiriye
##ikh
qua
##rutigali
##rimbyi
umuzungu
abafashwe
##hanitse
ikibu
rigiye
reme
home
chair
brig
ipfunwe
asu
##wealth
kubara
off
1992
##kiniraga
##aan
bakoreye
yaranze
bikozwe
amacumbi
##ganje
ntambwe
envi
##tinye
esta
esheshatu
jp
rss
warangiye
##mweli
gahoro
cyaje
tumwe
##amafoto
##muremye
respe
gusigasira
amo
baguye
naha
##tance
zikoreshwa
##garike
##renganya
turabi
love
beni
burkina
##twererane
amenya
bl
igura
ill
hafashwe
ahagaze
byihuse
appli
##69
mugezi
##tabara
rece
##rinto
azakomeza
kubica
yakoreshejwe
kurekura
joyce
##73
abasaza
gahi
simon
wize
##cht
fransis
##baniya
##pfira
kwimakaza
sini
##rial
yakiriwe
##rotse
abaguzi
biciye
rishyira
yahamaga
##hitanwa
ajyanwa
##ying
##cla
##rashi
bakore
##yomo
ruzaba
net
janua
muhonge
commonwealth
bongera
cl
uje
##cine
umuyoboro
bicuruzwa
##cop
babashije
akarusho
bongeye
videwo
akantu
january
##abantu
##goga
ikinyoma
##vanze
isambu
##cky
##ganyirize
##shyingurwa
denis
skills
imena
ngendo
ube
abavu
bikenewe
kilo
ahagije
hehe
##renganura
##torerwa
##ruri
habereye
zifata
agasaba
ihagaze
##kenya
##hanishwa
abihamijwe
##mw
nibyiza
ict
zihari
##menyekane
bitaza
##gereranyo
assis
kubw
urebe
effe
long
ryiza
umuzamu
##tia
ikinyabu
pros
susta
##mbanira
impro
abatarengeje
##kodesha
ahin
##uyu
##gri
##60
musha
abawu
billi
hatangiye
cyuzu
ruhando
yinjiza
groupe
etienne
igaragara
yabonetse
yarwo
bifashishije
cyamu
rwayo
umwere
##juma
##essa
tubari
mukanta
efforts
##gni
##79
koga
gasozi
byarangiye
ntari
him
google
##suzumisha
nguzanyo
europe
eto
buhamya
##bwabo
guhatana
##vugwaga
##lines
uramutse
based
guhindu
##huko
ntazi
##shobotse
##jamin
handi
afasha
umutwaro
##rome
##tekereje
##yuranyo
ruvu
yavuzeko
guteka
abacuruza
abahanuzi
amagu
nili
##garagazaga
##gezo
riherereye
bahunga
##ganyiriza
batigeze
ubwinshi
yaciye
abajura
gahato
poin
ubutaha
ivugabutumwa
sont
uzamushaka
nyabarongo
ast
ivugwa
amakara
uruhererekane
fabi
utb
ubuhahirane
##uver
amarenga
rigamije
##sobanuriye
##ndutse
bigoranye
pastor
ahitamo
hakiyongeraho
umutambyi
computer
asubira
ufata
##gutse
bariho
##aniza
ndahiro
bagasaba
uwizeye
##yitirira
rssb
##tega
##hanze
##mbiwe
##shyigikiwe
bunyuranye
kuruhuka
bicaye
##75
inves
abatware
ikiruhuko
bwato
##tegereze
met
nyiramu
turashimira
working
millions
agire
vup
##syi
##furije
sum
gitaha
karubanda
valen
##ging
bisobanuro
ziva
imihindagurikire
sai
##ngurana
##ganiraho
ndayisaba
festi
tr
gashinzwe
kwiyu
##cishije
##als
bagashaka
mazimpaka
brazza
journa
akandi
yarangiye
bishe
bikwiriye
ubumuntu
ariwo
ikibanza
##zane
acu
tcha
##yini
bikize
same
office
centrafrique
cr
rp
umugati
##hinze
##subikwa
yamubwiye
kuvuguru
gusezerana
hagendewe
##robyi
bikuru
##vuriza
##yanditse
zatumye
rigaragaza
##cile
banye
akababaro
bitaga
bazabi
izakina
##mwami
gitarama
psd
jackson
hagumimana
utoza
uharanira
batwara
##wed
watanze
rugomba
miyoborere
ubwirinzi
inshuke
kinyamwuga
rudasingwa
ruzindana
mbuto
##zayire
##tubwira
##shuye
diffe
##llen
gatuna
binji
ugana
##fin
##had
makimbirane
rishobora
banywa
##rinka
bagasanga
three
##ibyo
##icya
babura
basuye
yahitanye
ubucamanza
rukingo
##bwize
rwagati
##garagayemo
igihembwe
malaria
vanessa
sezibera
94
##mukiza
ababiligi
##pure
##polo
alli
muhirwa
munyeshyaka
accoun
environ
ihinduka
nitu
bikorera
gar
pala
##sezerera
##hemberwa
##wingira
bagire
gusana
wafashwe
mais
##panga
benjamin
iranzi
micro
##ubwo
##rma
##bitsi
##hwanye
mukora
inyarwanda
bugi
kamba
##handi
kwiye
dami
mbogamizi
arababwira
pur
kugezwa
##ithe
amahitamo
amakenga
hagira
ibirebana
gika
##sozo
ahamagara
bitabaye
argen
gicuti
divayi
ms
os
##cteur
mibanire
dusaba
iyihe
##zaniye
anavuga
byabaga
ntoya
ubucucike
##bw
umugezi
##lish
rwuba
##hindi
bamuha
##venture
four
bikarangira
birunga
##itekerezaho
alain
##eb
wageze
imirima
rap
amavuriro
ibuye
prime
research
##siramu
solan
yaramaze
consi
ikuzo
fur
##bagiwe
int
gihamya
byatanzwe
hua
umusatsi
ingirakamaro
tanasha
abera
mugani
##bugenewe
bigu
refe
##paren
cyc
agakiza
division
bidakwiye
pasiporo
fund
mbonye
ugize
vol
##lor
kuhira
amabara
missi
kwabo
guhagararira
ungana
##huzaga
nzayi
##kiranu
amahoteli
science
celestin
ubutwererane
admini
abanyamu
indaya
yasinyi
##pfunyika
mg
oc
##ririmba
babya
bibe
madi
mashyaka
##shoye
urban
regional
timote
cus
baby
hada
iyicwa
yabasabye
bidatinze
byanditse
shema
induru
madagascar
##bre
##sito
inke
kibeho
kwibutsa
ryabaye
gutega
nyirayo
yanavuze
##ssed
##ret
ingurube
bigana
##ngurwa
##herereje
award
rtd
old
bazima
##mugire
bigari
rugi
jenerali
mube
musoni
##hozo
igitangaza
batize
mugihugu
##anye
could
neretse
##nguye
##tangirira
iyamuremye
alice
##garurira
sheki
ngiro
##reho
bige
biryo
nami
##nera
fai
kumufata
station
niyomugabo
##rwani
murekatete
festival
##fwa
gukomeretsa
amapa
amarembo
ntarengwa
##ringa
kubakira
rwaba
##sinya
birirwa
giteye
gusimbura
discip
##mfasha
mutan
kuvana
##gie
gufashwa
##herekeza
##zuyemo
##shyami
##shimiwe
unit
kwibasira
abanyamadini
asiga
rpf
##sla
kuban
wapfuye
##modoka
##shuro
ntidu
autre
abinjira
kurema
nzamwita
##rukanywe
##tionale
marshall
ron
bagaraga
barushaho
bukwiye
##laire
lear
##shyizemo
##rong
3000
umuherwe
kurandura
girls
agere
byuba
djuma
gitwe
##buje
abapfa
kijyambere
byigenga
inkota
yabigarutseho
mituweli
salaam
azana
elle
biyobyabwenge
##sir
##hesheje
##lade
##shimishijwe
arapfa
bahungu
umuraperi
minisante
munyen
final
avugwa
##ia
mutsinzi
##wase
gusoho
isanduku
##witaho
guhisha
network
rwatubyaye
myenda
##gro
##ara
##ril
yatsinda
kwipimisha
##zande
wandi
mark
kurushinga
victory
##yesu
bucu
beyon
conne
issa
##itsindi
mitima
studio
##shywa
bal
##murwa
byageze
##cos
bitegura
strate
##mekero
##pine
##caniro
wabonye
##shakishwa
rele
agata
##canga
perezidante
fal
utuma
muvuga
basubira
##teke
nas
munyamakuru
aturutse
yitabiriwe
babonaga
singapore
busuwisi
fransisca
ubonye
##sts
gutinda
rizwi
yesaya
byongera
##porutigali
commer
##shyinguwe
utekereza
open
nrm
##uma
gutara
imya
cyangugu
akajagari
##ryayo
##shyirwamo
adashaka
sant
guhurira
pandemic
nzabonimpa
ibida
rumu
agakora
ambassa
abasifuzi
amaseti
masaka
handball
rutaremara
esi
##kka
##igi
##inte
##karengane
##sabe
kale
pau
batutsi
icyatsi
##shyinguye
custo
rn
##ib
##ranaga
azabi
gatorika
gitanga
igo
##mali
bio
##vun
ibihingwa
samweli
gouver
##tongo
gusengera
ubwumvikane
majest
##zindi
##datu
gukurikira
gutinya
bishyu
zikomeje
besigye
##menyekanisha
suc
feli
michelle
urusaku
binjiye
ikomoka
##uve
##22
##zabera
yafunguye
waru
##pimwe
member
##gariya
1500
zemewe
banyamuryango
repre
igabanya
isengesho
ngeze
byamaze
##kurikirane
hop
##girwaho
bibumbiye
##hitanywe
phy
huawei
##kosora
inota
abashinwa
##jejwe
##niba
rwitwa
##fatanywe
faci
rwanjye
inyenyeri
intangarugero
season
86
utera
##zinga
gufungurwa
abacitse
wavutse
byashoboka
ataki
yaragiye
kwangirika
indabo
inkari
yateguye
##kurikiranwe
##yment
kubangamira
wagira
ibihombo
kuribwa
byanditswe
bakoranye
rugagi
sustaina
cs
gazi
##sansi
babivuga
##fatire
kanamugire
itukura
##rezwa
##seye
bivuye
nation
red
##boneke
##likare
##shamibare
mutaba
claudine
rubangura
##itandukanya
texas
nshobora
bazana
##gisi
abagizi
hatu
level
sol
##pangu
pron
babikoze
ubwite
##bles
yamuhaye
##himbazamu
ntaramakuru
jama
##nza
yambara
yashyiriweho
umucyo
ubuse
bukorwa
kurira
##lope
uraye
##kemurwa
##ririye
bajyanwa
##roha
impi
izatangira
nkubiri
habaga
terri
##kiranutsi
##kita
##nti
##ruzwa
bibangamiye
##til
yohereje
ibyiringiro
byanjye
sheikh
1981
koroshya
langua
myigaragambyo
akin
##igihe
##bit
##yd
amashuli
zizwi
bemeye
sima
nyigisho
ndimo
dusabe
rurerure
ushoboye
bagaragaye
igikoni
ziha
##ryamana
represen
urwenya
yagombye
##ruwe
##kusenge
abaroma
nimwi
kanini
stadium
achie
twiteguye
umunyamuryango
zanyu
kwihangira
iyoboye
swa
abapadiri
##duc
##shushanya
mous
izabukuru
1995
##komokaho
amp
yayoboye
##buzi
umubu
abifuza
##fungiye
##lympi
##ched
guhiga
##rurishamibare
age
bineza
ibanza
mugomba
##tiano
habi
kigi
rukwiye
baririmba
bemeje
bahaye
rutabana
appe
88
yasu
##hiriye
batubwira
yahabwa
butabera
hitimana
apfuye
yv
##mwan
mugongo
umusemburo
niha
rutsin
##itangiye
savio
ibirometero
iwayo
##wandikiye
infra
eliya
##21
##basira
bagana
##murira
yasimbu
##viya
mwabi
ife
ikorerwa
umurezi
2022
##inure
clement
ukwiriye
##goza
gabo
##kanyije
sex
numwe
zitangwa
exe
umunyapolitiki
abategura
##jk
kigera
##mir
right
##tinganyi
claver
byukusenge
amabaruwa
hitayezu
financial
bahamya
##kaya
bidu
amaj
##hunze
barack
ibarurishamibare
amuha
bagifite
yadutangarije
london
eri
mwandiko
##mufasha
yatuma
##vera
yegukana
##kweli
ntibaba
queen
heroes
bayobora
ney
banditse
##stration
baracya
caro
adrien
utaza
key
##mbre
gutorwa
biblia
ategeka
others
pris
yashoboraga
umumotari
##fatwe
igipolisi
akabari
abizi
mwaba
mukeba
hatangimana
##ation
imyemerere
yohereza
190
##twarwa
viyetinamu
uzabera
bigakorwa
igeragezwa
harmoni
ibyerekeye
shyirahamwe
iv
ukore
batan
##gees
##nami
cyakozwe
zishingiye
ryaba
ahazwi
aragenda
##ringiyimana
uwacu
##mwica
nyandwi
##hishuwe
competition
zit
bayobowe
ubuhe
kawe
##geraga
##risse
##marira
ubugenzuzi
hagaragara
igishoro
byago
##lat
batamu
##sinze
action
ntezi
bakeka
leader
continent
1959
##ceceka
##himbazamusyi
##muye
nishimwe
girinka
yera
less
asse
bidafite
kwibasirwa
maroca
##ruba
bishize
bumvise
ryashyizweho
##kurikiranya
##fotora
bateganya
wumve
bakuze
coopera
brazzaville
kugena
baca
##buguzi
##sabiye
kwiruka
byongeye
wigisha
producer
students
##gwaneza
yafunzwe
abakoloni
bugaragara
rishyiraho
##byimana
hosp
contra
islam
yona
##tent
mrnd
vitamini
mvura
##umuntu
##bbe
muhoza
barwanya
##himbano
imigezi
1996
guhimba
nzozi
professi
akura
kuli
yaboneyeho
##tee
abafili
kivugwa
##cirwa
ibyorezo
lie
manini
bigirimana
cristiano
urayeneza
byangombwa
miterere
##ikipe
##uwo
bayoboye
bucye
amanyanga
twishimiye
habamo
ukabi
##kubaka
show
thou
yasinye
##ryoherwa
era
ivuka
mukono
bakura
##geranyo
##boho
##lique
ntaka
boo
anyuranye
ntibe
biragaragara
##lance
nzahura
adamu
clarisse
yateje
shebuja
kuryamana
prosper
adi
inzan
##sojwe
##koramo
andr
kayigi
##dindiza
judith
kumenyesha
bakira
gui
intunga
amatike
amaturo
wanditse
guhemba
abakorinto
rpa
kuzenguruka
##gether
##bus
##kubwabo
zikwiye
##cakara
##ganirwa
moise
##ssible
bertrand
##u2
##yungu
mizi
ubwiyongere
kereka
claire
##spel
ukana
##nk
##cyane
##dineza
##kubone
abasigaye
ruriya
##sode
zikoresha
yemejwe
term
##gerejwe
process
lim
ukajya
##herereyemo
##mbitswe
bongo
mbanda
nh
##yara
bizamu
##hebe
hakaza
gihingwa
##gence
mille
##mburuke
kuzahura
activ
##zongere
kubonana
umucu
ubukoloni
ray
gerageza
yahakanye
kunganya
cyiswe
##birema
central
ngeso
##strar
production
##sipanye
protection
aloys
gouverne
neymar
ifatanyije
ukoresheje
##ig
##80
kumera
##burana
umugeni
gukundwa
##kanwe
ntagu
francs
##genzurwa
eugene
farg
imfubyi
esipanye
bubiri
mato
cyanyu
uruzi
tutara
##hinja
##zwamo
##onesha
ingurane
kuvuka
incuro
juvenal
kabarebe
bazo
##gwaga
kwigo
yumvikana
gutangazwa
yabitangarije
renzaho
avoka
ia
bikan
washinze
##iteza
contro
gospel
##mbanyije
iburayi
zitera
irangami
ikiribwa
knc
ori
uhagaze
yakiniye
##horana
##sagara
##mizwa
sey
atabasha
bakoreshaga
champion
rinini
##nyuma
##rekura
##bangu
##kanira
siganwa
bitandatu
##stau
gucukura
1980
ishyari
##rugo
##humuriza
ibibanza
gisanzwe
ann
##mbizi
never
kwari
addis
##bungabunga
swi
abaka
bishyura
##hout
wahise
dukomeze
together
yananiwe
bwemewe
miriyari
yvonne
akorana
##bito
##yise
wacyo
##iteze
gahanga
##suka
ryacu
biteganijwe
kumubaza
icumbi
nyundo
igerageza
ath
irangiye
mubyu
bavuka
##muhe
##iteka
abanditsi
zigize
both
##tegetswe
lix
kugirwa
##rongora
twita
##chia
mineduc
##parency
71
87
uli
##ae
##yazana
bafatanyabikorwa
##siba
hakurya
kacu
gikora
rikorerwa
yabahaye
lionel
muraho
kidasanzwe
senateri
##byibuho
hr
##zitabira
##rida
bacuruza
##mahoro
muriro
kigeli
guhakana
yitwara
monitor
ngeri
gusubu
shipure
dusabirema
modeste
melody
ahinnye
ryemera
uhari
##gajuru
##dage
umuhanuzi
watu
cyaga
##mbuza
yabajije
force
third
badakwiye
ques
multi
##if
bamara
bakurikirana
zabaye
##mbutsa
##kiriho
irari
##menyimana
isaka
quality
ikemezo
utangiye
##zz
##gishijwe
inyangamugayo
##migabane
##mbogo
bakareba
##rengagije
ishoti
##45
##26
##gote
##sey
mibiri
dou
pres
##dirishya
##sses
abaterankunga
louis
uwamariya
partnership
blue
ifungurwa
sw
ureba
mubikorwa
kube
yiyongera
##ragamo
arti
abatambyi
##hwema
germain
investment
cooperation
nsanzu
##35
##jeni
ibibera
gifu
gal
gaze
kandida
##kiramo
umwandiko
yaturutse
haracyari
umunaniro
emile
liliane
dor
mushaka
hashyirwaho
ica
comme
##singiza
kirimbuzi
##gration
dias
transparency
ihohotera
bourita
abatangabuhamya
damien
timoteyo
##wami
bashinze
abashumba
##henda
nigeze
igihingwa
gakwaya
byatu
kwirwanaho
bandika
simple
tekereza
italiki
suwe
utarize
cecile
port
##ubumu
yinjije
##ssage
ful
bapolisi
abarimo
hakozwe
##mwengu
##fatanwe
republika
kuvurwa
ubuhumekero
nn
sms
uramu
baso
##teganyijwe
abaru
mahame
##nia
barara
abize
utagira
kurekurwa
binyuranyije
bunini
byanyu
muhadjiri
mutangana
ubaye
urangira
##28
##bitse
##rey
umuki
buyuda
##shinya
kwiha
duha
##jumba
justi
yubatswe
ivuriro
commission
##rukiramuco
population
technology
democratic
episode
ifa
bujuje
bumoso
rushe
bwavuze
arasaba
abiga
icyaro
bamuhaye
cestrar
ukunzwe
ryisumbuye
habumuremyi
jor
##tation
ukoze
atagira
##logue
itaza
bakirinda
institute
ivi
ikunze
sing
babanye
guhohotera
##banyarwanda
harya
##juka
bagatangira
utuntu
##ndura
value
ntihagire
amakamyo
nubundi
enga
urya
abafasha
kayitesi
##jyaho
before
islands
political
kabisa
byatumaga
ububiko
fidele
olympi
birindwi
kagere
giha
tun
ikinyuranyo
##kwemera
guhaguruka
kubivuga
##cks
alias
1960
jpg
moni
ssp
bashyirwa
biya
bikubiye
impfu
yobu
##cil
bwaho
kubiba
##ganiraga
kutubahiriza
kimisagara
irangamimerere
ox
uzongera
##rio
bahembwa
amazamu
cyafashwe
##zumva
pati
kumwica
melodie
current
points
igezweho
zitwa
bahereye
komeza
mag
igf
bahatanira
generation
##hhhh
biran
yemewe
pers
agahigo
ntiza
araza
yarashwe
baharanira
alubumu
ndizeye
ubutaliyani
impanga
bakiga
sand
gradu
ikite
cycling
harmonize
professional
ukan
guhererekanya
kigereki
##mis
imisemburo
sau
twagiranye
yanenze
byishimo
bagarutse
twizeyimana
##fatwaga
musabyimana
##komangoma
##rekwa
babyo
abaperezida
biso
tumenye
unity
180
adahari
gitera
imiturire
psg
editor
abyara
cred
##bihe
abajya
bimenyimana
kwitanga
##ert
lic
stars
acro
##shyingura
zizajya
english
##hemukiye
superefe
ikiremwamuntu
ifeza
ugaragaza
##bati
yasimbuye
kwemezwa
ikagira
gutaka
umutobe
yasi
abarwaye
kage
##hije
##lewi
kubamo
##vil
rikomeje
ndabizi
##koreramo
##gambiriye
tuyishime
yageraga
bunyuranije
challenges
frien
ihana
mubona
icyite
repe
bananiwe
140
##ront
##mamare
inararibonye
apa
##db
kute
##gishe
bigaragazwa
kamara
mwenda
utwite
gusezerera
##subukurwa
iyubahirizwa
##ithecus
kugaru
##yabo
urukuta
ses
mos
bagahita
provid
##fungirwa
##tten
muvuduko
abazize
cercop
cercopithecus
aa
thin
ingwe
##mbaraga
kuriya
kwihanganira
##caye
rwubu
##zanwa
amasambu
apotre
imisatsi
##ilote
itangiye
bahanga
yahinduye
yatorewe
bikomoka
wadu
##cogora
nibaza
##not
putin
wanduye
impuzama
genda
zingana
intungamubiri
fura
##miti
##thi
muhawe
##tuza
bikira
##dekwe
##himbaza
urugi
akato
##cungira
kwikorera
parike
ukubera
indahemuka
ndoli
yasabwe
ufasha
##tto
bad
bafatanya
yabona
yiganjemo
rwf
contribu
##yinka
##hagarikwa
isanga
sv
usaba
##gaya
##sebe
bigizwe
wabanje
maria
##fuzwa
##shinje
ukomeza
imisanzu
kubahirizwa
ano
winner
muhima
according
gd
amashi
buna
##yanduye
##pfundi
yahagaritswe
babizi
abite
kizaza
kundi
bashu
bashinja
umubyibuho
##heza
kid
##sant
diana
##chelles
juventus
gy
pis
##era
##kar
abatsinze
##heni
byagu
byaturutse
serena
##byemeye
agahu
ntibyo
##mbusho
siriya
##sobanurwa
alu
iraba
##nanone
##janda
tennis
kwishyurwa
yimu
beme
##ganirwaho
bababwira
##tangizwa
##rirwaho
charlo
gutoroka
utarashatse
secreta
teref
mpaka
shan
##cyura
yaganiriye
wafashe
haku
kubazwa
banyuranye
agatsiko
abanyabyaha
bateguye
##kurikiranweho
malariya
kidage
different
##ang
kuranga
tube
abaturutse
##menyesheje
##yubahiriza
royal
ntwari
ugaragara
urangiye
##gm
kut
##dali
gukaza
bibera
kagabo
ikibabaje
##itaho
akavu
restau
##fizi
##zinda
ruzibiza
abereye
urwanya
##rer
bashyizwe
yarana
##bibu
kirusiya
igihango
##shingiraho
tombo
##mberi
bagatanga
yuje
##yubakira
market
##vugururwa
rukerera
utangira
bahinga
##mata
##cies
kwege
bitangira
kwigarurira
twinshi
wabaga
christopher
nyirabayazana
rk
##iza
##ryama
yakuwe
##rutsa
matungo
ubwawe
impushya
seni
inzirakarengane
royaume
igwa
##99
##gaje
gutsindira
bill
##namo
##layi
polly
teri
digita
byifashe
yatowe
ministries
sustainable
mucye
kumwa
yafasha
inti
imite
katu
duke
azabona
ntibari
magazinemu
byuzuye
muremure
cyuzuzo
byuma
dri
ky
nl
musinga
##run
byafasha
akagu
ataha
policy
##trice
igabanuka
niger
##hitiramo
muko
indon
nahimana
hatangwa
##saka
urukoza
yijeje
##mbuke
numu
buruse
yahishuye
batsinda
birego
amashu
mase
kwimura
##tsinde
kwamagana
linda
uteganyijwe
##zinde
##ich
##jing
##yera
##ranganya
karenzi
##suwe
kubabwira
reco
##mane
capac
biteze
ibyagezweho
ukaza
bidashoboka
##ford
responsi
icyitegererezo
bring
ug
##sine
bifatwa
##kets
igisobanuro
ikiro
##cale
tal
ibirindiro
itubuza
shaddy
play
clubs
vati
imizigo
madiba
across
##bala
bakunzwe
abakurambere
bukomeje
ibirango
igisonga
mipaka
sale
azahabwa
##onia
impumuro
##funguzo
gatozi
guhuriza
abakorerabushake
nteziryayo
justice
mub
gushira
amadeni
bugingo
rugiye
gisha
kanimba
nowa
repor
twashatse
ingofero
iyindi
univer
##zamutseho
##jandarume
abere
mbon
sm
sch
##cwe
##lt
mushobora
umulisa
wagombaga
##huguwe
cyageze
dukorana
##nimana
bakaganira
##yubakire
##injiramo
fini
myumvire
##bagiza
bafashwa
yagiraga
##zer
ibikubiye
byatangaje
zihariye
##garagaze
##rizamo
yabafasha
biramu
zitemewe
yaduhaye
floyd
urukozasoni
arenze
gr
spi
xa
##mpo
##bb
muna
imbonera
wabonaga
habe
##lim
leo
##low
##foromo
bagahitamo
luanda
ibitambo
council
kudufasha
byemezo
iyan
##ers
##dwe
abafata
##homba
##heri
havugi
kubaga
twagi
##piya
afungwa
haravugwa
herve
mbonyi
mubyukuri
##bakira
##male
bihagaze
ubuhanuzi
kanyan
tutari
##giyemo
agakomeza
members
job
ikamyo
abitwa
pente
##rukanwe
ulimwengu
atwaye
ido
ntangira
swe
winjiye
##bake
baguze
##gori
hatari
kirenze
male
##genwa
wemerewe
kubagezaho
cape
uturuka
ahmed
ubunya
ndangagaciro
minagri
maurice
secondaire
petit
umukiliya
iduka
len
utwaye
yaro
yakinaga
##simbi
##beka
##nel
yeguye
kumubona
impanuro
park
vert
bonaventure
investi
murebe
bayita
##zeribayijani
bibuga
maxi
##hirije
fara
##hindukira
africaine
press
karate
kuhagera
kuduha
yizewe
seychelles
grand
##mble
##guriwe
naku
nagize
gali
desig
##mvikanisha
##mukarasi
muhizi
gusubizwa
building
belgi
gusiramura
nse
nkiri
mukwiye
bavan
bajyanywe
##burg
##tashye
ibiganza
mail
##ordina
##positi
tel
down
##sekeje
yakoreraga
##kaniye
zidasanzwe
##ledge
sciences
diaspora
81
akomeze
irangiza
bashingiye
##bukwe
##kumba
ibinure
abandura
##hange
##toria
gabri
micungire
umva
rider
petro
dufatanye
arambwira
uwaje
##byose
isomero
aramusubiza
##yuzemo
##shonje
bizimungu
amajonjora
agenewe
irwanya
bakurikije
umutegetsi
bifata
rurangirwa
mira
ibyavuzwe
##girwamo
twagirayezu
resources
imurikagurisha
ashyirwa
nana
mucu
barangiza
##mesha
##shyirwe
kwamamara
meghan
##pfushije
biraba
##sororo
makoperative
bucyana
furaha
ishyira
##mbwiye
mukwe
##remo
yasubiye
birangiye
demukarasi
batubwiye
yuda
##ralirwa
abadage
abadafite
bubiko
kinigi
nba
##fit
korea
wabona
gishinwa
##cio
##ineya
##eld
put
aurore
uwihanganye
##yitaho
kurara
##mvumba
solution
ihindagurika
gukiza
gukurura
bihingwa
##yurwa
##face
##ituma
nur
turifuza
##hamagarira
shumbusho
sultan
kunga
barezi
bigezweho
##dee
ibilometero
zifasha
kwigana
##dora
umunwa
deci
batavuga
moses
med
15h00
aim
##masayi
particu
uhuru
discipline
ikitegererezo
uze
##gulan
##ranzi
ibyahishuwe
nkongi
juni
gender
##mony
umurava
batwite
ize
kb
##bose
umukire
##nayo
##inama
bwatangaje
##firi
cash
bibafasha
shyamba
ikinyabupfura
charlotte
digital
bralirwa
##67
kug
bagura
barwana
##zed
muribo
kaka
##dutse
byaranze
##kwisi
ntiki
cas
kwanduza
ntibiba
aboneka
mpo
abakekwaho
kamaro
##stre
yarabaye
##pfusha
ibyinshi
asize
robertinho
ngiraba
laboratwari
inyito
kmp
ufatwa
##irs
##fran
##bine
##zize
##del
ibiki
##hanye
cyarangiye
kwiyi
ndera
##ngayire
deux
agahimbazamusyi
via
compa
bahamaga
inyuranye
ntibavuga
##suzume
workers
nyagasani
africans
farmers
##minega
##dendezo
beijing
mk
songa
yagenze
##kiriza
##kurire
gushima
intan
bimera
having
byahoze
mil
##aniranye
##venue
##rci
##cyubahiro
bashyizeho
##hunda
kaguta
cyateguwe
##sures
barinda
rwatangaje
nyamvumba
batabona
##yonzi
nzaramba
kuzigama
very
ministry
yazize
ibyanditswe
communication
solange
itandukani
##zing
##pilote
ubushize
##toye
byahise
akamenya
imigisha
guhagarikwa
fid
mukabalisa
sse
tsu
##mishije
zamaze
duku
##subijwe
cyuho
abanyapolitiki
##sitiya
close
still
uvugwa
##bikoze
inganzo
abakina
imita
kirenga
##ngereye
then
nkwi
baraza
abishwe
manira
1991
application
afashe
ikoresheje
##27
##hy
##kata
gufatira
##hore
milita
bwatangiye
saha
chuk
senior
##yitu
muzaba
##maje
abasanzwe
bikanga
bisese
hakomeje
##lima
ikirwa
##ringira
izahura
align
##yumvira
ryigenga
busasa
pasika
##bahirije
ubushomeri
ihinga
##sya
##dinga
##bes
igikoresho
imikono
bakabu
sogo
conta
conte
uburyohe
intere
icuruzwa
batangaza
barusheho
fdd
##thon
execu
akurikije
situ
mubo
bayin
##yuzwe
amahina
ibigwi
ruhora
yohani
##berera
zashyizweho
dukunda
##twaraga
udashobora
nyirizina
fils
ivuye
igenewe
pt
share
##cl
kurwego
basiga
bakorerwa
amaye
runda
##mbikwa
##hamwa
roi
cyihariye
byabagamba
##sanzuye
##shimuta
ubuhungiro
yambwiye
mitego
kumvira
yabwo
##banyije
bugomba
hamenyekane
rusororo
kanyanga
tuya
resi
ahahoze
arashaka
here
contre
##sezeranya
ituro
uwiringiyimana
##hohoterwa
##ruhuka
arabiya
##miwemo
victoire
without
authority
##itonderwa
conseil
naomie
language
ntumwa
##iyi
yabyaranye
##girire
impo
tubonye
bwakorewe
sarah
##mbert
ensure
amanyarwanda
##tives
gutabwa
isanzure
educa
land
mugheni
igisasu
nzabonimana
##eing
bije
bikoreshwa
##dere
##hindure
lieu
##vanganzo
expe
konseye
alexan
kuvoma
babwira
biherereye
bifashisha
seminari
yaririmbye
ryashyizwe
bakagenda
guhamaga
senta
99ibi
dieudonne
kiti
myamba
nsa
kudo
yavaga
rwandais
umunota
costa
##tangazo
rwaje
##byarira
icyaba
icyakorwa
nkumva
kwizigamira
##pte
yago
ruhamya
##menyane
abikora
##lyne
##hagarariwe
yatangiriye
kandidatire
gineya
##zzo
##jy
##giya
##torwa
tugenda
coop
viol
bahati
kibaya
byemezwa
1973
arongera
philippe
aye
##pin
kumena
yabyi
umurundi
##berwa
zivuye
##jid
soli
afunze
conso
ituze
bafungiwe
##shyingiranywe
bashir
cndd
sindikubwabo
agirwa
ngenderwaho
bashyigikiye
##simba
imidari
date
kwawe
itagira
irasaba
umwirondoro
essen
syst
guhungira
tumukunde
medical
acuruza
kcca
uhita
##uza
bishimye
bidukikije
dute
agakingirizo
fort
ndiku
##herewe
twize
atte
inkambi
stanley1
primaire
busasamana
##fan
##buzo
##shaga
gishingiye
kwigaragaza
consul
birasa
nkombe
kizajya
nyarugunga
yifuzaga
promotion
##dinda
perezidansi
physi
tsunami
mbyino
zihabwa
wee
##shyiriyeho
yihaye
##ndika
batashye
byiyongera
##tarama
supp
##vant
pula
hatagira
iserukiramuco
wikipedia
##h30
##hur
##rang
##sorwa
kwibu
##komereze
zabyo
ang
bwamu
lei
added
bitandu
irambona
isukura
bahunze
baterwa
guhirika
##shyiremo
around
kwandikira
mavuta
rito
##wari
basobanu
##mutwe
##yopiya
##kima
biciro
amagana
masengesho
##inah
rebero
ntiri
moun
hip
bigatera
##mbani
##senyutse
##suzumwe
ryerekeye
emery
sendashonga
valentin
tit
usigaye
mukomeze
mutoni
##tunze
##hoka
nagu
nagira
amashyi
niryo
##saruro
##kingira
nove
rie
recom
tayi
forces
gerena
umwirabura
niyonkuru
bumvaga
ntirushwa
asoza
gitwaza
baheruka
umuhesha
##kumbura
nishimiye
riharanira
rwabuto
##shimishwa
##subirwaho
##kwabu
five
witwaye
armes
mukaga
ukagera
notre
##ches
ntoye
famille
##yoroshya
##68
murangira
kuvanga
bambara
##rubu
##ruption
wamenya
##vurwa
rural
byaku
kwifashishwa
boss
yibuka
sele
dukorera
igp
lambert
excellence
rwabutogo
asohoka
ikoze
##fiti
##vor
musirikare
musoro
##shwi
babyaranye
##shakire
kimenyetso
##loso
bitabira
afp
yahamagaye
##photo
gucura
ababikora
##degembya
bamaranye
ategereje
##tti
##itoniya
amaduka
hatita
ahakana
batabasha
bubatse
99uko
mbumbe
amabati
##tna
gupfobya
rusu
twagize
##kware
##noze
##gendere
cyerekezo
bategura
ihumure
##shishikajwe
##pasito
aci
mh
batoza
##mutungo
##boo
biboneka
##sar
baturanyi
cyizere
yavuzwe
strong
##monyo
julienne
djihad
atoza
ikeneye
mulisa
batangije
abaporo
abajandarume
giporutigali
##mibwa
##kanyi
byaza
##su2
coordina
howe
yaraje
##zinzi
##vanamo
suppor
important
farawo
##tc
bacyo
yajyanye
yahindutse
abazaba
##hava
gihombo
mwijima
ituwe
presen
bugezweho
kiraro
##onathan
credit
ase
mfu
##ati
##reme
umufaransa
##ties
hageni
resul
ntibazi
sim
consu
adf
stage
yahamije
atyo
politique
sans
kayijuka
uziko
##lingi
##tenant
##33
kuka
yazamu
yajyanywe
wagizwe
##won
ruherereye
maho
gasore
seki
agarutse
##onera
kujyayo
130
bakimara
aime
kavuna
moussa
ashatse
ena
igoro
kg
##ova
##gation
##barire
yakubiswe
inkera
colla
ryamu
##itanze
cyonyine
##000
##menyera
aharanira
kwambura
yatangijwe
gusesa
further
##rina
yahita
##daye
bifatika
ubukode
gaha
byakomeje
cyita
bazakora
##siyoneri
impagarike
charly
portuga
schools
however
97
##nganywa
##bra
##lson
##murirwa
##tatu
##gurire
##shisha
mirwano
##supu
##reng
nuku
tes
##lum
##shamikiye
kuvugisha
imyizerere
kugaba
ngewe
##zengurutse
elect
iminwa
brd
uhabwa
uhindura
umuse
nasanze
##mika
##genje
##hishwa
cyagiye
ntashobora
zigi
##susu
libe
arebe
##ndwe
indepen
##bangamiwe
yakomo
##senyera
kirisito
rit
##remera
##bivuze
abahi
imibu
ribi
##inginze
moshi
afungi
##lling
bakabaye
##bazaga
shaka
muhanzikazi
hono
psf
ruhashya
##vestre
ishyano
mvuye
##ah
umugereka
##homa
naza
ibimu
anita
anne
sekuru
arayi
afitiye
##koranaga
irambuye
nyiraki
worth
region
knowledge
certifi
success
hatitawe
ifitiye
ukunze
##of
##hwi
mufuka
##tech
##sigiye
hard
##shiriza
byagaragajwe
zamu
##wunga
baraye
ministiri
visa
##sangamo
##sinzira
##fuzaga
yabayeho
dangote
zizakomeza
##nanye
equi
gukosora
nkundineza
av
bagere
yay
ngoga
boeing
bani
atajya
ndahindurwa
##sezera
##kubiti
biruhuko
ashi
ukoreshwa
kanye
saou
davi
mel
jerome
enco
abaririmbyi
esp
kurebwa
nzaban
badashaka
icupa
asimburwa
fine
muze
##itso
umugozi
abamo
nabandi
hatanzwe
rufa
mary
ibinyujije
rwama
depu
itegura
leaders
bambwira
wubatse
own
##yinga
##kare
buhoraho
kava
ibihaha
##hanna
ziyi
ukongera
bob
coll
pay
conser
##yandikira
civil
rwubusisi
##zy
##bru
kumwu
##gimbi
##tuka
##yanza
##woru
gisubizo
gabiro
turu
kwishima
##byemeza
twaje
##burayi
utashatse
##babarira
##roherwa
jonathan
##mvura
##mvugo
##resi
##muza
##mukanwa
abakize
##huriza
bukerarugendo
kasho
kimeze
mission
kwishyu
duhora
says
##ally
##lities
##injiriza
burambye
##eeee
kamali
##rf
##lm
basoje
##buta
kora
##subiri
##byizi
baraya
abigaragambya
##kwaga
##sezerewe
##sohowe
##ywera
kirego
cancer
ubunini
yubahiriza
gushyingirwa
1945
manegeka
masjid
secretary
var
yve
##hini
##gaza
##regura
bikomeza
buteye
karimo
rutu
imirasire
ryinshi
tout
kigal
##elles
##ogra
ituruka
karema
minini
##generwabikorwa
donati
elia
abakire
biho
bigishwa
hakoreshwa
karera
cyakoze
tuvugana
##komereje
zatanzwe
##gabanyuka
bikagera
##ramata
placide
benin
phone
ninde
witabiriwe
##zererezi
eddy
git
##umun
##rekurwa
##yen
batana
abalewi
##guzwe
##bwoko
akagenda
sakindi
beli
##manama
arara
disi
uwayo
umuterankunga
bwenge
kareman
kirazira
yatangaga
inyambo
imfashanyo
##km
mumi
yakomeza
##ruma
umutanga
gucibwa
mahama
##sor
kwisuzumisha
ndasaba
joel
uriho
impact
karake
yaburiye
aroni
obje
yunganira
position
gahongayire
junior
ear
bage
bahera
abashobora
##gumire
##dian
kate
mashuli
##hanwe
uruhinja
##lei
ribaye
safari
##manswa
uturutse
gutahura
350
##cyugu
##burikoko
irondo
##iz
yageneye
##ruve
##rukiye
##sigira
kicaro
##mbazi
tureba
zaje
##rikiye
dusanzwe
##itwaramo
bamusaba
##ingabire
abunzi
airlines
abasivili
culture
issues
kuvugururwa
ener
inkwi
ikigero
byazo
misoro
kwishakamo
##rerekana
safe
bakagera
##gamijwe
yandikiwe
zituruka
urunana
iwanyu
gitangaza
##53
##bakize
umupadiri
##rot
biyongera
nirwo
gaju
body
dutanga
gusatira
butaro
99igihugu
velop
1961
ll
##make
umushoramari
watumye
rugeze
##pat
bangui
did
##sezeranyije
##sezererwa
##erg
##erra
staff
mwakoze
sangwa
ibinyampeke
##kureho
zidafite
kamembe
wandike
repebu
##gulanyi
bs
cric
ushatse
##ure
basura
##gemera
##kirwe
##kuyemo
watangije
##yanze
gihanga
igiswa
##fiteho
##mental
rikomeza
ntibaza
ndagu
advan
uwayi
kuburanishwa
regis
##politike
wavukiye
yvette
atsinze
ombo
sg
##ods
muvandimwe
umukwe
butanga
set
pale
##itirirwa
##sezeranye
unh
curit
stra
billion
primu
##bwana
batwi
yapfiriye
##gili
imye
kwigishwa
##cate
ahanganye
lingua
##yitegeka
##byinnyi
primary
jeune
amayero
upi
mubara
##gar
kubwo
##yers
gupimwa
bikennye
ubugeni
##hungira
##mwereka
reu
agashya
##teraga
wiki
kubikemura
johnston
yahoo
baduhaye
economy
yiyahuye
##zandengo
utan
##bamo
bakoreraga
yah
##ged
inyanya
abase
abarinzi
biganza
##ganzwa
nouve
akava
cyahariwe
kwiheba
rizinde
coa
dukurikije
agatangira
cause
isma
jolly
##habwaga
##bonan
##suzuguro
gutuza
rwangombwa
##subiraho
agnes
muburyo
wawundi
sna
song
##kya
##yeti
bakanga
##kagombye
##kizwa
##mele
##jeho
nibindi
kirwa
seburikoko
fiston
rwigemera
marcel
##senywa
ryigisha
gatulika
##struction
mavuriro
saoudite
itan
itsindwa
##d4
bashyiraho
##bibona
bifitiye
##dies
##hakanye
waho
##hema
bugeze
agato
twagerageje
yange
uwakoze
bazabona
lague
manu
pic
ziriho
caption
mugesera
namibia
ngan
ord
##pc
##qi
bakenera
gushyirwaho
imbura
warwo
bumve
imigati
umw
leur
byoroheje
nyagi
batajya
het
sous
uwiteka
mugiraneza
programme
buregeya
##gnifi
ruhorahoza
senya
##nganye
##bariza
bishyize
cyavuze
yibutsa
barakomereka
babaha
mpungenge
170
ingoboka
##kemutse
kenzo
watowe
itandukaniro
##gite
##mugisha
##biwe
umupasiteri
gukwirakwira
gucana
##huriro
buhanzi
##lies
turiki
bataki
ubutabire
abda
kuntu
##riwemo
bizabafasha
gusezererwa
##cumbikiye
chole
azwiho
fitina
unhcr
primus
ago
agwa
ntege
sor
sano
yavuga
guci
abasohoka
##gunge
kihariye
mado
yibwe
##hangayitse
bagafata
wilson
hakabaho
yatsinzemo
partners
buhungiro
kyagulanyi
kutumvikana
##yiha
bugenda
ikihe
byagize
urupapuro
dufitanye
##wusa
held
cali
uwayezu
bazaza
##dane
bakiriye
cricket
##74
musozo
bafunze
##kamere
##teurs
gufu
buse
hafatwa
havuzwe
ikigaragara
##sheshe
##loc
mora
conce
libiya
##tangiranye
##rangirira
##kungugu
##hatana
kuvugira
##gwira
##kandagira
ikinamico
ifitanye
jane
##nsi
##gba
muganza
##ruganda
##tamati
umushyikirano
insu
magara
matorero
##ciyemo
ofi
mwamba
exa
kayisire
bagirana
##gin
muja
##buranisha
umurinzi
##meraga
##tizwa
kayo
yoga
##menyero
##ingoma
indahiro
iteraniro
gusukura
officer
##rwimo
gabriel
ibera
ils
##dja
##turukiya
gusenyuka
masu
igikoma
bos
yigira
munyeshuri
rwinshi
depart
bey
fata
##dant
##cher
##hangayika
bwuzuye
ibitoki
ntango
nkanjye
nsanzurwimo
##lenge
##bavu
kuzura
bajyana
bazongera
##tariki
##takaza
reta
##birigi
##riraga
baradu
bazaga
##vange
##mwishe
bateraniye
agro
portugue
nsanzimana
institutions
##jugunywa
rouge
##rcisse
nzamu
##nwa
##teguriye
gun
gusho
kiki
gihagaze
##kingiye
tutsi
##paza
gusambana
##wumva
##ngondo
sivile
rwemeje
##lugariya
umwunganizi
expo
expre
zandurira
##rian
kuyo
bamwa
##mariye
##hogo
##fashanya
desire
nyam
twahawe
##renzo
nyiringondo
babuloni
corruption
yamaganye
etiyopiya
citizen
kigalito
bdf
obe
octo
batege
abarangije
bisabwa
bigabanya
naga
gifasha
byavuye
##cumura
##nday
pass
sar
sava
constitu
byifuzo
azakora
kwegereza
cyugarije
atunze
amatafari
##vuguruye
nyaburanga
hazabaho
touris
kayitaki
kigalitoday
ntanga
##tamo
abakunda
bibuka
##vuna
##bandwa
##hurwa
##kinire
ntabi
tuha
##vert
due
sifa
wiyongera
103
##zerewe
akigera
org
##yororo
##rutimana
needed
autres
isobanura
ok
ubone
##ary
##wera
abakuze
ubukonje
##dela
ibihangange
dufata
babajijwe
test
wishe
hiciwe
bibabaje
archi
zemerewe
harebwe
witabye
##shishoza
kamikazi
sandrine
96
akorwa
ifi
ol
vene
murwayi
bareke
barwanyi
umuna
umurima
cyanika
byonyine
##banaga
tai
six
##kende
##fatanyacyaha
rutagengwa
##rabujijwe
mpyisi
ukibaza
vitamin
##uwa
##omi
##myaka
##mala
gushimisha
arirwo
gikiri
cyahawe
tukana
leone
bitamu
prog
biriho
rutagarama
yanyujije
##witabire
gucuranga
1962
##dindira
ikibuno
assistant
avi
ideni
plu
tp
muzo
##bigeraho
umushakashatsi
gufatirwa
kibo
byakorewe
zifatika
coge
sekuruza
igna
laun
guterana
##hereze
bamusanze
##inubira
kwanjye
umunyamahanga
batere
celeb
ejobundi
related
atwara
aherereye
##vit
##xe
##goranye
##kishijwe
gukubitwa
bigaragarira
wakoraga
##hembwe
mahitamo
##mia
uruti
ziboneka
atagi
sunday
##ditseho
##yambaza
candi
ihenze
comple
mpeshyi
##icyakora
bayingana
mka
##kyo
##nja
##ririra
##basiwe
kunyi
##yisha
inani
##sary
marembo
##mirire
##zoga
kwishimisha
##suwa
imigende
dukoresha
dutegereje
babarizwa
##fungiwe
got
repuburika
ferwaba
##2020
anima
cir
ziti
##site
##94
badepite
yagaru
yakubise
yashyikirijwe
##kuyeho
kikaza
igika
##ngabo
##byariye
baturiye
##stero
baduha
agukunda
capital
denise
##kemurira
participa
twagiramungu
administration
ncu
ntwaro
ryama
##rite
muzungu
baryo
gucye
namaze
bushoboka
cyayi
kubabarira
atavuga
##shyure
ukwemera
##banutseho
ntakibazo
ashyigikiye
dy
nsaba
##rasa
##raine
ubukure
ndenga
nkawe
bagaruka
biracya
##fatizo
kunganira
ntuga
gutoranya
ubusugire
##rez
kugendana
##koshi
##tiva
hati
##menyana
##mange
##menyereza
##kwavu
utavuga
arebana
ubwambure
rwandiko
imyirondoro
busitani
grow
establi
ntibyoroshye
uteye
##utse
mur
basenga
##kurira
murika
##rwariye
ibishanga
give
##nebwe
zigaragara
itazi
bitego
##gereho
bamujyana
##singizwe
adakwiye
##ctors
yatunguwe
basaza
##lism
engine
ibirarane
ud
##wards
##yaza
bashobore
yakunzwe
umure
gutwi
##gusa
imitego
watsindiye
##kezi
rukoma
##hile
bwabyo
igitondo
##singize
sof
##jyanwe
kampani
acce
sinza
##shimangirwa
amasaka
##vuguruwe
##piskopi
##shwanama
ngendahimana
defense
artist
ikunda
##54
yat
niyitegeka
kagizwe
kimo
##ngerwa
##cu3
##sumu
##camo
bande
atamu
dise
##ryarya
roho
bwimba
##suzumye
nyiraru
udupfunyika
gasasira
bwumvikane
relations
solutions
ubwuzuzanye
byumvikana
uran
ushi
##lene
wata
buhagaze
gira
cassa
afro
hila
johan
going
eslova
##shishikarije
hatabayeho
gusomana
##manutse
kwitonda
agura
azanye
mwite
oua
ushingiye
##clu
bibel
##herekeje
amati
##ena
ikibaba
barasa
moins
abouba
tera
izafasha
lives
birasaba
isuri
kwibaruka
moroc
sekamana
iranga
rsb
kuby
bahangayikishijwe
##bukeye
bubasha
kwihutira
kwishyuza
ribanza
rikomoka
giheburayo
gutembera
kurega
uwitonze
##dres
yitaba
portugi
##berg
inoti
##shyingiranwa
agency
riderman
hun
##abi
##mpanyi
##bitu
##blo
##maza
##burirwa
koherezwa
amafa
habana
kigaragara
##futi
gambia
akamenyero
##sumba
##pement
zahawe
yiciwe
debora
##sabwaga
##shyingirwa
##yitabira
ntibyari
akanga
gana
ushyira
##imana
yagejejwe
yagendaga
amatangazo
hagize
rukorera
tugu
zirabujijwe
imivu
##pes
##cally
yihishe
lisansi
##zubakwa
kutaza
bitangaje
agifite
finance
systems
##sinziriye
##mentation
nimwiza
leadership
##yororokere
akurikirwa
##98
kuyan
insinzi
wambere
##rangingo
kibanza
deo
irihe
vice
105
birabujijwe
##kinirwa
karidina
##tendent
corne
europa
bakinana
amateraniro
ahindura
nzan
bashiki
basimbu
##bilit
abageze
rubona
##ganano
##kinwe
2050
byagarutsweho
##suf
higiro
impundu
160
ubwitabire
sandra
##hohotewe
baramutse
zuzuye
azeribayijani
practi
following
recei
akavuyo
indonke
##maine
yamamaye
##gorana
bishyira
kaje
##himura
kwibanda
imigi
bwatumye
rwavuze
bec
afande
libye
icyamu
ubwatsi
sendika
magazin
##yitera
yasezeranye
yenda
secondary
indonesia
##ttenham
davido
disease
csp
nzima
rfi
##rambi
##raganya
mude
murangwa
ibijumba
##cas
yiyongereye
itegurwa
kubyumva
arthur
agahebuzo
patient
##ndwa
##noside
##em
##yaremye
##mat
##zirikana
##gos
##dad
wajya
amarozi
butangwa
ntakindi
rihanna
##biriza
paix
yangiza
##shanyigisho
rwihishwa
kugurwa
impamo
mrcd
utwatsi
ubwiteganyirize
sl
##34
muyi
musta
bahana
gusuzugura
abayo
uburo
kakaba
kanjye
tukiri
kubata
yerekeranye
##twaza
abigisha
##twereka
arms
##vol
los
badakora
uwineza
streng
syria
transport
vital
gukinwa
uwanyiri
ntakirutimana
uburangare
moroccan
akore
nine
nkurikije
rina
##cf
##met
inyemeza
bihishe
ikiganza
##kintu
zakunzwe
septe
dukomeza
table
twamaze
simu
wiyita
##rebaga
kubimenya
kelly
sante
superin
ruganzu
tekiniki
##bangukira
cel
etat
thing
barana
baganga
basobanukiwe
gushinja
abagande
bihuza
##mora
kigabo
byagira
##manda
igitangaje
batagomba
byiganjemo
isla
bahamagara
ikamu
wujuje
idamange
leading
sinari
gusinzira
platform
##remangingo
cogeban
ae
##aha
##pl
umubitsi
najyaga
butunguranye
gala
2030
cyamaze
kubarura
sident
sierra
guhara
bwerekana
chimp
somaliya
grena
##kangurirwa
drones
within
kirisitu
amashilingi
##bamwe
##sel
gusuzumwa
waki
##tisiti
gihuza
##vugabutumwa
##byenda
polo
##terna
concer
labo
yumvikanye
imbaho
kuburanisha
jado
itonesha
bagezeho
bongere
percent
yaremye
gusubikwa
scolaire
sawudite
executive
ikomeze
##gitsina
much
##remwe
guhembwa
gukurikizwa
bishinzwe
ubugari
akaramata
##dogo
zazo
yiruka
tottenham
yanya
ndifuza
each
tukajya
mwumva
yakagombye
ikinyabiziga
##hanganishije
championship
##hra
##hwitse
mukunda
##roga
##kusi
intu
##habwe
imma
naka
waryo
watangaje
##bene
rugera
ikirango
urujeni
akari
akamanzi
##jabo
ibarirwa
##sigaro
ziturutse
directeur
kwandikisha
sr
vla
imbonan
wabyo
ubugizi
##keri
rugaragaza
gashora
gaherereye
akayezu
##komereye
zaga
##viyetinamu
twayi
twakora
##anisha
##anirana
bakawu
nkajya
azatangira
##injije
tukabi
pierrot
inyenzi
criti
alliance
irenze
muran
mugire
basize
ingan
uburu
buhanga
hau
##engwa
micye
##doro
riyobowe
ahamaga
kwaguka
ndagira
affi
proble
ukareba
bihenze
ibuza
kinyaviyetinamu
gitega
ubusumbane
umutoniwase
felicien
##balala
##fransa
92
eg
ellen
fel
##pm
##vy
mugiye
bakomeretse
kolo
namba
##dette
ryabereye
1900
baraha
##ranijwe
player
zitara
kabayiza
steven
##kwano
##shyireho
##cukumbuye
pressure
##worugiya
imbonankubone
mula
##mary
##maker
busan
ruboneka
rutunganya
##ganywe
byadu
##cumi
imihoro
imifuka
ans
nyabyenda
##fiki
conditi
kwemererwa
large
##lubaniya
jam
##lled
##garuke
perfor
vitamine
sofiya
materaniro
clini
ubwira
##nje
##oza
yahereye
kataba
##lire
redu
##shushan
gusabana
##power
aracya
mea
izihe
uzabona
kunanirwa
musema
yabite
serukira
salomo
argentine
used
##66
##thing
##yazo
bayer
yashyira
umupfa
abahawe
bube
byavugwaga
migambi
##cuma
reli
##cagu
##par
agasuzuguro
bere
tau
##rences
sir
fait
ntibiza
played
benedi
##kundisha
##yisilamu
gukomereka
salah
umwotsi
magazinen
cyeme
mito
##bitangaza
##stu
mupolisi
##babwira
abamwu
##siyumu
##tijwe
##hene
ruju
##mbati
kwifata
##shugi
leso
ryakeye
##itandukanye
meze
korora
choice
##jijisha
nicolas
veloppement
ofisiye
ajyana
akuramo
##kor
babeshya
bavutse
abasirikari
##hon
amahano
##kes
ibwami
##mwemerera
##itation
cyanditswe
gako
nota
tumwi
##inamura
zabukuru
##paga
yerekeye
anyuze
pam
deu
##fication
bitabye
nkabona
ibyara
kubikuza
rosa
##vent
##ranirwa
analy
bandikiye
##chid
kabuhariwe
agricultural
camps
diplome
province
monique
etu
oka
ushinjwa
##gazi
kosa
havuka
kansi
zirindwi
misigaro
bwarwo
town
##dward
##ryana
ndizera
1963
imyuzure
step
yasezerewe
kayinamura
paccy
employment
serukiramuco
egy
uke
##kt
##iri
bagende
umurindi
##rongera
buyo
ibibuga
max
##shyiriraho
ntiwi
ahabereye
abiy
##gabanye
amavugurura
batemerewe
africain
udukingirizo
umunyamideli
karemera
ngiru
##kwanga
kimalayi
teritwari
department
ronald
uzu
##riko
bibwira
bibereye
bugera
kurimbura
bataka
##yahaga
##voka
nyange
##rangwamo
month
bihambaye
kwitondera
fabien
bre
cin
##redi
##mation
yahuriye
##zeho
umudendezo
bihinduka
imbe
ubugande
nimwe
ibivuga
igikomangoma
ibyamu
kubibona
turayi
rutari
##korerwaga
bitarondo
dialogue
agree
imyambarire
boniface
meddie
ei
##abana
##sindi
babwiwe
##kiga
bisigaye
imf
##tije
##moro
nizeye
##leti
zigeze
twakwi
sora
keep
asimbura
amazuru
menye
match
mariko
control
uwanyirigira
grande
bagaragara
bakinnye
umuhutu
##tants
making
ngorane
kubasha
barishwe
##yamaswa
##birizi
ryaje
dove
bitugu
uzabi
arko
imbohe
ferwacy
##cumbikira
matter
silva
mazutu
##position
situation
violence
pulasiti
ashinja
jw
jong
nsenga
nkingo
yatandukanye
gua
##vukiye
kigenda
ziganjemo
##mbiriye
##puto
ikagera
wuhan
kwibagirwa
babite
cnn
ruremesha
inyoko
opportunities
##cyangwa
mitekerereze
##iga
##bata
ball
yaberaga
##kuka
gusan
gusobanurira
bicu
##hayo
busaba
##yanda
zikunzwe
zavuye
paste
dufatanyije
twafashe
##mburu
kwinji
##yemereye
nkubito
ntibigeze
harebwa
yavuyemo
nyeshyamba
butunzi
industry
ukraine
##view
limited
havugimana
bitarondoreka
ihora
pm
##fred
##buriye
##bouti
abamuga
bigendanye
bujura
##list
kiguzi
gian
byabayeho
imigenzo
imibabaro
condu
gutegurwa
bahageze
mukamana
##shimuswe
equa
abdallah
irusha
##phine
bajyanye
majyambere
kand
zivugwa
kwihisha
##suhuza
##lations
munwa
##kiraho
yarakoze
byimbitse
##tonda
umwuzukuru
yanyuze
##kerezwa
umukirisitu
superintendent
ikubiyemo
##nji
##remereye
##iting
##yiro
##yili
gukemuka
gutwika
##hebye
##mbabuzi
leurs
##garagayeho
raba
agashaka
##ituwani
##sinyira
kinyinya
##guyeneza
nyamabuye
nteruro
##ndetse
##mpuhwe
bihabanye
yahimbye
nyababyeyi
##dros
##korikori
especial
abafilisitiya
gon
ubyi
witabiriye
##kle
##chu
abaho
abavuye
bijyana
bujyanye
hakunze
##rangabo
kaboneka
igisigaye
##mbasa
##naert
zimeze
mis
##ryozwa
nyaki
igito
camara
geo
assu
114
##hagararaho
gushakishwa
mandat
londres
henry
##renganurwa
gwi
##imwe
##vina
##gaciro
##gabanuka
waza
ibishya
##lee
kwivanga
##dos
risobanura
##ryoshye
bwabaye
rwashyiriweho
##mazeyo
ukumu
barashaka
byifashishwa
byihutirwa
bahabwe
cyuzuye
senderi
singi
ikanzu
ubunyamwuga
##ituwaniya
ihererekanya
w19
##ese
##bl
yagaragazaga
umugwaneza
##kusanyi
birushaho
ubufatanyacyaha
amabyi
##yankore
nidu
ikirundi
tubana
##geramo
mori
bubaka
jacque
rwandans
aryamye
better
ironda
chairman
agana
ashyize
bino
##risi
bafatirwa
yamba
gushyu
nabonaga
waya
watewe
ibwi
zihenze
anganya
salon
kubigisha
##rangajwe
##yandikishije
low
sente
classi
imple
vous
ubunyarwanda
stock
guhomba
tchad
izu
sq
##zita
##yn
##itin
umubiligi
bishatse
bihutira
##top
games
kubatera
rihuza
##els
kubireka
##isse
kuyirinda
byukuri
450
##vanaho
call
##mination
gerayo
plc
hubahirizwa
##meniya
abadivan
reuters
eo
imara
umugenzo
amato
rushimishije
##dusaba
ikimu
##towe
gakabije
revenue
nyacyo
kuberako
batunze
list
##trition
##abafana
akubwira
##rokoye
ibinini
bubahiriza
ababishinzwe
mutego
marathon
djibouti
mutabaruka
imitako
emer
ft
##chan
##kama
guhan
##gues
wako
##timetero
tundi
babaho
abisobanura
inkorora
bidasubirwaho
##mson
batoye
sindayi
sloven
angelique
##kanguriye
ntimuza
affairs
release
##pazar
hor
##vani
mutumwa
hatara
nize
kiswahili
cyatu
##rerewe
rihu
paki
##mance
barazi
yandura
##subirana
dio
yarabuze
allo
matariki
ntibivuze
portugu
##berto
photos
rugege
saleh
lil
yin
kujyanwa
bakandida
##mus
abagira
abayeho
bisaga
##gukanywe
ikicaro
##kururira
zisaba
zihagije
rwabaye
ahakorera
hepat
##panta
isana
##gamirwa
ente
##umusigiti
ntunga
brown
voice
bakabikora
##kwinginze
munyaba
technique
illum
yahabwaga
edward
mdr
##fb
##95
##muneza
##musaruro
##mikorere
##soye
##late
leon
poly
##pimishije
##urg
byimazeyo
lar
proto
areas
abanyaburayi
abenegihugu
##garugori
##phro
kudakora
##stern
mpayimana
##phen
gusurwa
hatangijwe
minaloc
##gondwa
muhadjili
sylvestre
hagenimana
fri
kris
mme
uzan
uno
##mvo
##girijwe
##rugu
##tage
##guzwa
ibisiga
##mirije
##mbabarire
ntako
pame
rapi
mega
##juju
112
146
kuvuza
yatashye
1989
opportunity
califor
m23
prezida
##31
##row
bihaye
ubujiji
##benshi
kal
kaguru
rukomeje
gahinda
byacyo
cyatanzwe
bwacyo
munyanga
rwategetse
dere
bera
##menyeshwa
message
alpha
ndimu
kubigeraho
kunenga
rubay
idashobora
burambuye
##mark
ngagi
##tunguwe
arabia
corpo
##itsinzwe
djamali
yeremiya
hakorwe
iyoborwa
mbwira
ritanga
zana
##muke
insi
birwa
bishimishije
mikoranire
##zuzanya
ndenge
recon
yariri
sawa
baragenda
moteri
bazagira
##zangu
izakira
amubaza
irene
##nderi
ahmad
imyifatire
1987
summit
recommen
chimpre
mwanda
uhe
urangije
##kaze
##giriwe
inganya
##guwa
imyororokere
ubuvanganzo
amagara
akabura
cyatuma
##shingi
zacyo
riki
rigomba
yishimye
point
days
batarengeje
unders
##yubaha
##yubatse
twiyemeje
##mwihariko
##beshyera
##rindira
yatangiraga
think
energy
91
cv
igana
igere
ishimishije
ts
uge
##gamye
##gambanyi
kutwi
yaganiraga
umukunda
imitangire
habin
kasi
given
yoherezwa
ntagatifu
zisa
zidane
kwishakira
##cikana
##jwemo
duhura
agafungwa
movement
fire
##rasiyo
##sohoke
uzasanga
franc
##yitabiriye
musafiri
organisation
kongerwa
arushaho
kuze
bakurikira
yayoboraga
##tali
abatwa
gihangayikishije
igiha
cyabonetse
tugari
zikunze
risanzwe
cyp
ntigi
pop
##fashaga
bahatuye
ibafasha
iramutse
##dance
125
uririmba
bahuriza
umurengera
nkeke
##tures
veda
slovaki
igitaraganya
freddy
rubengera
bushayija
duturanye
##costal
pentecostal
##bangukiragutabara
conditions
agizwe
muganda
bagombye
##inja
##mukiye
yake
##tengu
gutandukanya
abarwanya
hami
habanje
byagaragaje
anga
irinde
tedros
kino
cyusa
##rirwamo
foreign
lieutenant
ibo
ikozwe
jer
lors
yvan
##bas
bakinira
yakoreshaga
##kirira
gukomeye
inkima
##hati
ibikenewe
##lette
##very
bwabaga
yicwa
towards
horaho
hec
propo
assi
nkuranga
road
##mbanye
itunganya
kayishema
inaha
arabie
kinazi
boarding
##ruzi
umukoro
##mel
guhitanwa
cyate
bwitwa
legal
atayi
irimbi
hold
##rinho
ndagukunda
##bonerwa
faru
ibaho
start
area
bwigunge
##koreshwaga
fede
ntibabi
murabizi
kuzimya
mukanda
##taniye
ibisazi
kumenyera
peacemaker
nyoko
hospital
jordan
munyangaju
afatanije
mit
kune
bategetsi
bazanywe
yarangiza
umubabaro
abagenerwabikorwa
bukoreshwa
##gendwa
byamamare
##yoborwaga
retur
theme
radi
sop
110
gatoya
##phosa
##sanzura
##tsindiwe
bakundaga
ivugurura
mbera
why
##mwana
##yage
##itinya
umufatanyabikorwa
bicye
buzwi
buciriritse
kavutse
ibiru
byakorwa
tugire
##geragezo
yifuje
tay
itaha
azahura
kubikurikirana
##rirwaga
itsura
prepa
kutamenya
##yongeraga
transforma
capsu
##gishirize
turikiya
nje
ugire
##twita
##komye
gutsemba
waturutse
##vuzweho
##mosa
kiyapani
icyan
byaramu
ture
##shingirwaho
reve
rafiki
deg
##kiriro
caguwa
azaza
kubishyira
##guyemo
##ranishi
kuyikoresha
ubwanjye
##rohewe
ibitotsi
environment
sla
##72
##rimbura
mumena
##tesi
##gurwe
kide
igise
byashyizwe
zikorwa
##pard
yirinda
sera
dukore
banyi
dele
bworozi
afugani
living
expla
gucamo
transform
bazitabira
inkeke
##mitima
kubye
##yaba
bagirwa
babyaye
##matic
yazamutse
umuvugabutumwa
guy
majoro
kubagwa
zabaga
igwingira
##gurukiye
indimu
wigana
##garizi
##vane
ugufasha
umwuzure
feri
##tesitan
stru
bifuzaga
basic
ikitwa
obser
nzayisenga
restaurant
corneille
ambu
hc
usabwa
ulk
bacitse
bikorewe
##tiza
habeho
##lier
maputo
gikurikira
gacinya
zageze
zashyizwe
##sheja
sara
##gizeho
ugushaka
bwiherero
urakoze
chance
philoso
smartphone
dieudonn
gutaramira
inzandiko
liberia
##tesitanti
uca
##ime
##slamu
##dition
##wacu
imyubakire
wahize
maf
gihanwa
akaboko
##itanda
agafata
batagi
bakabura
yaratangiye
yumve
hirwa
##tino
bizagira
yahamijwe
bwerekanye
gutaba
muhazi
##shishikarizwa
chogm
##structure
barcelone
colombia
ramaphosa
gusubukura
kito
nsanganyamatsiko
##eli
##yitanga
gufana
##habi
##humeka
##beya
happ
kamana
##ongo
##ganko
urura
tubiri
kwirirwa
coca
twahisemo
##mburiye
##byombi
biratu
cyerekana
bacumbi
minnaert
croix
uwajeneza
chimpreports
kitu
standa
##zingo
##lden
##kumbuye
abakerarugendo
bizera
birinde
##gumana
amakuba
hamad
ibigega
igihangange
ikilatini
##vain
riha
##pali
yegereye
yizeza
sebera
rard
advi
lat
birakwiye
ikayi
##yandikire
imboro
busabe
zuma
guhanahana
##subitse
inkeragutabara
ntsinzi
##82
##bby
barwo
yasho
##gobo
umukamo
abakomeye
naramu
nature
wazi
rusanzwe
##tower
abisabira
gutesha
bitangwa
##sohokana
zitagira
stress
kuramba
##kundiye
gutotezwa
mugwaneza
imiziki
tony
mexico
strategi
infrastructure
activities
cyagabwe
cru
nitwa
nziti
spo
##cting
##riho
bakristo
ingimbi
abasesenguzi
##gumya
##more
##sambanya
kwira
bwagiye
yishyurwa
yarigeze
rwafashe
##mazemo
sisi
unyu
ikavuga
ubarizwa
inkondo
zitandura
##cester
nyungurana
ibiraro
records
impuzamashyirahamwe
gitangira
ibonye
lv
store
xi
##ea
muham
bagiteri
yasabaga
##rorera
ibinyu
##ganze
ikigi
gasu
##lea
rwabi
izin
gusaza
##inginga
vir
dimen
disco
kumureba
ikabi
##rangirire
##bereyemo
##qua
ntibashobora
##girwamana
tuzakora
ntana
ubunyamabanga
##jugujugu
icyunamo
##takaje
##nganiramirire
tuniziya
impiri
##uw
baganire
umujura
bishanga
wal
wamwi
bukora
##yanditswe
ntabu
wea
led
bebe
hol
kumutera
ihagarariye
atuyemo
umunyarwenya
##ranyiriza
ingona
kuruhande
giterwa
yubaka
kuboza
##nanga
1970
yasezereye
technologi
another
cogebanque
cyobo
clin
sz
yitiriwe
##96
yasigaye
##gia
##mesa
instru
abakomoka
amayobera
buguzi
##pakira
yishyuye
yirukanye
##byemerewe
yaragize
adana
sud
##ramuye
ijanisha
##abakinnyi
kudaha
igiturukiya
stephen
kibuno
small
##jugunywe
ageza
io
kv
tor
trou
mupen
basubiye
##wen
##itre
##butu
nakwi
nationale
##yumunsi
##deba
karita
gifata
gisigaye
##somwa
##fur
##shoramo
##nger
yibanda
ahabwe
hemejwe
yarayi
bagakira
bagasangira
ibaha
tigo
febru
wunganira
discu
yaranzwe
ishyanga
tekinike
tombola
isanamitima
gl
hitwa
nton
ucu
##gitse
##kugeza
##sions
nadine
mashira
yoherejwe
kwisanga
andika
##stro
bazato
mukama
##bonwa
##korerwamo
platini
iciriritse
saidi
february
nds
##tw
inca
##hoye
imva
wagaragaje
##lid
kidu
mah
ntacya
##rerera
rwakiriye
##los
##ings
case
matata
##keraho
birometero
nkeka
yanyuzemo
barekuwe
buravan
kumwo
ecole
affaires
quarter
archives
##nitse
##wino
bagizwe
baciye
##kamu
yashoboye
##yota
##gusha
bukurikira
gihabwa
##torial
zakozwe
##shura
nelson
sainte
##mand
nukuri
baturanye
##sobanurirwa
icyahoze
##zubaka
mwibuke
want
kwandu
indatwa
yavugiye
akuriye
akemeza
imanzi
##manika
##simbuza
watchtower
ace
ahereye
bafungwa
##girwe
naya
##huwe
buy
##shamaje
##wood
kawunga
##soko
gasi
tubone
##cogoza
baragiye
bakava
abivugaho
itaba
batunguwe
##gabanywa
##mararungu
markets
feel
turizera
##siyeti
mont
mukansanga
##gituye
aherekejwe
provide
boyz
committee
refugees
providance
especially
oif
muyoboke
yasaga
##kumbi
##media
abageni
biganisha
rutera
ruyenzi
##kinan
kantu
byin
rimu
biramutse
twigeze
nyiraha
abanyamategeko
ubutumire
yibasiye
german
uburumbuke
performance
hepatite
cc
##77
##barize
yasanzwe
##sembuye
##teo
mabuye
ikimara
kubaba
##sty
ikine
##kirizo
domes
bavugako
bamubwiye
bamufashe
bizamini
yahagurutse
birindiro
nzajya
kuvumbura
##abaturage
benda
ubwanwa
yabugenewe
thank
mbungira
bucukuzi
gerenade
gahamanyi
akanwa
##burezi
##setsa
gutorerwa
butara
kimonyo
yiyemeza
##pubu
viza
jali
ugahita
##rwanyije
tuyishimire
1986
usd
bamenyereye
gusubiramo
akanyamuneza
egide
##yobokamana
afungiwe
snappy
okapi
illumina
ifashe
##aza
basobanura
koru
guhamya
##beth
##kehol
##hiriwe
anenga
ryatangaje
say
agapfa
offen
##pol
##shimiyimana
kubijyanye
##funzo
uzahuza
bateze
barebye
impamba
isabato
climate
yatsindaga
musemakweli
agende
ishira
##nganda
##dit
##rimbira
bamba
umukristo
##kumu
##mezi
##tezi
##tele
guhugurwa
gukodesha
ingaragu
bigenga
##sipe
nashakaga
##deka
##kande
werekeza
##sukura
imishyikirano
##vic
##bwiza
cyana
banyura
batumva
fair
yahageze
abra
yongereye
ruzakira
opini
abasiganwa
yakuriye
##kandara
akitwa
amababi
niyibizi
mourinho
guhinduza
iwu
ndon
##46
##sca
##dho
batyo
##zamo
gushimuta
abade
tumba
##kwiza
poste
##kozeho
ndacya
yarahawe
##oniyani
ibamba
##tono
federation
kuvurirwa
mbibona
zibaho
getelementbyidb
##sedoniyani
abanyerondo
##akarere
musonera
katabarwa
##umwe
umuhamaga
##tumira
bien
rusaba
cyateye
rachid
batuyemo
affe
ingaru
iwawa
emmy
stree
magazineumu
magazineikipe
ibitagenda
bamwita
akeka
zidakora
##huriyeho
##tereya
##mworohera
nyunguranabitekerezo
elie
mbyumva
##bwite
##prise
mutingito
kuyobya
kurokoka
##ziel
gupi
nakora
amacupa
kirangiye
rud
ukomeze
##yobore
cairo
##vangura
jobs
mazembe
kugihe
##gendekeye
##tona
iyaba
anaba
uwimbabazi
##shinjwaga
##roherane
##zibar
yahungiye
inclusive
wasafi
mugemana
pulasitiki
akubita
kayonga
##lic
giho
byashize
ntagi
zihuza
kwivuriza
yibye
munich
abira
mes
##lution
ugukora
turabizi
imali
##kurikizaho
akamubwira
williams
eritereya
lit
##abo
##babi
kungu
kumpa
gufungirwa
abagomba
nageze
wateye
kabuye
karda
##keli
gatsa
yikurikiranya
banza
tokyo
byimana
##sohokera
gutumiza
ireland
zanzibar
zitunganya
gusetsa
surve
families
kavumu
ndangagitsina
uzziel
faisal
gouverneur
habinshuti
ainsi
azamara
byumvi
kutan
yahinduka
##yiki
umukene
hameze
ariryo
##keba
##miro
akagi
##sukari
bwakira
pombe
##wumuntu
ikinyejana
##ragabanutse
##tangirana
santara
lead
magazinekuri
ndori
amour
ahanga
abuka
iden
mfata
ngenzura
##sina
##ways
##tabaza
amahane
##kereze
tuzamu
kubafata
possible
##gurukira
india
bazaha
imbata
bamuzi
mwabonye
utaba
bituranye
tike
##arra
99ibindi
##ops
gaturika
##chie
##jugunye
ndababwira
bicara
philbert
mujawa
tourism
##nangagwa
dru
mbili
kuruka
basangiye
bideri
washatse
##randu
zirwanira
##ination
##cik
yet
yikubye
ntibira
sidi
bakari
##sobanure
utabi
ugukunda
##mwaro
byerekeranye
kizamini
batoranyijwe
bakirisitu
mudacumura
olive
##2019
##nance
nzove
gusinyisha
ndangamu
venu
kwiyunga
particular
deborah
sindayigaya
kardashi
mbwa
p5
mukanya
wahariwe
ibirimo
gikorera
ikimenyane
##mbagira
##hir
##himbye
cyama
kwishora
leona
agasubira
cons
kumusaba
myiteguro
ukamenya
exper
bareganwa
history
yarebye
include
parties
wongeye
##prene
sinigeze
facilita
bayern
##gankoranyambaga
fren
wma
##d0
##xy
bayoboke
bagendeye
yasubi
bibangamira
##hago
ubusitani
ubuhemu
##yuzwa
ibigomba
##itaba
yosuwa
gasan
gatare
##sanyije
kwihuta
rihari
bwazo
gusama
##banura
ibyaba
##tekamutwe
isoza
bikagira
kuyiha
##garure
guturamo
nyinawumuntu
abanyamabanga
uhasanga
institut
silova
##ditional
suwedi
myambaro
kenne
mnangagwa
usoza
##sitoniya
kubwa
bareka
##mami
##kamba
##geshi
abarwanashyaka
bumbogo
byasabye
yizihi
##kwica
barapfa
bakaha
american
content
ahuye
island
liye
##feso
ibarizwa
marley
##shyigikire
##tengwa
minicom
bataramenyekana
murumva
using
groups
nyakabanda
maneko
mbarubukeye
phase
break
kwegerana
capacity
strengthe
clinton
##mfashije
##55
##bur
##table
##tebe
nal
hawa
##rwaya
##enzwe
gihano
igicaniro
##gwaha
milan
##inal
recent
yemere
##shwaga
lati
##fungira
twibaza
umusingi1
bahungira
bacumbitse
umutimanama
whole
called
bakoranaga
erneste
##ozofe
technical
robots
rusumo
california
ashaje
ekwa
ishu
ireba
rindi
##ky
##umwami
##buro
##zigera
abamarayika
naki
ibiyi
##hirana
noella
wel
baraka
igitangazamakuru
arakomeza
cong
bagafasha
bagakoresha
##herera
bikavugwa
kumwereka
ntuki
tukareba
abanyekongo
##cyuye
##filozofe
esperance
military
##wonsanga
ngiruwonsanga
asohora
ihura
##aga
##tinyuka
mushi
mushahara
bavugwa
bashimira
bafitiye
##bie
##kubwiye
##yumve
amahembe
kayenzi
imivugo
##dozi
izan
dea
##yong
##ringiye
ndahamya
##shangoga
milimetero
bagabye
alrea
role
bayisenge
abunganira
ubikora
angeles
amiganano
yakuze
marina
##sinyiye
leicester
already
cyuma
vul
##ela
##bitangaje
##cin
##vb
##rerana
yambere
##yogwe
bizana
bimenyerewe
##tie
ubujyanama
##yulu
amapfa
hatangazwa
##yang
##ites
ibigaragaza
ibirenze
##miryango
ndekezi
##tangariza
twaha
twavuganye
##bayemo
ahageze
sportif
yugarijwe
nkoranya
able
ubwabyo
##quo
##kirwaye
kutumva
cardi
harmony
rtlm
salva
collabo
deuts
##zanguni
dimension
akwi
aguye
mitangire
ntangi
ora
sit
uy
muyira
##kurwaho
abafu
bikunda
hajya
##sasa
kazu
mafi
mimosa
self
##shera
##manura
daf
##tumbero
disa
byibasiye
kwemerera
lady
himbara
iramu
twibuka
atana
##shyigikirwa
wuzuye
bwandu
##rerwamo
ngishwanama
##janja
pansiyo
gukomereza
##ctively
basezeranye
mbarushimana
representa
imburagihe
gatsata
ndangamurage
ghe
##d3
##ririza
##gadi
##reshya
##rekani
kugisha
gutin
##guriza
habuze
kijya
mabano
urusha
##sango
##rerezi
rigezweho
anno
twageze
yanye
fight
former
joint
ndimbati
rodri
bwimbitse
arre
##quia
nzeyimana
##mpunzi
providence
ikibaya
frede
##ruveje
mkapa
nsho
ritan
##tindi
##bar
##ziguye
##see
umusha
umuhire
gukwa
guhoza
abaforomo
kajugujugu
##tanzani
##tseho
ntabo
tugera
##vidu
rica
##shubije
nyabwo
##ones
ibyatangajwe
arri
ibyitwa
indabyo
##umugore
byera
##kanishi
cia
bitangaza
bambwiye
rwagasore
azitabira
graduate
buyoya
jacqueline
vedaste
ape
done
nkeneye
oe
rcs
ushimishije
##2a
##78
kuyoborwa
basan
hatangajwe
##desha
zikomoka
num
nuwo
yarapfuye
kagaba
individu
##vano
##umuyobozi
abanyamaguru
twumvise
ruhurura
##guay
cultural
##polomate
##yongeragaciro
aid
gran
ifunze
##ribu
bakuye
bibye
##tier
##besha
bumvikanye
##tane
##kel
rugende
noruveje
zihe
seve
ubworoherane
##itwazo
##riyeri
pome
silas
campa
fayulu
abanyarwandakazi
kumugaragaro
alg
itangaje
##sent
##kinika
porto
nabaga
##tunganye
##lists
philipp
sky
egypt
atangaje
cra
##e3
mumaze
##wasi
bai
bashima
##gel
##bukwa
##fatana
zica
kwikura
rikora
rikorera
bwatanzwe
yirinze
giheruka
ndatekereza
label
icyateye
iracya
bizabera
isugi
##garuriye
umunyafurika
harare
minh
igituntu
bibujijwe
imfashanyigisho
november
beypazar
dc
ryeme
bampa
badege
##biraga
gushege
watorewe
bumeze
##shakwa
##sayi
ibishushanyo
kige
rugarama
##hib
##hirira
tuvuge
##viriyemo
##itions
reser
yihuta
##ganirije
conomi
hishwe
feu
atewe
binagwaho
##nganiza
model
gaspard
kageruka
farumasi
pin
##cking
##rami
mulinda
kukuba
barangwa
umuka
umukiranutsi
kol
##kuva
##tena
bihabwa
##tika
##huze
kije
##hanuka
##somwe
##kinga
byatsinzwe
kwifuza
samson
##rengwe
irinda
isimbi
##sezereye
suzu
always
zerekana
mbaga
lock
##hutiye
evelyne
stop
737
abanyamulenge
transformation
olo
##ica
##avuga
##gabaga
##dar
ikigereranyo
byateza
akareba
akamuha
regu
leve
modi
##jurira
gutema
bahakana
abarizwa
kuzabona
##genekereje
ceo
##hungabanye
byugarije
##vuguruza
##gezwaho
continen
projects
kwiyakira
learning
growth
umuhamagaro
nyongeragaciro
tl
##93
##rikwa
##ray
muhondo
##gae
kuc
##seko
##itezweho
##hanganisha
##cee
banenga
sayin
##yangombe
##byihishe
batazaba
dida
##vanywe
babigenza
##tonganya
abanyabu
gentil
uburambe
ikizami
##renzaho
gushyirwamo
twabibutsa
hitler
bikiramariya
candida
understan
aruko
idirishya
basinye
##ruhame
biyemeza
##sifu
budge
gahini
##garariwe
byaro
dutekereza
batarenze
yuhi
iraq
bwishingizi
abanyagihugu
active
loo
ategura
gitutu
##teganywa
##hanganiye
mexique
mikorobe
title
pologne
ev
uwaka
##rimbwa
##rai
bamagana
##itha
##seswa
guhangayika
abahuye
##huzanya
buli
hafatiwe
##key
matwi
garama
byabanje
tuganira
zihu
dece
dipolo
azakina
bagasubira
##fungisha
stakehol
ikajya
##renganye
goal
##lying
jus
bwera
nzara
hazajya
aramubaza
yagezeho
maroke
incuke
ngwino
yitezweho
achieve
palestine
degree
pene
##f0
##sy
##c0
bafashije
babonetse
basangira
yahanu
##zimfura
wazo
##wanyi
rucogoza
##ganyan
gihagije
##namira
byazamutse
kubashimira
rice
abaturiye
dutangira
temp
##shyuwe
turakomeza
zitangira
##gurishijwe
idahwitse
rwanzuye
##down
kurahira
##kurwamo
gusiba
vumbi
abaheburayo
rwasamanzi
increase
improve
european
##sindisha
jersey
sayinzoga
erekana
sche
twana
##pted
##lve
kungurana
##bukira
umuru
umukristu
infe
##vumba
##yujije
rukaza
galement
tumeze
mifuka
bwabereye
munana
belie
##rison
bakabasha
wanyuma
austin
mbarwa
##songo
ngaboyi
principa
##masabo
butumburuke
muhezo
kubwimana
engage
hilal
kardashian
fda
##ering
##korwe
batandukana
##senda
abakeneye
bie
bigenze
##guhe
ubugambanyi
##sama
katari
byateje
##bwishyu
dutuye
band
satur
meteo
cadre
wirinda
lagos
ugukomeza
julie
##kend
aziko
##chel
yabibwiye
uzwiho
##umwana
rosemary
organizations
munyengango
independent
september
french
agezweho
myuka
pon
yani
##ginya
##cp
##1b
bahitanywe
yakw
##dal
gufungu
washyize
##hubwo
butangaje
hazwi
nisingizwe
kizima
ruhin
##mirana
zihimbaza
##nguri
gusarura
teka
wibaza
kampi
seninga
chap
##usco
shitani
parlia
##ziyaremye
kabarira
utimukanwa
amatariki
amasendika
urwiru
ritavuga
##byinira
tharcisse
rangira
##miliyoni
ibyuya
alubaniya
##isi
##dde
mumenye
##geriya
##dam
##setse
umucunga
umupfumu
wavuga
##safari
##ranwe
kiiza
##kerereza
rugaga
kanyamahanga
byateguwe
urufunguzo
rihana
anyura
yariye
bang
##kiraga
ataka
abifite
indiri
doing
uturemangingo
147
amasohoro
##kazaki
yahoraga
##tererana
promoters
mukamusoni
##muziki
needs
athana
##toriale
mountain
akundana
izere
ifunga
##eba
##sr
mubwira
yao
##giranwa
wabu
uburyarya
##bango
ibizaba
mars
##miriza
kantengwa
##naho
nova
byaran
weze
riva
dutegereze
ahunga
yababajwe
itangazwa
biracyari
##mwirukana
##itonda
abeshya
idakingiye
kong
mukankusi
1988
baruta
karungu
ntibyadu
psy
nterahamwe
masasu
rwakatiye
indonesiya
gahima
akuba
irangwa
kristu
##rto
##raye
umuri
abagana
wakunze
##shashe
nizi
##lian
byagezweho
zikiri
zikorera
ziyobowe
comba
izana
nyabyo
twagombye
barahawe
signifi
##rengaho
##tinyaga
bwije
##munaniye
jazz
kuzagira
juv
uwin
guturuka
umunyabwenge
itegamiye
kuguha
kinyazeribayijani
trava
monusco
##geragezaga
iseminari
##pped
kuzitabira
indogo
kurangura
operation
miller
gazette
gitsinzwe
##rirane
mutegetsi
barwanye
yakiniraga
##dag
##yijwe
##roro
##tek
biyita
bifatanyije
##dikiye
buhi
bull
haramutse
##ences
##toranyijwe
migabo
berekeje
##fika
bakatiwe
actu
kigoma
santimetero
kuziba
aburana
avugana
bahuriyeho
babyifuza
babyinaga
respect
superefegitura
asanganywe
nca
wongera
##zeera
##roid
bizihiza
bishakiye
gikristo
##hiwe
gabby
zisigaye
kwihaza
zatuma
rikorwa
yizera
rwamaze
##nic
##garagare
berekanye
ukumenya
akabaha
bahagaritse
##rangizwa
kubutegetsi
ubwacu
fem
tuzayi
##yumviro
iwawe
mutamba
bakiriwe
started
bwangu
batarabona
innovation
rukumberi
ukurikira
lyc
kabeza
urunuka
kiziguro
buhambaye
robot
currently
mirafa
ibyamubayeho
opinion
azongera
##xelles
##rirana
yabwiraga
bisoza
##vumbura
kago
rupapuro
gikomeza
cyata
##sumbwa
boherejwe
##cations
ryagaragaje
atazongera
compani
##kwamo
abarirwa
ukagira
abuja
giterane
nyirinkwaya
xavier
simusiga
cyprien
ambulance
ngaboyisonga
dit
##kye
mugina
yabe
##bufite
inkombe
abapasiteri
nafashe
naeb
karengera
zikana
##shinjwe
pep
##panye
farm
##ulle
ayahe
irakoze
bitwi
mutuyimana
filipine
##gurwaga
chef
bukavu
1979
yarekuwe
inyongeramusaruro
inspira
solida
venezu
eslovaquia
ikurikirana
pp
##mwanga
muyango
kubonera
bagejejwe
bapimwe
##maranye
##kazwa
##yimoni
umuhamya
bibeshya
wabuze
nice
ikimasa
##gent
noted
urushinge
zawo
##iniya
yeho
yigishije
ntiga
atagomba
ukubi
##poc
##mbese
azakoreshwa
batunzwe
mwambaro
nkotanyi
rubayiza
ubusabane
ntibishoboka
civile
kibagabaga
##shimangiwe
##raliya
tuyizere
1984
##hangayiko
urwitwazo
kaberuka
##mpano
yahamagawe
abiteganya
ruhamyambuga
arangiza
rwanya
ul
bakuba
batsinzwe
bamwu
basanganywe
yambitswe
bush
kayabo
ntawi
boko
dukwiriye
dusabimana
ryagiye
baratu
memo
ndakwinginze
utayi
##mokarate
sentore
ngubu
##ried
ihuriweho
restora
##kwirakwijwe
kuboha
donn
kunozwa
gusinyira
yaguzwe
avuge
mbungo
florida
rwunge
pharma
citizens
yonatani
rusheshangoga
binjiza
ishi
ihoraho
##rsu2
##byumvise
muyoboro
batora
wahu
ubukire
amacumu
katara
##liba
kikiri
##kee
gishuti
##miu2
igiho
kanyu
byatanze
##wundi
mobutu
cases
##guruye
##bonekera
##sobanuwe
hirindwa
##rissa
ndishimye
abitabira
matabaro
butagereranywa
sensiti
nyirasafari
kitazwi
sinda
kabaga
usaid
ethiopian
ahead
##zibagirwa
inyamanswa
gikongorwa
ntamuhanga
nasser
##pingu
october
iyaka
##sebya
umuringa
inzererezi
##bank
ibifite
byakabaye
risaba
yifatanyije
rwahawe
ryabonye
bange
banyama
twamenye
offe
bagatsinda
bizadufasha
ihagarikwa
found
ntibara
getelementbyida
abuzukuru
ndungutse
muzabona
abanyezamu
availa
daniyeli
##tekerezaga
ibiteganywa
entreprene
build
swit
terefone
##pasitori
things
ep
sty
ua
kugoro
bart
##zen
inkende
abahinde
hatangira
ikivu
ikimwaro
byabyo
byahindutse
##vide
##vemo
yariho
##jama
diarra
ndahimana
##yweye
##ndon
##voir
asiimwe
giteganyijwe
##shyikirizwe
##sedoniya
full
rizabera
99abandi
sylvain
mukantabana
amagufa
muhawenimana
pasteur
atinya
ein
##oul
##tle
##zayi
##gonga
guar
namara
gari
##pers
cool
##ndira
beat
ntibwa
ntiyeme
tax
atabwa
##rinzwe
##ssy
bitunguranye
umwari
esiteri
shampionat
iturutse
internationale
##bandikiye
funga
##dagadura
bavukana
416
edmond
habarurwa
gitangwa
courage
issue
##tekereze
twizerimana
ao
dna
jun
vari
##garira
bakundanye
barengana
##teria
abagenda
bikenerwa
##hou
nasa
kajagari
rurangwa
##itali
kwicisha
zakoreshejwe
##yamara
seven
banyamahanga
##itwaro
beach
cassi
##taraboneka
##gerezwa
kubirwanya
ugurisha
kubumba
intasi
intagondwa
umwungirije
##canwa
shampiona
shyogwe
gukoreramo
ntitwi
kuhava
icyitonderwa
ikoma
bakamubwira
bruxelles
ikinyaturukiya
nsanzabera
august
##siramuye
##nosideri
benediction
afuganisitani
iguye
jul
nsanze
##1e
##secu
abayobora
imbangukiragutabara
rutin
masedoniya
##mide
##mirira
##fuku
byafashije
misiyo
kubabaza
##itiranya
yarize
deta
taba
nuwa
bitagira
licien
##graph
guseka
yasezeye
kaliman
kamarampaka
ignace
##ganyanyigisho
arengera
##ahubwo
##angira
muramu
##muhaye
##rukwaho
umugande
abadu
bishyirwa
bisobanurwa
namenye
##beshaho
kagarama
rugari
cyagize
antal
##manshuro
yarafashwe
alle
##kiyemo
rugomwa
juma
baziko
igakomeza
##char
kugumana
kirambuye
batangaga
yakongera
igitugu
gutinyuka
tunis
abamisiyoneri
bahize
gorillas
##komerezaho
diyoseze
amagufwa
karidinali
eliza
##fitwe
##vre
murwanashyaka
##bafasha
kugurishwa
bazan
yashakanye
##zero
inza
inkuta
bushinjacyaha
bugenzacyaha
##shaki
##deke
kigarama
akawu
##neye
zarwo
##lah
ubwose
##mann
##byishimiye
damasi
kwera
turamu
135
nzirorera
female
akiga
bidahagije
99iki
nyarutarama
chica
bagiraga
berlin
gatenga
spea
##bwirwaruhame
yorodani
elias
aja
akurikirana
enyi
ipo
ubizi
##fini
##wabu
##geyo
##sene
umuguzi
ubusobanuro
##heid
amajoro
kazo
##tos
##sum
##suku
pari
dufitiye
too
gusahura
##sinyanye
##shwati
##gabano
wanze
june
##ganyirijwe
birukanywe
prio
##mpumu
akiriho
thanks
jisho
bruno
##bitera
gusubika
kukubwira
indust
ntamakemwa
mumashuri
iteganyagihe
jeunes
drake
kutesa
antalya
bg
dg
eze
fron
iyobokamana
vro
##than
##bilities
##yiru
gushyikirizwa
nakomeje
amasha
hakinwa
nizere
##detse
gishushanyo
byitabiriwe
boro
rigi
rijyanye
##cated
pasha
twizera
television
##ison
ukayi
baziranye
263
barebera
tukagira
##kemuye
masabo
##konja
ikerekezo
##byitaho
kubyakira
shaddyboo
silovakiya
chicago
ahinduka
irere
irushaho
ufashe
##gno
##cenge
mugarura
bahindura
##boro
abagenzuzi
kiir
rutara
massa
giswa
yoroshye
mie
kwiyumvisha
boli
rigeze
beau
##wuba
bazayi
isosiyete
bigaga
act
acc
clare
winners
yitabira
##sirabo
1964
ibisambo
centrafrica
##verty
tg
kuganiriza
kubereka
##gun
wakiniraga
habiya
kibaye
gisirikari
##soreza
tuvu
zigenewe
wema
migration
zaho
##shubi
##care
yifashisha
yifashishwa
rwakoze
tous
twakoraga
igihekane
##wubaka
##fotoza
ameza
ahuza
ent
##chter
geh
rubasha
twemera
yamusabye
##raburindi
##hungabanyi
kuraswa
benefit
##phet
yasimbuwe
amatiku
##letico
asanze
nkomeza
ucuruza
bumvikana
nib
kigereranyo
gikoni
##menyo
zahise
rekeraho
sepe
rwasubu
ntira
rwema
bagasa
##vangwa
unywa
birambuye
ugushyira
abanyabwenge
eslo
muraperi
##huriranye
ntahobari
adol
umucuranzi
bashunga
street
akunzwe
##urage
##58
##byuka
##vine
kugaragariza
bahuguwe
guhesha
gucyura
abashinjacyaha
abacakara
bihita
wabonetse
hashyizwe
##yant
ikilo
##huguye
akarima
kwiregura
kubakorera
##tangaga
##para
dushoboye
##jiya
kwayo
arambuye
kwitoza
hepfo
late
yubu
asked
iragaragaza
roberto
##rangiriye
nyirakuru
##mugabe
##shyingiwe
##bungabu
bagizweho
##perisi
kwitegereza
##shyamirane
lesotho
pana
sine
##nzima
##36
hasa
nick
kabura
##leon
ubwoya
duhereye
barabu
side
minispoc
socia
##sobanurire
##gishaga
hiv
kujyamo
##yandike
batishimiye
pasito
icunga
##cyc
imperekeza
agatotsi
religi
ngenzuramikorere
ere
gla
iho
ihan
ipanta
##ybe
mugwiza
muzinga
##data
umumarayika
bishyuye
##sikopi
##time
##hungiro
buzuye
gaga
##cement
byitiriwe
bwafashe
decla
poverty
##iture
kwitandukanya
wiswe
wizihizwa
##jyani
bazatanga
bahagaritswe
ibyawe
iratangaza
bwisanzure
##ganyaga
series
gutamba
shaba
tubibutse
karambizi
ngabonzima
kanyamu
##minani
direct
ukurikiyeho
ryitabiriwe
##aaaa
blaise
nyirinkindi
zonyine
rutsinga
adil
friends
talent
akangurira
##ids
##b0
yagaruka
umutsi
koroherwa
gushya
abatanze
bibanza
bihangano
bikurura
##digi
ubugenge
buhamye
mabu
##ganwe
gikozwe
cyandika
rega
antoni
berekana
nyawe
kwamburwa
##kwerere
jos
##nome
ubwishyu
mukarere
##heraho
mbabwira
worship
kutavuga
stroma
yatunguye
innova
km2
find
presiden
ruhushya
strategy
vatican
gwiza
leonard
saturday
elisa
jmv
##yomba
##gondo
umuso
umukorera
umuhoro
abagu
ubutware
##humu
bukenewe
kabano
##lip
rushaka
gishwati
kanyinya
kwirengagiza
imidali
##shua
yirukanywe
taxi
atalan
yarashe
102
bahagurutse
izaza
alfred
status
army
##tongera
kuzakina
##uty
kinyaperisi
##ssau
perman
develope
bahabwaga
tutazi
hateraniye
kayitaba
##mpande
ntongwe
companies
atanze
atangiza
asengera
cit
##zzi
mufate
batumye
bafate
##kabo
yaciwe
yampaye
yafatwaga
##tely
##hel
##heranwa
##banywa
nirda
karinganire
ruvugwa
ruzwi
##hannye
ikigamijwe
ntakintu
ris
munyaga
##mboye
took
ahate
abizeza
##sezeye
bazatangira
##sobanuka
does
##rwf
115
atletico
nziko
look
adakora
##suzuguye
monde
yandikwa
bakohereza
##remare
baguma
##huriramo
gushyingiranwa
lyndon
madagasi
ndikumana
umuremyi
##finilande
emira
##c4
##gaye
##yali
yarenze
guceceka
##tish
hategerejwe
##ranto
kirangira
igikapu
##let
kwisi
ribera
##cap
anywa
##mbonera
sabin
##pus
bela
begukanye
baraje
moi
ndabara
urashaka
class
##phonie
nyuguti
babyumva
akeza
##kuweho
kumbwira
batitaye
##aching
products
gorila
promote
droits
libra
wicaye
##gabanyiriza
muhongerwa
busesuye
nyirarukundo
imbeba
stromae
aby
ie
ikwiriye
upfa
uvuka
kumanuka
invol
ntakundi
zikaza
kwisobanura
##doti
twagombaga
mosco
yane
ndamage
wibuke
azava
dodo
kinyama
##hereranye
icyarabu
utura
africains
1985
yahushije
twavugamo
hubatswe
nzitizi
enyimba
atege
ee
mfa
urenga
usoma
zel
##nganyijwe
##aux
##97
mubaza
mutware
##reko
yafunze
##gosha
##tumiye
koi
insinga
bihana
navuze
wahaye
bugarama
##yandu
night
##dephonse
magufi
gisaba
byahawe
##sance
##person
zambiya
pota
ukuze
baramaze
batazongera
yarari
uwavutse
subs
tigra
wanga
isabwa
rwihariye
igaruka
counter
gisaka
rudasumbwa
##gitugu
yasinywe
##mworoheye
ikita
governments
julius
mulindi
quali
pisine
##fitiwe
ifatika
occa
##nyo
##ette
##cket
##gaburira
bafatanije
##murugo
##taga
umubwiriza
gushwana
uburobyi
rutura
mageza
tubu
kwiyubakira
##laya
dusenge
twaza
ukureba
##gerera
##gereranyije
##sigayemo
cyeretse
nziga
kuyirwanya
getelementbyide
umuzigo
kubyu
kubitsa
##yinywa
upon
1978
ukurikiran
##shimusi
toute
babanaga
universe
collines
evan
mubizi
##barutse
baherereye
bazindu
##ruto
intumbero
waa
wabyi
wagaragaye
amashashi
hahise
gion
akataraboneka
##sangije
tubasha
web
missa
zagize
ahoraho
agate
agahitamo
atabashije
bitashoboka
uwawe
intelli
ahanditse
##yubashye
##stein
gutuka
##gwiriye
zibarirwa
abakirisito
ntyazo
getelementbyidf
gukorwaho
basengera
turabasaba
chairperson
question
intango
sogokuru
supply
measures
akenewe
ashyikirizwa
arwariye
line
nkanga
##bly
##yereka
guer
bigaragaye
bisohoka
nam
wama
wakoresheje
karani
##limi
kanzayire
cyambu
ntambabazi
tuge
##cukura
duhabwa
told
twashyizeho
##sson
azayi
bagafungwa
kwesa
yuzuyemo
liste
##sigarana
turashima
bahuraga
aligeriya
hakabamo
aims
kanyamanza
british
kamariza
inoze
##imiyoboro
commitment
tonzi
##mming
tchabalala
ngirabatware
akurikiranweho
fes
jv
nkore
tin
yashyikirije
gufashanya
ababana
##vugizi
##rants
ibizi
kila
maremare
##miss
abanze
gau
rest
agashyirwa
barashwe
babamo
arazi
azafasha
bagafatanya
mwiriwe
abdo
adam
yateraniye
lucky
mpambara
babinyujije
ikompanyi
nyemazi
rutebuka
nzabamwita
mozambike
##tainment
basezerewe
ruberwa
##hanganirwa
positive
inzige
cardinal
amapawundi
friend
buruseli
mahoteli
gushegeshwa
fen
opo
##gitangira
yakwa
##ros
##rose
inshinge
washakaga
hamenyekanye
kamaze
kariyeri
rubibi
rugirango
giso
migufi
kwibeshya
yirirwa
peru
ryahinduka
##jimbere
isibo
bakarushaho
ibyapa
amanda
bazimya
bihesha
urambye
amin
luc
karamira
niyonshuti
munyakayanza
##kwanzi
known
myigire
##bahizi
##logie
abapfakazi
yasuraga
single
imbonerakure
donatile
ibisigazwa
psycho
kabagambe
effi
ikenewe
ikunzwe
owa
bashakisha
bashyikirijwe
yazaga
##gemo
##bikira
kole
inkangu
abapilote
bissau
nazi
##tivation
ubushyamirane
hasanzwe
##kurume
byaru
zibera
kwimuka
baringa
##tsikira
agati
kwito
comments
favo
hiyongeraho
##entine
zerekeza
rubagumya
##indurama
ntuyahaga
##reau
shye
bashoboraga
icuraburindi
udahemuka
channel
ryiswe
ibiceri
apple
##kongomani
reality
##lena
supermar
committed
heart
beauty
gdp
idi
ijye
jr
obo
ugo
utwara
vil
##syo
##ragwe
yamara
##yobye
##bimenya
##bumbiye
guhingwa
inenge
nadia
washinzwe
bunoze
nirere
kivuye
rukoreshwa
mambo
ikiyobyabwenge
gatsinzi
uruta
akakubwira
##menyumunsi
migari
mirire
zabanje
sah
ramad
def
##rengen
bakamuha
jeff
mandela
uguha
ngugu
akuze
appo
follow
urusaro
yahembwe
##cribe
concert
ahangaha
philippines
kolone
december
cm
kk
ln
ntwali
ndinda
##uu
mujya
bakome
bashyizweho
yakwe
##zeti
##tiques
##yuhi
##yumvo
##iter
ibikwiye
##keje
ibitera
giko
gaulle
tuntu
imigabo
cyitabiriwe
sadio
pou
##subika
mean
isomwa
golden
##riat
stro
byemerewe
ahenshi
kamasa
ibyanjye
barongera
nicole
hakorimana
mboneko
##damutsa
kavaruganda
critical
tigray
arwanya
ibon
ngero
usubize
##ap
##zitan
##1f
mucya
bamotari
yafataga
##dawidi
umudari
guh
wakomeje
##bananiye
nibuka
kia
abanyonzi
north
code
ryakomotse
sake
agakapu
##manota
ahasigaye
ndate
soya
jehova
kumukubita
##canda
kanaka
exi
240
##gambirira
yavuzweho
yavuganye
kirambye
buravuga
ruriho
mind
abanyeshuli
##jangwe
harry
yasinze
ikirarane
rwabukumba
ntawumenyumunsi
kurokora
uburibwe
##konjesha
##zigame
semugeshi
minuar
ruvusha
decision
weekend
repebulika
abadivantisiti
koruneri
atange
cdr
ntandaro
odinga
##ricu
##reti
##shani
kuboko
##bikiye
##kimu
bigenzura
##guje
nagombaga
watwaye
##lise
kiss
##shomeri
tukaza
ukobi
riheruka
munda
twahuye
batayi
##ringaniye
##hinduke
yunga
alpho
2500
amusubiza
gicuku
##ramurwa
mwere
murara
itewe
aterwa
##cessary
cimerwa
tukabona
yatakaje
gumamurugo
inyikirizo
briga
munyampundu
gerald
samvura
umwongereza
swazi
maxime
bisesero
abamugariye
igitoki
entebbe
venuste
ntangiro
avutse
nshi
nkenerwa
##ik
##able
##cta
musoma
##bushaka
nay
##mos
nijimbere
##ont
kisoro
##kei
rujya
mabanki
gashugi
byagera
akatirwa
cyagenewe
tumenyereye
mimi
##vira
##latiya
rec
theop
munanira
##firiye
##pisikopi
means
commen
ndaya
fiji
jeanette
kemezo
abdel
atariwe
##hererezanya
mwembi
uwingabire
murabona
broad
itwi
word
kutaba
uterwa
muhimpundu
baramubwira
bagendaga
cyabajije
really
amahoteri
pakistan
kagoyire
ibonaniro
650
afashwe
avugwaho
ryangombe
sd
##titu
##d8
muce
mubazi
bakurikiye
yafatanyije
##butaka
##yuramo
bujurire
byako
byafashe
byakorwaga
uruhago
##sugi
##cishwa
munyinya
rwaki
izongera
cyoroshye
##sinywa
uwagize
##rekezwa
##tangiwe
nkombo
bitana
##yubakiye
##siyona
igazeti
uraba
bakuwe
integer
travel
prix
souli
kampayana
yatangiranye
martine
avukira
rwabukwisi
hakurikiyeho
kamuzinzi
kazakisitani
kugoboka
##tnam
engineering
nyirahabimana
levels
budget
inspiration
cinema
ilo
ihamye
lb
mpora
ukw
uhamye
##ggi
##92
##anuka
##bambe
##remewe
kuzira
yacitse
yagurishije
##bishobora
guhanwa
##haba
##banira
kie
mashanyarazi
gipangu
byayi
kuringaniza
zishaje
wemeye
ndeba
rikoreshwa
remo
yibanze
pakisitani
dame
bazakina
ibasha
188
uzayi
arm
##torera
twiga
##renzeho
few
nzabona
chamele
##phore
haracya
icyegeranyo
transit
ikofi
yakuyemo
communities
turquo
urwunge
majesty
announ
##induramatwara
turquoise
4g
a3
front
grea
##ozi
##ctu
kurwanira
##zigiye
##gomwa
##self
umumararungu
abacunga
bik
bizamuka
bisangwa
##harira
ubungu
hagi
niga
##rankabo
urushaho
kwihitiramo
zagenewe
rikaza
coffe
##gerageze
bwasabye
dukunde
dushime
##cofin
##ill
kwambika
adn
promi
geen
##fatiro
twizere
bageraga
atemerewe
least
imyigishirize
karima
ubutumburuke
singirankabo
campaign
itsemba
shisha
uzamuka
##esi
##jine
yazamuye
##tais
bibo
wagirango
niri
ibihimbano
ibigeragezo
##hangi
cyavuye
yegura
munyama
##nguzi
gusakaza
atabizi
kwitwaza
izatuma
mwaramutse
##rangiritse
twifashishije
302
nyirabukwe
##kubite
ntuzi
yabivugiye
kayisinga
mutungirehe
unice
scri
twongere
rudakemwa
kugambanira
gutwita
##shidikanywa
abahakana
akomokamo
hydro
shyirambere
court
byagabwe
kambayire
alexandre
illuminati
abraham
adolphe
byubaka
itsinzwe
ihangane
nseka
##nb
##mwandikira
##hwana
##lenga
muji
mufitanye
musk
bambuka
yasubitswe
gushobora
ini
nabaye
buhanitse
haboneke
urusenda
ntabe
ntazinda
##vet
1930
##manitse
bwonyine
##jiri
simi
holly
##kirije
wizihi
facto
islamu
joye
##lume
yahagaze
babibona
adeline
##magaju
bakiriya
ihembe
##ruhutse
##tungane
mutimura
##rutabura
cross
rugerin
##yuzamo
viateur
masudi
murangamirwa
##pagasi
implementation
abdoul
apis
kbs
rm
##finda
##byuma
##ante
bakurikiranwa
gukanda
gufotora
##tigita
ubuholandi
##moto
kiyobowe
rutangira
##kuruye
ntagara
nec
nemera
depor
ukuza
bababaye
yaraka
bitangiye
##venge
humura
umwigisha
abanyamideli
uwira
##rwango
kutajya
scn
bubakiwe
twubake
april
meetings
inyinshi
hill
connect
raymond
licence
ntanu
oda
##ata
##zitiro
##oze
##sko
muhu
yashyinguwe
inkora
##gusaba
ubuzira
nia
mashyirahamwe
magereza
igishanga
gase
cyafashe
zatewe
bour
risk
anjine
seminega
##pimye
abikesha
##cururizwa
wibuka
bagataha
faire
104
icyacumi
ibagiro
birazwi
kuyikora
urabizi
itishoboye
ones
##hagazeho
ubunyangamugayo
tugakora
##hagarike
iruta
kwandikwa
personne
gihundwe
witegereje
space
taylor
rugerinyange
hong
uvura
##ught
##nnyi
##gito
##zitu
murwanda
kuzu
kubyemera
bazungu
##bica
inanga
##diane
macumbi
wemera
yemwe
yegera
yemeraga
lee
nega
##ndari
ibyoherezwa
##itankore
agatsinda
ukuta
##shimiraga
##yahabwa
diffi
byigeze
uwapfuye
doua
proces
##istan
tv1
gutambuka
ibyisi
kizatangira
##garukaho
makerere
gukurwa
airwa
##terwaga
nyiringabo
munyandamutsa
##maniya
diregiteri
aboneraho
serugarukira
kibisi
gashayija
inzibutso
mckin
ganza
abya
omo
##phi
##rable
##yerekana
##bubasha
##kijije
##kusanya
abazitabira
##guge
naramuka
ubugereki
##yumbu
amapingu
##sai
##rwaza
##mid
zishaka
zigizwe
kwicungira
ryavuguruwe
toyota
1917
##pamya
azahita
##gereko
hiyongereyeho
bakibaza
##genzuye
tubashe
yitaye
hasigara
dant
mining
applica
informations
##hebeye
iyakaremye
fle
ngendanwa
ryemerera
try
wri
##uk
##rba
babandi
##gimpande
abakekwa
bifuje
wasabye
wakinnye
amade
mawe
magi
##dodo
##card
bwakomeje
munyango
atabona
barafinda
hey
meet
##juririra
##yahawe
kumukorera
mwatu
akaziyamamaza
nkomyi
umusaraba
focus
butagira
lomami
iteza
sinshobora
bakiriho
gushakana
mukuralinda
nyirishema
mukanyan
abasilikare
away
bangahe
uwuhe
pasifika
habumugisha
kayitankore
kamegeri
intiti
yasinyishije
karemangingo
abamwunganira
available
##rengenzira
##rishya
mucuruzi
mulin
##gations
yafatanywe
##kizi
imyandikire
hapfuye
##sawu
kazwi
rukana
rugaragara
##ents
kubajyana
batabizi
tewo
rwogera
lap
firi
irakomeza
hutu
aust
136
zero
nguge
sharangabo
kugufasha
##lisation
abasivile
igituma
##ririmbira
verde
planning
mukabaramba
abasomyi
quarters
rnp
guide
kudoda
nouvelle
terambere
mujawamariya
lockdown
cham
fru
nita
ngango
stri
##ikin
##fani
##bate
##retwa
kuzongera
bagejeje
bafatwe
##yoka
ababyi
wate
havutse
rulinda
ibyuka
urugingo
akara
ndereye
##ganirira
polisa
protais
ense
biroroshye
abatarize
birukanwe
ryihariye
dont
brian
ndorimana
equity
libre
##hagurukiye
agahenge
christmas
etoile
gitsura
##ternal
ubungubu
##ffa
##yse
babyita
yakurikiyeho
##gorwa
##yica
umukandara
gukinisha
inyana
abamasayi
##hageze
wajyaga
bucagu
##libera
kiboneka
byakunze
tuwu
zibanze
mia
kwibera
kubasaba
rigenewe
sami
rashi
dee
ntimuka
sign
kwakirwa
babaza
yarabonye
alco
arekurwa
gold
kugirirwa
rubagimpande
accu
bakicwa
logi
ndusha
konji
slovachia
ngirango
gusebya
##dagaye
4000
yahuraga
guhosha
##sanyirizo
burebure
tropi
##rities
attach
missile
##shinyaguro
airways
azo
ashakisha
agendeye
chine
irangira
uvu
uhinga
##44
##87
##bf
bacika
##mahanga
abasura
##har
##beye
kar
kabaye
gicanda
igicumbi
##dufashe
##kinjira
icc
cyacyo
cyaturutse
ntagire
zabi
zakoze
##shyirirwaho
##viri
anke
##tsimbara
agahato
bakabanza
move
motivation
abishaka
azagira
isoho
amukunda
##lyn
ark
nyangezi
gituza
##rouw
kanyarengwe
munyanziza
abasimbura
herman
nibishaka
mukantagara
account
nnshinga
mosque
ntungamubiri
stakeholders
significan
ndereyehe
ml
utandukanye
ugerageza
##minu
##sn
muganwa
kumvisha
bakun
bacururiza
##buryo
gushingira
abarobyi
##sare
maganya
ikirangirire
##himbira
cyahitanye
zirya
ziyongera
##vize
##shutse
yemerera
necessary
peresi
##zamarira
wigenga
later
kumushyigikira
bizarangira
umusazi
##rongorwa
kuzamba
nzakomeza
ced
##hungabanyije
konka
herv
bakoreramo
##mintwaza
ndabasaba
yahize
##tirizi
##hitiyemo
twandika
attack
progress
rabat
death
sepetu
azan
mbite
ugan
##ima
##ag
##yri
##cker
##1a
##rirwe
muby
imbeho
wakozwe
##sayo
kamagaju
nort
byaho
akazana
bohereza
rikwiye
##cient
tami
##fied
bakabyi
bakagaragaza
##juririye
kubigiramo
irahira
bizagufasha
wandika
##karama
adasanzwe
players
##gwire
mpanga
kuyabona
unesco
narabi
umusigire
kanobana
ninjoro
wonyine
silver
bakiteza
umubumbe
essence
ryamaze
inyokomuntu
dipolomasi
joyeuse
munyangoga
polisario
igara
ngari
ushyirwa
uhinduka
wfc
##sm
mujinya
##babwiye
##yotsi
##taza
##mehutu
insho
biyongereye
nah
nahisemo
wakiniye
##vuro
ubusinzi
amahwa
rubin
ikimaze
##toranya
miseke
kwisiga
barize
yiyita
yirukanwe
agaseke
##gezemo
##menyeshejwe
yangiritse
abihaye
metho
ndakeka
sokuruza
construction
kwemerwa
yumvi
##itekereje
155
rosine
atlan
igahabwa
anafite
##ssions
##curuzaga
kurakara
ubika
barushije
##tereta
donna
abahatuye
guherekeza
##holande
mpiri
provided
rugemintwaza
gisilikare
curricu
investments
scientifi
##hagurukira
ambassador
contact
##mbaniye
uwiragiye
elis
gri
##foni
umubwira
inuma
abashyigikiye
bisubizo
nabuze
##tias
bukuba
##mose
##itegereje
##furi
nocide
akabu
ntajya
##ngerere
bombe
##bwirira
sesonga
ryacyo
##zabahizi
abijuru
bagashyira
##sezerana
licen
kinye
ikigori
##tozaga
urabi
abategarugori
crisis
kabeja
##mmeh
##sesenguye
##muheto
sgt
nzanana
mudenge
magazinenyuma
ururabo
abukaziya
buhigiro
ashyirwaho
ategerejwe
nsoro
urangwa
uvugwaho
##nganyirize
##dona
##ridu
##bagabo
kumenyana
inkwano
##shali
ibigirwamana
rushinga
rugamije
map
igikundiro
byavuze
##sanywa
cyami
##nels
zibe
mirasire
imihangayiko
revo
##veri
dukoko
rale
dela
deal
tabara
signa
ahagarara
##aland
bakareka
hoops
lisiti
explo
##ramagambo
amwita
abamushyigikiye
yatoje
protected
mauritani
##ggss
personal
intimba
rujugiro
mukandamage
athanase
permanent
864
epr
nsi
ngenzi
##cles
##32
mubyi
baretse
##kuraga
abafashe
##gutera
nabona
ubusha
hazi
##dez
##dena
rugina
##mbarwa
cyakomeje
##ryoza
left
ukujya
vio
homme
ndagije
iraza
##mund
abita
##thy
isuka
irebe
##seribiya
entertainment
ndayizigiye
ubunani
ukizana
1972
##eee
binama
##farisayo
1946
burezile
machine
##bahirijwe
distribu
customer
terefoni
kanyangira
kbx
mustafa
indogobe
##shidikanywaho
niteguye
##zra
##bintu
##c2
mubya
muhinzi
kukwi
yaraga
##terana
gukurikirwa
bikeneye
##tius
bucya
##wondo
kimanuka
russi
gikwiriye
yoroheje
zishe
coal
##cipe
targe
nyami
mocra
casa
libani
ibashe
bizatangira
##pfaga
ubwambuzi
abefeso
##hagarare
cere
220
##cyeka
karim
agezeyo
hatowe
ubudasa
reggae
stand
mugabushaka
##yorongi
##girimfura
minusca
commercial
suwede
vatikani
##butabire
johannes
vulnera
ikomatan
douala
curriculum
ihanitse
og
##kwite
##mment
mukiri
##ward
bakani
bashoramari
bahinduye
bakurikiranye
babangamiwe
##giputa
##zimu
##gota
bir
##siganwa
##huku
##work
kagoro
kiswe
makombe
ikirunga
##gwari
##sano
cyaza
ntabye
tuva
zihamye
kwimukira
imikinire
kubahuza
rio
yepfo
rwagize
ryatumye
##nikiye
ntibye
##terasi
gusaranganya
##firita
bakab
##rino
doc
109
##tumaga
##sohoza
bwiswe
##stered
ibyitso
##itondera
##senze
luxe
earth
##gabekazi
kinyaseribiya
updf
abadayimoni
biseruka
republik
victoria
kayitana
biremereye
ndamukunda
imbonerahamwe
various
theophile
isubiza
pggss
rini
sinu
##yitsinda
##jd
mugira
mushon
##bavuga
babwi
batwa
basohoka
##musigiti
umuga
koza
komanda
##gujwe
##yunga
haf
ntampuhwe
turya
zihita
##rikiwe
ref
##cast
toua
barakoze
##subirwamo
##boneraho
ahuriye
babibonye
144
umutuzo
kunya
ugakora
anasaba
uwibambe
shyorongi
##pping
histo
cookie
##itsinga
juliana
event
exclu
administra
sentabyo
circu
ihi
mbura
qhu
scan
uzana
##gge
mushimiyimana
kuyoboka
##yavuze
bakwe
##inyo
umuze
##rokora
ines
bihuje
wakinaga
##huis
buzira
bumvi
arira
ruj
gihira
cyagaragaje
##ngeza
kwicuza
bombo
##lama
nkwe
dushimire
##iland
##pose
sie
kwituma
procu
ingamiya
kumushyingura
##vugwamo
bamufasha
utun
vietnam
mataba
##talani
murama
kongeramo
rutarindwa
impyisi
##mukaga
named
ntiyabu
ihuje
mukangamije
vers
valentine
ruharwa
##mbanyijwe
rutenderi
kayitsinga
muhogo
ugifite
mukarutesi
##curabwenge
##ground
gym
mbonyin
supporting
shyerezo
akenera
itangi
witeguye
##uwi
##ebyiri
mutanga
mubyara
##kozwa
bahuza
yarya
##buriwe
##kigali
##kubuza
##meranywa
abakomeje
ababuze
bifashe
mare
##sou
##gararo
akagaragaza
cyagenwe
kwirara
rewu
moder
kwitangira
wiyongereye
integanyanyigisho
108
nyiramo
rubaduka
##zanire
badahemberwa
akimana
wumvise
clar
##read
atemera
plai
izabafasha
ngabonziza
databuja
minecofin
promoter
camille
##sangwabutaka
nkunganire
breaking
ordina
several
continental
nzigamasabo
intelligence
mwerekande
nyiramongi
750
cry
ngen
##nen
##mfizi
##ech
mugamba
##bakaba
##bagura
bah
yasabwaga
##gee
##ziki
##zene
umukwabu
##teranira
ababaye
bizihi
##dimuri
hakiza
kabuto
kiramu
rusan
ikifuzo
yogu
##menyanye
kwihorera
risa
agahozo
##publika
taken
twajyaga
##field
##llus
libera
kind
##bazaho
gatagara
museruka
ituri
nyirayuhi
ntuye
kizakomeza
nshyashya
abumva
mubisha
bataramenya
gitagatifu
tourna
patrice
myuga
ubusuwisi
igicuri
commerce
collaboration
##zitane
rashid
ela
ikura
mn
mboneza
ufitanye
##nyana
##ere
##cenga
kubwirwa
bagurisha
##mare
##yiriza
##tunda
##kuyo
##tegurira
gupfusha
abakurikiranira
amabi
nikwi
##ranziza
##lijk
ibiranga
##dusubiza
kanyenzi
byatanga
akaha
##shoggi
##mennye
kubashakira
##cet
ndebe
rick
cove
anna
##shereje
rwasibo
dukomeje
saro
##nguko
##ganirizwa
bataya
nkatwe
##gurumana
kumusura
irake
nyirazo
ntibikwiye
ngufi
wabashije
##rokokeye
abibutsa
nyirimbi
slovakiya
tumubajije
bavuganye
hakarebwa
rusatsi
droit
katauti
nyiramavugo
letter
appea
hospita
slovensko
damasiko
rwasubutare
ashyiramo
ivugururwa
ngendan
##gre
##zite
##mcu3
##vota
##ritswe
kuryoherwa
bagizi
bashyingiranywe
umufuka
guhin
gushishoza
intro
bipimishije
imwa
ubukiri
half
rurenga
cyanzayire
##hica
byagombaga
wed
kubashyira
rihindura
bwagize
salim
##twarane
atakiri
bataye
##gombajwi
akabasha
mobili
victor
abibona
heb
ndadaye
itaka
kagaju
kumugira
bahahungiye
##zanyije
nkongo
rock
##mwishyura
ukavuga
##shinjaga
atten
inzobe
##senywe
kitageze
mutuelle
amwanga
respublika
karuretwa
impeshyi
munyeragwe
izwiho
evalu
ibihumyo
kabengera
idusaba
matimba
##myu3
munyentwali
agreement
emirates
serugarukiramfizi
qhubeka
9ci
binubira
isese
nshoboye
uvuge
wumu
##47
##vp
kuvugwaho
kubantu
babwirwa
##muliza
##yori
abazamu
bibyara
bukorerwa
butangaza
haguma
##randura
##randon
ibisebe
maa
mabanga
##toranyi
kanyemera
cyanga
gasanzwe
zikenewe
kwiyemeza
nemba
rwabigwi
dufashe
##nijabo
nyaminani
##sangaga
bitazongera
nkabo
catho
kwanyu
##yandikiye
espanye
##yamamaje
aliko
itemewe
##yumvikanye
abatabazi
hazamo
karinijabo
charge
bimutera
ntibyamu
confedera
nyabunyana
rukebesha
mazuru
kabango
yiteze
itozwa
confli
inzangano
tesfa
encourage
software
yashyiraga
a0
hinga
##igh
##akaba
##ema
##9a
kunguka
kugambirira
bakwa
bakorere
##zation
yamagana
abakirwaye
bicura
waguye
warokotse
waranzwe
bukomeza
hagaragajwe
kageza
gikazaki
ice
tugamije
##zumuremyi
##dors
##pal
yirukanwa
##byize
atakwi
nutrition
mother
arashwe
medite
alger
bamureze
ikara
banamu
forwa
umwunganira
nzamba
kiriho
nyirarume
280
muhakwa
imuhe
##sohokamo
yanditseho
portug
1982
gusimbuka
ziteye
##mpus
vale
irungu
yadusabye
##kwandika
rukeri
##byutse
bakita
events
umworozi
kuvanaho
##shyamirana
nihagira
kumwakira
nzabanita
impirimbanyi
experts
rwanyaga
rubingisa
izima
mitter
nkin
##ic
##non
##gwan
muc
basoma
babyara
abakurikirana
bivu
##siri
ububirigi
##hutse
hashyirwa
hakuba
##moe
##satira
karya
##lije
##liste
abanywa
##toteza
kuribo
cyagera
tukumva
##dows
zafashe
zaturutse
##mbiranye
section
secyugu
perereza
##nir
twab
##jamahoro
rweru
temple
cyuve
##inyutse
12ybe
arsene
##hanagura
##nded
byarabaye
utegamiye
haraba
##yabukungu
muteteri
transfer
rwagafirita
##winka
rwamuhizi
iwanjye
yasinyiye
certificate
occasion
ubuziraherezo
significant
mitterrand
aphro
iphone
igaragaramo
ongera
utanze
##twite
mukin
yafatiye
yatsindiwe
##tabare
##sesa
umucanga
##melo
gukeka
info
bikini
ware
amababa
hagire
hajyaho
nibin
nisr
kagitu
kabibi
ibimaze
##end
##dun
akabikora
cyaru
cyashize
tumenya
coton
bwasabiye
sekanya
bandura
twajamahoro
woroshye
##mbuzwa
ahabugenewe
contribute
bagatera
##ryaba
##giziki
kuburira
kuvunika
sheja
abayizera
1983
veri
##hwemye
abamukurikira
kumwishyura
spra
informatique
equality
yagakwiye
nayigiziki
yakomoje
camarade
protoco
itsembabwoko
nikwigize
acibwa
hhhhh
ijyana
isheja
##62
##gakwiye
##bakana
##yamirira
yakanguriye
##kubira
bidufasha
waganiriye
bujya
##dumwe
gakwerere
akazu
ribanje
##cat
yes
##mbora
dutera
rwana
ntimwa
nticya
##rengeye
carita
condo
##llu
intekerezo
kugikemura
nzagu
bikaku
inyamabere
mpinga
bimufasha
minani
##muhamagaye
078
kumwitaho
twarabi
theodore
samukondo
##ekwondo
darfur
khashoggi
##ddle
mbarutso
katumbi
alexander
germany
library
ramadhan
asho
arana
mufu
mukoresha
mukungugu
kuvo
bampaye
yashinjwaga
##goboka
##kiba
##tene
##tembere
bihindura
natanga
wakuwe
buze
bugoye
##yano
ibise
igikomere
gatara
##rererwa
reach
##shereka
agakuru
woman
##goreka
simbi
arabyanga
##amaherezo
byibanze
bazahura
kinyoni
encyc
ikabu
116
aussi
abanyarwenya
ihakana
mukasa
kunyara
##yandikwa
nzigira
##ramugaba
kizagera
nkeramugaba
inyunguramagambo
nguko
##shyingira
barekurwa
##ssement
ababikoze
airport
kuturenganura
bisamaza
nyabimata
rukema
bibazaga
mukiga
abaherwe
mukaruziga
belgique
return
antonio
rugirangoga
hollywood
vulnerable
ikomatanyabukungu
ntabyera
ngendandumwe
nkongori
caritas
aerg
ipi
ishyize
ihitana
kwo
ntanda
ubereye
ufunzwe
##gner
##ska
##dth
mutsinda
##bago
babanze
##yoge
##runi
##rokore
##sige
##wikipe
bumari
haiti
haguruka
nive
##def
kap
maduka
kankwanzi
ntakamaro
wemewe
mikoreshereze
imikaya
##shyiriye
##itirira
rifasha
reports
bwita
rwataye
depre
tat
taekwondo
##nyera
bagapfa
afdb
izagera
joa
nyirimi
##hereyeho
15h30
utagi
izigera
113
##injiyemo
nzaru
##fatanyaga
igiceri
nkezabera
shamu
##myambi
ntiyagira
mutambuka
##sengiyumva
muhigirwa
babujijwe
vacc
abateguye
minega
##nganiye
francophonie
bamako
influ
ruberanziza
kubyarana
beyond
kwigomeka
sweden
ndengakamere
##shushanyije
ntigashira
ukobizaba
akani
asoma
abuza
ugura
##ngana
##d5
##gas
##rees
##shwan
yag
abarusiya
bizamura
ruman
rusangwa
##dukira
##furayi
##sand
zishyirwa
netan
munyuza
##nimu
become
ntidende
##pogo
azatanga
batuma
ndikumwe
amazemo
mukaruta
mukaremera
attra
zealand
ntibajya
indembe
itumba
##umuhanzi
uwishema
karege
plea
mutamuriza
99imi
muzajya
gucukumbura
vestine
muruta
bayali
rwagaju
##gned
serubuga
bigiru
##dintwarane
kamugunga
yibasira
responsa
ntamabya
mpitamo
references
muberuka
rutsindintwarane
marocain
kwigomwa
mucuman
clinical
cassien
rujindi
sekanyambo
ntidendereza
ritangira
uhura
##fira
##bingo
##pra
##yaje
##karira
yakirwa
yasobanuriye
##yombyi
intonganya
ubugabo
bukore
hajemo
nifuje
maca
gifatika
##zobe
##koreya
kubakirwa
zaza
ribara
repr
##cikwe
bwaje
rwagaragaje
agahoma
kagamba
##taramira
afc
ndibuka
ikaramu
bizagabanya
babivugaho
twishimira
##issance
##ganyirizwa
bakica
kuremba
murasabwa
kayijama
##sumbuyeho
##kundanaga
asia
portugees
lanka
nkibi
kamabera
ingengabihe
continu
##masasu
toutes
##sanisha
response
kimasedoniyani
conside
kaweesi
educational
omborenga
busanane
mukanyarwaya
rukeribuga
ntamabyariro
kayijamahe
avan
ishyiraho
myemerere
nyong
odette
mupagasi
kuwo
kuvanwa
baban
barwanira
##bishi
##tamu
##roshya
abahuza
##hombye
wavugaga
amahuriro
bugari
burenze
nil
rushon
gicaniro
kangeyo
tuvuze
kwidagadura
zaka
sezira
ryasohowe
poor
taking
##gezaga
abanazi
arasa
abifashijwemo
solo
came
addition
prosta
##sigaje
impumyi
##hererekanywa
##ganyirije
##gradu
##grams
partena
amadosiye
magazineku
imbogo
umuzimu
##tegekaga
kumfasha
rukeba
semuhanuka
record
byagutunga
gishari
smg
launched
##sterol
ndushabandi
kagitumba
sezirahiga
asigaranye
emera
gb
grego
kn
nguru
sona
whe
##kk
##mpamvu
##cked
mukoro
kuzuka
bambi
yamenya
yabwiwe
##bumba
##zil
nab
nato
natural
hapfa
##jege
nizera
##keting
ruham
igifite
gashya
##zwemo
akaguru
##sanduku
##vayo
kwishyurira
imiyaga
cost
##birimo
beraho
bemeranya
twahise
atashye
batazwi
mombasa
yanyuma
sporting
guhaza
ikari
kampogo
bwira
babifata
isar
nanditse
loi
exhib
senyana
gutunganywa
##forms
tubasaba
akanaba
rusiha
kubitaho
yatangizaga
ngegera
specifi
hateguwe
mathi
480
##bakare
matene
mukamugema
ipaki
diego
nifuzaga
etage
natacha
bucyanayandi
##jyinama
kungufu
##ramibu
venezuela
ngarure
ufatika
##ping
mugema
kurongora
bagwa
bazeye
##mum
##muriwe
##rugamba
##zimpumu
##yiginya
gushyikiriza
ababonye
bihuye
nakunze
kataka
##likani
##ongano
kiva
kirazi
ruce
##zori
cyaryo
cyashyizwe
##newabo
##leta
zijn
kwihagararaho
##giyeho
antho
batabashije
babahe
babafasha
abiola
##shyushya
yaradu
policies
yabafashije
domaine
subika
geworugiya
iragire
utunze
amufata
##fatisha
##qui
twitwa
kwitaho
bateza
##gwera
voi
mubihe
kugaburira
gitaliyani
barumuna
##mpungu
ntibyaba
byemero
abanyenganda
1975
bafataga
iseti
rukabu
##cecekera
thailand
byanatumye
itotezwa
abagalatiya
rituma
buzizi
increased
oxy
ngirabakunzi
biseseme
ritco
rutinywa
ukurikiranyweho
tournament
mukarutabana
bigirumwami
##graduate
isubikwa
ngano
##djan
##andi
##ankiko
muganira
kumbuga
kumvikanisha
bahira
##kimwe
kobe
##tekano
abapfobya
imvano
nashatse
byahuje
byamenyekanye
##sangana
kwicirwa
##suraga
imishwi
ribakare
pap
papu
rwabyuma
izon
##jiju
##ganiriro
##menyeshe
ahabu
ahasanzwe
nkabi
##gendaho
amanga
babigizemo
bakigira
mbarara
murasan
umunyabanga
tuzabi
270
nyagakecuru
bwankoko
eug
busyeti
imitunganyirize
zitujuje
ndanguza
1974
yaburiwe
##kekaga
nkerabigwi
phd
busogo
followed
dallaire
bugirande
technologies
ruhinankiko
munyagasheke
unicef
mugambage
##wikipediya
kagambage
ashinga
dv
fy
ipfa
##iled
##mma
##est
##rain
muyenzi
##mazina
##wers
##daru
##kuya
abakoroni
birenge
bihora
bilometero
##gumye
naar
watangira
amaranye
##mou
kamiya
##rwama
kimara
kisilamu
gashobora
byacitse
byagaragaraga
akagaruka
zifatwa
zifashishwa
kwimenyereza
kubateza
setu
icyogajuru
rwampungu
rafa
decent
ntijyinama
posse
twaya
iriba
##lopp
barabizi
baracyari
hegel
ndakaza
somo
conclu
width
bagakwiye
hibandwa
joshua
##inyuza
ubwibone
##ngiriya
##tongana
jammeh
atariyo
francine
actions
ugakomeza
nzabi
batega
igahita
cladho
intwaza
##babajwe
##ubuyobozi
munyangango
##binja
munyakarambi
ikoraniro
##zibagirana
##shishoze
ntamahungiro
masters
create
nyiringango
matiku
frame
design
mpogazi
ryamukuru
objective
morale
##siperanto
ntabomvura
kaburame
##rutoke
forward
rukemampunzi
afatanya
fli
ipu
ibone
ikennye
kit
##42
##dp
mukore
##rement
##shwanya
bagezweho
bagenerwa
##zamenyo
yabeshye
inzitane
nagerageje
butan
##mori
##shimwa
materi
marangamutima
##kuruha
tune
kubashyigikira
##pad
bwambukiranya
##korwaho
##sher
agatu
##vuzeho
nyatanyi
babajyana
ndayita
jezi
jesus
bahaguruka
mpuzandengo
bamufata
ibazwa
nkomati
nkoronko
kubutaka
abyumva
twibuke
abemera
mwemezi
anabi
bidashobora
trust
musarani
mutuye
kabatsi
muzagira
##umwaka
cheno
hatagize
##taniya
capt
ruhumuliza
mugunga
ntawundi
##banzirizwa
professo
sekabanza
semukanya
asezera
ntakavuro
##supusupu
ismael
express
murikagurisha
ushizimpumu
kolombiya
pamela
rapid
angahe
kampirwa
kanyamugenge
nzabonariba
nsekalije
ahinga
nkorera
uok
musigiti
bajyanama
bashyiriweho
##makaza
##bukungu
koma
gukundisha
##gurana
##gungira
wamenye
wabayeho
amabya
bufatika
bugande
##sabo
rut
##mbabaje
kandagaye
kankuyo
##nah
miburo
kubabona
zaryo
bariye
bwaki
yihanganishije
rwamun
dusangiye
1950
twabaye
twabanje
##mbugu
##byari
zoon
mogadi
yangije
bitabweho
kwin
ugutwi
umwimukira
mukamisha
ubaho
kanayoge
badashoboye
badahuje
##onas
##gizayo
nyanzira
bayirimo
parmehutu
unies
kabahita
kabayita
konte
aisha
ukwishyira
muhikira
kamongi
kamondo
##hangayikisha
tuziko
##simburwa
sunzu
mboni
kabukwisi
kamatali
kongererwa
ntawumenya
mukamuyango
mugemanshuro
ishati
kabandahe
kadamari
##hanangiriza
palace
double
sauna
svg
rwamasirabo
kagurukiza
frederic
ryabonyende
rujindiri
mogadishu
ahisha
ryuba
##ngisha
##gp
##aya
##ysia
mutum
mufashe
bashakashatsi
bakubita
##buzana
##set
umurerwa
gushyingo
abakongomani
##hakwa
imito
amape
haye
hasohotse
karenzo
igisi
##dugararo
##mbariro
kandekwe
kantamati
kandeke
##kurubu
yoweli
gatsiko
zije
##menwa
imigozi
umunyana
##pable
cyber
munyari
##yakazi
rwitsi
bejeje
nyarabu
bwoba
dada
amerewe
soft
yarabyemeye
uwabandi
afri
hibazwa
ibahe
utajya
umwaku
##sengeye
acye
bikajya
emme
##nubusa
kayihunda
kayigumire
wenger
##korora
byarakozwe
karikurubu
yatambutse
##murindi
nababwira
kanyambuga
kanyarutoke
mukanyonga
##donyi
minne
kayonde
ngaha
kimizi
kamwenubusa
nyetera
mukabagire
terro
kamugire
kamugema
##carpus
yazimye
kiroha
kiromba
ryuburezi
operations
officials
idea
mhc
belize
kayitakibwa
kidedeli
rodrigue
kataramuka
style
attachment
nyirimbirima
karyabwite
shamukiga
rwitsibagura
aso
aseka
pnb
##ugh
##ore
##ove
##200
##cre
##38
##bashaka
batware
batsindiye
umuja
##kiranye
##gukora
##guranwa
##hei
##mosiyo
##kemure
rubuye
ngoman
nov
tunzi
migani
kubarinda
##lato
yeretse
twakomeje
arab
bitavuze
azagera
azatuma
ndimukaga
ibyacu
babishaka
abanyamigabane
rwidegembya
mukarange
##rimisare
gutabaza
ihurizo
##mpame
servisi
prive
montre
gisasu
inabi
##zagamo
souther
byusa
opposition
short
fdc
99uru
agirana
gutozwa
##hamagaza
governance
phiona
##kumirwa
rugerimisare
rutiyomba
##kwitabwaho
kitaragera
abafilipi
mukwende
bahamagawe
nyirakigeri
alphons
mukanyangezi
ugandan
plaisir
acika
kbc
thani
ugirimfura
muhanuzi
musheshe
##way
bafatanye
umuba
umudamu
umuberwa
ingombajwi
ababyinnyi
abavoka
bimara
##guseswa
imwi
wahisemo
##vugiwe
uburengenzira
hagaragaramo
##yandekwe
##sas
mabya
##hisho
ukorana
mirimba
##yamamari
sebuto
session
sekinan
dushimi
agaruke
barahungiye
simburu
##zabaho
abishoboye
wiz
dogiteri
kumuca
nyirinde
ndibaza
bamubaza
utamu
bizatanga
amujyana
turateganya
impuzandengo
mukarage
##issa
atwi
baterankunga
##umurenge
nyirahuku
##cyavu
iyitsinda
ntiyaba
bakuriye
##lski
##donyori
nyamutezi
seruvumba
serudonyori
nyakarashi
ikiriyo
porote
rwamulinda
postgraduate
ringuyeneza
ryumugabe
rwakayiru
sebunu
blood
##ddam
igicucu
refugee
beyonc
uramukiwe
urugimbu
umutangampundu
portuguesa
equatorial
senteteri
unyuzimfura
gasutamo
elizabeth
moscow
samishimwe
bahirayini
simburudari
550
om
ssen
tt
##nganire
##b5
##9c
##rabe
musani
bakurikiranwe
##maso
##kamoso
yamwe
yakize
##das
##horeye
##gumugabo
ubushuti
##yanzobe
nimba
##sations
kavuga
##shibishi
rumiya
rugumire
rufuku
##tolika
##hisar
byawo
##itira
##yamadari
yishakira
yirengagije
sedogo
secyavu
##shes
##nifer
nyampame
simbiya
wiyemeje
kumuhamagara
##rangiriza
uzaza
turabu
##kenyin
fea
butatu
##chers
sengoro
sendinga
senguge
senyombyi
senyanzobe
senyamadari
rutagiraga
##gwene
##cyeza
true
nziraguseswa
amne
dance
nyagasaza
nigeriya
mudathi
utishoboye
ruribikiye
akemera
abasilamu
##hwehwe
rizajya
nyamubi
gatesi
rwagatare
registered
serundari
serukenyin
rutegera
ndangamyambi
yibarutse
humanita
##banjirijwe
reason
sebatigita
rubangisa
semahe
semavenge
semajege
sendagari
sendarasi
ntabahwana
sefuku
garleon
responsible
reported
sentashya
sekida
senyamibwa
senyabuzana
muzogeye
habanabakize
capsule
ntibyadukundira
mujijima
setukuru
rwamuningi
mutumwinka
sekinanka
sebununguri
simbiyara
serukenyinkware
lumu
mbazi
nitwe
mulen
bakurikiranweho
##yoff
##gika
##turuye
##kubona
##teko
guhamwa
abasora
bibona
naru
waku
##wizi
uburiri
amasya
##huzwa
buranga
ariruka
##keza
rucinya
##ganono
##miliza
##tocarpus
##mbaho
mihogo
kwisu
mundere
rwalinda
rwamurindi
banking
##manywa
gusabwa
bakadu
virg
arasobanura
compo
nkamu
cat
##gururwa
uwahawe
yabasha
dori
bahasanze
##gamihigo
light
rome
rugoboka
artocarpus
##mwambura
rwirungu
##rangaga
rubagenga
kureshya
rutagayi
ntushobora
pius
bunani
##tangwaga
imyigire
##zungura
ukwirinda
rudacogora
##nantwali
usm
ruhamiliza
imyunyu
ndabamba
##tekerezaho
paragraph
nyakazungu
ruterandon
rutegamihigo
##lonye
normal
##rwicyugu
rutirwicyugu
rugiramasasu
rukimirana
rukikamoso
ruvunantwali
nyiramugwera
rwubahuka
rugigana
rushemeza
rwajekuruha
mfuruta
rufali
rufagari
depuis
cholesterol
aviv
kubatarize
ndengejeho
ndongo
didace
rubashamuheto
atalantika
rwakigarama
rushingabigwi
rinigumugabo
mushonganono
rwanyagasore
cotonou
rumanyinka
ndikumwenayo
ribarabaje
rushonda
ruhamyandekwe
rucekeri
murasandonyi
nyirindekwe
rutagiragahu
rutagayisasa
ruterandongozi
agurisha
este
tc
mukanye
##watt
##yebinja
yareze
##getswe
##ruje
##gozabahizi
##kidiyo
##tuje
injangwe
nahuye
ubukere
bugarijwe
hahurira
hakurikiraho
kaduha
rugufi
mavuga
ikiga
rwandaise
gakuru
##sandaye
migezo
kubakurikirana
##payi
duhe
nyari
##jiza
isilamu
divor
##shanseko
wirinde
bagakorera
##mberezi
jojo
gov
bibarirwa
133
inkorano
murambo
uravuga
cet
##kanyagwe
rutagungira
ntukanyagwe
ukwayo
atete
rdrc
mutagisha
99imyaka
##ssey
ibizami
byaratumye
karisimbi
munyanyebinja
kuhakorera
byamuhaye
capita
##tunganywa
munyeyinga
produce
##biteye
study
mugabuke
floor
nkeramihigo
##ceni
##subukura
mukamusana
nyiransabimana
bazwiho
##fils
laboratoire
mpitabakana
iyubakwa
ntukamazina
muhongerere
muhongeshanseko
mutabagisha
alignnone
nyirakigwene
problem
mutumwambazi
ndimurwango
mafene
nshogozabahizi
mulindabigwi
mutambarungu
kubumbatira
musomakweli
gatarayiha
netanyahu
murutamanga
mucumangendo
mugemahica
munyarigoga
musheshembugu
musaniwabo
mulenzi
mukanyemazi
mavugabandi
mugabukenga
asha
arangwa
ment
##uku
##ycan
##hwanda
mubana
kurushanwa
bashinga
bagenewe
##kumbuzi
gusore
abakecuru
##hajwe
wasimbuye
##vukiro
amafuti
happy
niyoni
##wor
ibimasa
mahano
gakurikira
byagufasha
ntashamaje
zabayeho
rije
##ryoha
bariri
dushingiye
dusengimana
rwiteguye
radu
rapha
##ranational
twabaga
##byibuka
batayo
bakagu
##yonkara
babajije
aracyari
rwera
ndakorerwa
ndashima
batumiwe
afyonkara
until
aremereye
##munanira
abitangaza
ihagarariwe
nyamacumu
nyamadigi
kwitabaza
abega
iyakure
nteturuye
lodge
nyirabundi
nyirawera
nyirahwehwe
nyirahwanda
nyanebyiri
ntibihangana
itigeze
nyagahakwa
mubihugu
##coming
nyiriminega
ruzagiriza
nyamucen
ndabakenga
nicyolibera
hategurwa
nyakabwa
nkundabakize
kubyimba
ntituzi
rbaycan
rusatira
drogba
ubuhunzi
nyirankomo
nyirantamati
muhoozi
ntamavukiro
background
nyiramashashi
respectively
nyiramugwaha
ntibenda
ntagugura
nyagisaza
ncamihigo
giswayili
ndateba
ntandayera
nyirimiringa
nzarubara
ngurumbe
anthony
ndayitabi
ngomanzungu
ndabambalire
nyaritwa
nyirabundibundi
nyirahwandari
nyamucenshera
nyiramugwahashashe
igurisha
nsigaye
utegerejwe
##ui
##ose
##echt
batangire
##inzu
##buha
##buti
##yibo
gushushanya
##motiva
##miseri
kangana
icun
miro
kwikiza
kubarurwa
yeze
dusingize
agataha
##zwaho
##pur
batabwa
afungura
##banure
kumuta
##harire
kubigira
nkubu
yakorerwaga
babifashijwemo
isatira
isaie
jazeera
abanyamwuga
once
162
kuyifasha
lot
batowe
##kanishije
mutuzo
zibafasha
nduwa
##sanase
isiraheli
ruhama
nzoka
03h
vuga
comedy
ntibyumvikana
effective
fabiola
journal
##vunitse
##pfundikiye
igiswahiri
portuguese
immacul
abademokarate
suzuma
evangeli
difficul
prostate
southern
akorerwa
bone
ukize
##zr
##7f
mukomeza
##rec
basho
batange
##gejwe
##tuna
kou
abakomeretse
bugwate
hahaha
##randi
kanani
gacu
uruda
akazaba
##shukana
yeruye
##rengere
simp
sisite
arabizi
arashinjwa
nkayo
##fatanwa
nyigo
buruta
biraro
judi
##karaza
igafata
atumva
##garuye
##cyeye
ntibibuza
irema
ireshya
imuhira
maradiyo
rirashe
99abantu
ninayo
zubatswe
gisivili
yarabikoze
##byibushye
gusohoza
recogni
ikirombe
abaporoso
bihoyiki
inyemezabwishyu
regard
madagasikari
greater
johannesburg
alphonsine
alas
akomereza
ona
##nyura
##zitabirwa
##7e
##yahura
bayite
##metse
abahabwa
##hatira
wakurikiyeho
##bembe
##sarura
kalinda
kigufi
##dur
##zos
##leya
zibujijwe
kubakiza
tap
##jimye
hands
yandu
arahaguruka
rwezamenyo
diff
socio
sosiyeti
wiyise
bazagenda
forbes
umutego
birambo
roger
utuwe
isambaza
jaco
##ndomu
franci
##usta
##kemurampaka
kubyuka
##hohoteye
gushakirwa
yubahirizwa
malaysia
captain
001
yarezwe
aheza
imvubu
ritari
nyabikenke
avugira
99abanyarwanda
florence
abatize
statement
osetiya
elisee
border
abajenosideri
##ladeshi
##suwede
##shamikiyeho
mubaraka
sophia
geht
amnesty
afyonkarahisar
gv
gel
hilla
tvet
uhuye
uae
mupadiri
##reri
##ziyani
umuko
##rota
nasaba
wambara
##heze
##yunze
##ben
bushi
hamu
nizindi
kiyahudi
rugenda
##mbare
cyanya
##hishira
noel
byasabaga
##neka
kwiyoroshya
##virus
bwamaze
pain
rwin
bakagombye
hane
##shyuha
##amafaranga
programs
izabi
izatu
##vanny
127
mwirinde
bwiyongera
bwizewe
rwango
yatekereje
##ronto
luiz
chic
##ubuzima
abubaka
##tence
bimukira
byumwihariko
bakomo
abasirwa
abatekereza
cnrd
##byinire
yaguyemo
guhorana
akagambane
umuririmbyikazi
makada
inzika
grenade
tumwizere
##njisha
ifunguye
imenyekanisha
mbaye
tpi
ugb
##phie
muwa
bayama
bakennye
##bos
##tas
##kuki
inkazi
abakiranutsi
wazanye
haso
##rankuru
karangirwa
kigenga
machar
mamelo
gikoreshwa
uruzitiro
zion
##surwa
##sunika
##zuze
colu
relation
yiyi
pack
ryavuze
saddam
siyoni
2023
dili
soci
carine
convi
advo
##hindurira
kinyobwa
nyirubu
kubirukana
##quet
ubwizigame
##sohokanye
uguca
kuzakora
banaba
fossey
cyimbo
cum
missrwanda
bakemeza
kuruhu
ihumanya
kabalisa
konta
bakurura
##hanie
waraye
buzagenda
tutagira
ndabashimiye
ubuturo
louren
##ctif
kenda
myanda
##saloni
course
bagaragayeho
assemb
umutangabuhamya
umupfakazi
nyakibanda
federasiyo
identifi
presidential
asabye
abuze
csk
sfa
sent
##fon
##cit
##xa
##zabibu
##girizwa
##bumbe
umudali
biruka
washyizwe
ubuyisilamu
amaterasi
habo
ibivugaho
kibirizi
maitre
ikila
ikigurishwa
tub
wemeza
kwimurwa
kwisubiraho
##shuko
##mbukira
ukubona
##kurikize
hoe
uwatsinze
afghan
imbaru
icyasha
##ngiriza
babigisha
##rekayitesi
ubasha
sengabo
##ssim
##genzure
sinshaka
musambira
kibaho
##uburyo
cannot
bonfils
yatangazaga
maradona
icyenewabo
uyirwaye
##kerejwe
abadamu
ndangamuco
##ctures
bikamuviramo
blog
ictr
astana
contract
##rungano
conservation
ombolenga
kayitakirekayitesi
##tenguha
chameleone
lumumba
akira
aciye
apart
osita
trea
ubana
##ple
##vri
mugo
kugenzurwa
bashyitsi
yayoborwaga
##buda
ababwiriza
abaganiriye
ubuto
amazon
hadi
##yantege
ibisindisha
ruherereyemo
##toriya
cyashyize
cyagaragaye
peri
giherutse
ryateguwe
ntihara
baratangiye
abiyita
text
bagata
##sezeraho
batura
##rton
icyabaye
icyatuma
huti
tim
kuburanira
jakar
##rukije
mbabwire
kuremera
seribiya
udashaka
kuyakoresha
##hanije
mwumvise
mpaga
marara
aware
ndora
butumire
avoir
ndya
##shegeshwe
learn
swimming
licit
mbonyumu
twagirimana
expected
domestic
july
mulindwa
jakarta
ashishikariza
jin
ubo
##raco
##regwa
yatse
yaman
##zeri
##zerana
nakundaga
wagera
ubukombe
ubupfumu
##heye
bungu
##saray
karande
rushingiye
gike
##hirize
##gwabira
cyahaye
rigera
rigenda
seed
race
ntirwa
ukuda
##kurikire
##ragaho
cara
wie
jennifer
##kwezi
join
bitumvikana
##gendekera
abanyakenya
feza
bikabafasha
ntibagire
bikagenda
##subizaga
chau
ibyiyumviro
yabigenje
##ingala
playoff
hazakurikiraho
kabale
kabarondo
yanabaye
konsa
finland
gusubirana
usesuye
lycee
baryamana
##mazimpaka
impimbano
gouvernement
providing
smith
kenneth
parliament
bing
fbi
flu
nshimiye
##lya
kurenganurwa
##waga
##wamu
##yahuye
##sero
##hejuru
amakari
ibiha
##kesheje
rukomeza
##hangira
ikize
##sangani
kwigirira
kwigaragambya
como
##beramo
sadi
rachel
deter
##poto
igitera
abicwa
dipl
##zamubano
yararangiye
byiswe
bagashyiraho
106
bahasiga
##yubahirije
166
lost
badahembwa
##inoza
organ
zitaba
unique
kuyatanga
baburana
##jandika
yasezeranyije
georgia
bangaladeshi
ndangamuntu
freedom
ibirahure
havugwamo
ralc
maize
argentina
finished
results
gusesagura
conserva
kuyandura
classic
ankete
ht
mbunda
rh
##48
##cchia
bashoferi
##gikora
##zigama
gukuba
income
bihi
##hagira
wagenze
wakoreraga
igica
igisenge
##itari
gati
byatwaye
##sanganye
cyahise
kwibwira
kwihuza
bwakoze
yivuye
munzira
rwashyizeho
dufasha
ryatewe
rable
pool
ukura
barakira
nucle
akabakaba
abiba
mesiya
miliyali
bazagera
##rekere
gutezwa
izamba
##rushaga
areka
iracyari
arj
nanga
##fungurira
210
yamufashije
yamuritse
ziribwa
yanasabye
abazajya
denyse
ubudahemuka
yagumye
ntitura
inyajwi
##kanguka
drone
diyabeti
kurota
##itsindire
batamuliza
rayvanny
kwibumbira
nyamyumba
philosophy
survey
een
ngize
utwe
##glo
##ssen
##rekanwa
bamenyekanye
bajura
##bozi
umusonga
umusozo
gusta
abab
abayapani
##tica
kagira
##kine
##mbari
akab
zikomeza
zihutirwa
rikumira
##paritse
yemererwa
bwazamutse
cyinshi
yibwira
##jiki
signed
akababwira
bakaru
##shyurirwa
itabwa
azaha
suspe
burukina
bizaza
bigahabwa
arme
301
##canye
uduhe
##hagati
##harara
zitazi
eastern
birukanwa
##teganyije
bagirishya
##zunguza
kugaragaramo
twumve
banyafurika
utarigeze
tangawizi
gukabya
##gitire
increasing
buhebuje
gusubukurwa
dort
malesiya
nukuvuga
example
soraya
##leaks
engagement
imwakire
lyon
##rl
##zq
mukwi
kuye
bagendera
bafatanwe
##murika
guter
bizongera
amabandi
burere
havu
##yandura
##mbayeho
kangondo
##kururwa
##kanu
kurindwa
ntagwabira
##komezanya
##surutsa
imigen
bomb
peut
pato
rwasabye
toronto
ntimuga
##inezeza
twabona
daddy
simbizi
kumusubiza
##garagaraho
##fund
babishoboye
humvikanye
isazi
turabona
abanyacyubahiro
banavuga
focu
bahuriraho
baziga
abewe
ext
kizafasha
##seridoti
nyarushishi
yanagarutse
buraya
##sozaga
bamwo
bitwaza
rudafite
hataba
busambanyi
380
pand
supranational
braza
economi
ibitunguru
##lovaki
approach
prisci
physical
izuru
mutsindashyaka
imbarutso
dortmund
oil
pit
##c3
##waye
##yabona
bali
bami
bave
##muwe
##gerana
bizima
wafashije
wafatiwe
ubukorikori
bubu
hame
nira
nile
byakoro
akadu
rebe
rwashyize
ryabyo
salle
deogra
poten
##twarira
twabasha
batabaza
kwacu
abigenza
##ragaruka
##uelle
conak
yabazwaga
bamusabye
arebye
##tinga
bigarukwaho
mwendo
ntugire
kitagira
despite
##nubwo
bakubwira
##hanisha
karaba
hataza
ntibyabujije
1971
ivanze
##shyikirana
##giranaga
terms
indorerezi
autorit
##sanyijwe
slowakia
slowakei
##gabanyirizwa
yongerewe
jamaica
hakuziyaremye
electroni
wikileaks
eslov
hcr
pf
yue
##91
mui
##rekano
##geranya
guki
gukoma
abagituye
imbera
amatunda
ibizwi
rusobe
zifitanye
nelly
begeranye
damm
siri
itarenze
uwatsindiye
yumu
cyuridu
twibutse
impuzan
ukazaba
##umujyi
##garurire
ntugomba
yabibukije
placi
shekeli
##komokaga
mutari
##sesekaye
##hanishijwe
aguma
elsa
##rijwemo
developing
##rmct
ikoreramo
##kwangiza
ninjye
1948
users
norve
urungano
officers
kwiyegereza
##itsindira
deputy
##gilikani
munyabagisha
corporation
##dekayi
fronti
supermarket
miami
introdu
mudathiru
miropla
edi
iyari
ihindura
mfura
nz
ndana
sonia
uhembwa
usanase
##ryane
##yl
kujijisha
##rudu
umupilote
koffi
abatera
abayoboye
bihombo
##hemukira
buva
hahandi
mau
##gannye
gikeneye
igisibo
cyatewe
tugerageza
##komerekeje
##bwimana
##pards
cyril
abaturukiya
duta
dutatu
##fie
baramwi
##byakira
ahabona
##unds
##mbeye
guterura
107
bahagarika
unyuze
banafite
##sengere
atitaye
impinduramatwara
ityo
bunyage
requirements
ibitara
utegura
utwu
##hamagawe
icyitwa
gatemberezi
##komorerwa
mituelle
ingemwe
healthy
##shongore
##mwitaho
kenny
ngororamuco
670
tugezemo
bakazirikana
tugifite
##siramuza
sogokuruza
buligariya
martinez
chinese
professor
##kidiyosezi
conakry
aven
ishimangira
scha
tmc
utyo
ukeka
##6a
##6b
##dl
##kotanyi
bahindu
bashimiye
bashyiramo
##zig
##zisiyo
umuhinde
nakoraga
wagombye
##vumbaga
bugere
masoro
##sogo
##hihi
noti
byasobanuwe
zikunda
yisanze
dusuzume
bandu
samo
hel
tek
##zamungu
yaratanze
azagaruka
batuje
hizihi
imbabare
##zegovina
##gizimana
uzakomeza
ukageza
inzugi
##ndoni
##ramuko
external
##umutoza
##nduka
yabisobanuye
##rwane
bakekwa
##llars
##ongeraho
abunganizi
bagiriye
inau
buzatuma
360
arumeniya
steve
bursa
nyabagendwa
kirometero
bacteri
ubuhake
bikorimana
byubatswe
prison
thought
universal
manufa
libyen
islamic
##twitaba
ekwatoriya
##tanzania
##yujijeho
inkoramutima
ntibyemewe
irye
pue
ureke
##fra
##sone
##9e
yava
yahinduwe
##bugabo
koso
gukwira
abakoraga
abacururiza
birana
bisanga
naa
ubugira
nikuze
kigu
mago
mazima
mass
##toje
urubura
kwimika
##suhuko
boris
rimeze
bariku
annu
bwahise
yisobanura
agashinyaguro
ntibana
wol
##mburira
barataka
##kwakira
##mbeje
ahungira
kumurongo
hiro
##ryitabira
##kiyeho
biratangaje
bakabaha
amani
hunger
bweruye
inzuzi
ingutu
yamufatiye
idakwiye
busine
abayisenga
ababibonye
soutien
portughe
kivumu
1976
bapfiriye
scott
igiterane
gahigi
##bben
swift
##binet
fidh
abaporotesitanti
portugisis
bazatoha
strengthen
kalimantan
sdgs
tewolo
laptop
##ryabarezi
hillary
dinah
emba
ehir
izamara
jonas
nsanzwe
zitwaye
##fti
##41
mukandida
bakurikiza
umufu
##turiye
##kuwa
abatinganyi
##dive
warangiza
##tiki
##heka
##shakirwa
kaku
karengane
ibisonga
##kekwe
rukeneye
##tojwe
##nama
nobel
byajya
tugere
weak
ndemeza
nepo
gusaka
##aling
yabagamo
ikazaba
ugukoresha
twifuje
kuyigenzura
loti
musemburo
##rizwaga
yamubajije
gutumira
##twikira
kuzibona
magayane
##abayobozi
##kinisiye
amina
lungu
yashyizemo
kinyaholande
hakizamungu
batangarije
genera
ahenze
##rabahizi
chub
##shimutwa
6000
gitanda
##shenja
mauritius
author
experienced
nyiramasuhuko
paula
##shyinguyemo
umusomyi
kinyendoni
mediterane
kinyendonisiya
nit
pc
##tv
##bm
##rimwe
##rayon
bakuramo
basohotse
##intara
yashinje
##ziho
inkomere
abahitanwa
bibanda
##sizwe
nasabaga
watangijwe
wahuzaga
ubuko
##jenje
kabili
ibilo
kikana
gacye
gacurabwenge
zikorerwa
##vashi
##vard
miba
##cur
yihisha
##garagaweho
ram
##losayi
davis
barahari
batambaye
jere
sudi
##inyuze
nkoko
##inuka
isaro
18h00
abarizwamo
##ller
essa
##rwanywa
kitaza
##rabuze
ateza
implement
##shishikaje
ryimbitse
gucumbi
josephine
yubaha
gusimbuza
eduard
##ranywamo
seeds
kitarambiranye
kwizigama
beatrice
palawu
fulgence
muzehe
radiant
##pubulikani
femnet
mckinstry
divorce
ars
ishaje
oman
oral
orien
urenze
##tya
##bro
##c8
##c5
##cina
bahan
batinze
yaci
##rushije
##tama
inyange
bizo
bihoraho
ubutare
ubudozi
amaramuko
##hus
buhenze
kabyiniro
mathe
igihimba
##tou
byakwi
ziherereye
kubahana
banenze
beri
bezos
##ues
yarahindutse
rwohereza
afin
faki
dogere
##mbereye
bitanze
124
uturi
utuje
utunda
atariko
twirinde
##blik
zea
genzura
yabayemo
##subirayo
##asel
##hutishwa
abababaye
izabayo
souvera
usigara
permis
buzafasha
kubohoza
kutubwira
##bitewe
touch
matembabuzi
niyigena
##gongana
personnes
exchange
bahuriraga
muhawenayo
contribution
kwinjizwa
developed
sinumva
nibintije
tewolojiya
lmo
py
uboneka
##aki
##anura
kuhi
kuyita
bambuwe
yahariwe
umushi
##mega
abava
bihungabanya
amapine
##bananira
buyi
bureau
kamer
gikubiyemo
##hand
akareka
ntabone
kwihana
borozi
rwateye
ryagize
##mande
barafashwe
##byakiriye
nkaza
##ngeraho
jenocide
##gereze
bakababa
bigafasha
kuzaza
tant
cyifuzo
kuyibona
##umugabo
gituwe
kutazongera
##korowasi
yatumiye
bifitemo
haram
karasha
gusigara
##hembwaga
claudette
bahoraga
yatoranyijwe
yakwibaza
1958
barabihakana
umuheto
bicwaga
hagumin
sebukwe
bihuru
agasaro
bwubatsi
mgr
marocains
athle
fulani
bigizwemo
igorofa
##leiman
igisebo
oecd
icungamutungo
ensemble
mauritania
fdu
gitwa
ono
treat
uhiga
##uit
##jf
##jja
mubwire
##batswe
yarwanye
##getse
umudi
##tungura
abafilozofe
bibare
nabu
wab
wabyaye
ubucakara
##berana
bukristu
##rangura
rutongo
rugabano
matara
math
massage
gishaka
tubyi
weasel
imidugararo
zagaragaje
ahorana
barifuza
anta
munzu
##mbourg
topi
##ils
##shimishe
arawu
meh
##zamugambi
yarakomeje
##bonere
kumubera
birakekwa
18h
isubu
bakishyura
mbarankuru
iyabo
idakora
##soroma
##minisiteri
##kubitaga
irushwa
theos
umusimbura
daniella
yahunze
bahembwe
ryanyu
gukingirwa
abdullah
##clet
kirombe
##mentaire
rugando
abasovi
mvururu
simonkamu
assistance
kwegeranya
guhamagarwa
ballon
mupenzi
abafundi
kigeme
coffee
framework
brazaville
norvege
simonkamuzinzi
irmct
lituwaniya
pte
slu
ufungiye
##ming
##pfana
##rizwe
##rier
bavoma
yarwaye
yakomeretse
yagaragarije
##giriki
##gesera
umugabekazi
##tutsi
gushimirwa
gutwarwa
##dic
##haka
##hazi
wahamagara
ubumara
##bendera
bumuga
buboneye
hakana
havamo
##rantoki
kagiye
##kins
akaku
ntamuntu
kandiho
kwigurira
kwihesha
imigemo
zakomeje
##latera
lestin
neigh
ryatanzwe
ndamubwira
fagitire
##rengagizwa
bizava
huis
umwizera
turaza
inyunganiramirire
cyilima
##kubaho
bidakira
bidasobanutse
impinja
santos
nguni
works
ntiyabasha
lutte
kinyakorowasi
##hanurwa
aguha
##eux
kumwita
##yahuzi
yasinyanye
##ffet
phil
uwamaliya
diyarba
##gabanyijemo
beyonce
mvuyekure
karemano
friday
derek
deutsch
speaking
ntiyabusubiza
niveau
mamelodi
kamerhe
neighbo
atin
abyaye
nkoresha
##nana
museke
##kole
bageza
yashishikarije
##gezwe
##bivuga
umudage
umukungugu
ing
abasanga
bishaka
biguru
biyaga
bidindiza
biganirwaho
amagereza
amahimbano
##bande
nic
nishimira
ruhanga
rukoresha
masha
majo
noheri
akamwi
cyagenze
tunguru
yiriwe
yiboneye
##niko
rad
agaka
twashoboye
##zamuwe
doha
inten
alyn
bigateza
##pfapfa
##mwiza
bikazaba
bateje
##vos
congola
cells
bivugwako
zitateguwe
##kurikiranywe
manase
nyinawi
channels
bimuha
kuborohereza
mituweri
minembwe
gisele
aksaray
urwagwa
poromosiyo
gukatirwa
yeretswe
initiatives
employe
##hanangirije
kilome
kugezwaho
##bityo
impfubyi
##susurutsa
amafarashi
drug
negative
mbitezimana
raphael
igicamunsi
miroplast
ekwatoriyale
tungurusumu
blia
pfi
uci
##2e
##yindi
##scu
mufana
mumotari
##bahirizwa
abariza
immi
wagu
##wide
buyobowe
hareba
##liho
##shire
ibibu
mak
cyambere
ziku
rivugwa
yemen
##tegekwa
near
sak
ntiyita
twaki
twajya
twashakaga
##rizaho
atarimo
##ganirijwe
bakara
aratu
##subiyemo
byica
bazadu
enjo
##itekereze
stay
irashaka
irashize
babivuze
##hererejwe
atraco
##kwirakwiye
##gorofa
expan
##hagararo
nyirabari
ibumba
ntuba
gitumo
ntiyabashije
scre
##bangamirwa
warakoze
buzakomeza
bikemuke
karoti
carry
bahorana
produits
thus
burna
norbert
julian
ibibatunga
populari
turacyafite
carolina
millia
impozamarira
selection
imigendekere
ibwiriza
conomique
emmerson
guterres
atsindwa
bent
bless
nyoni
rence
##doni
##100
muhigo
##shito
kurazi
bahin
bazamuka
##gekere
##rumva
kor
kowe
gusangiza
bihagarara
imine
wakoresha
ubupfura
ubutinganyi
ubunebwe
buye
bufata
nibu
mafa
ibyana
##hantu
##shingwe
byita
##shumbu
##parika
yiye
ryatangira
##itunganya
##mburana
tet
cathe
uwashaka
##sobanuraga
propa
irakarama
goals
##soreje
kugikurikirana
humvikana
arch
auba
rwiyemeje
mukamira
bwemeza
##quie
inkomo
##cyahari
bakire
kuyiga
anaclet
##ssive
kongeraho
shqi
kiravuga
munyantore
mpamo
##kemuke
yicara
offici
sofija
##dinand
buvumo
mwobo
delivery
environmental
saudi
##tnael
coast
moridekayi
applications
tamim
confederations
ubukererwe
jacob
deogratias
bpr
ident
ster
##03
kumbaza
barwara
##mashini
yakoresha
##bihugu
##daya
##kuzo
guhindurwa
impera
najya
natnael
##beat
igisupusupu
##durasi
gambiya
akabanza
cyazo
tuzongera
turushaho
##leo
zisanga
##shingiro
middle
kubasura
##hind
##ngure
##indirimbo
##ganiriweho
baraki
teddy
##panze
bazajye
lij
forme
121
amananiza
abso
abyumvise
mukabi
kiribwa
##star
tuzagira
##congo
yandikira
murukundo
hondurasi
renfor
akita
tunisiya
1957
promoting
banyuzwe
yamaraga
baryamye
ferdinand
##shegeshe
yahamagariye
shanita
tombora
leopards
amabyiruka
guhitwa
agahomamunwa
francisco
potential
uturirimbo
gitangaje
zino
##yagize
yagenwe
##rufu
##turi
##meli
guilla
inana
abaguye
bigaraga
##bemerera
hawe
##ranyama
gikungahaye
igipangu
ikigaragaza
ikizwi
##gennye
cyago
zigana
mishyikirano
##pez
seti
rwagiye
##lou
ahaguruka
##zabayo
abibwira
memb
##sigasira
witwaje
umwicanyi
amushinja
176
##quis
inkovu
akizanye
nyirasenge
umunyagitugu
ryerekana
lusaka
imufasha
kinyabu
asigara
nimuze
nimureke
gusiramurwa
majonjora
ruhumuriza
bakinaga
umugiraneza
growing
stories
##logical
mouvement
hitiyaremye
failed
erasme
months
cyamatare
koloneli
exhibition
ositaraliya
nyirabaritonda
brand
svi
shari
ubonetse
##f5
##gza
##lituwaniya
##7a
##7b
mubuga
mudepite
##bariye
##bagezaho
yayobowe
yafashijwe
yafunguwe
umukin
##terineri
abahesha
bishoboye
##vuganira
##life
ibigize
kip
maba
##ency
ikirayi
##kurusha
uruzindu
akaki
##sanira
kwibwa
##komero
ribuza
##shoboke
##mbogamizi
##beraho
rwambariro
tool
agakira
agashyira
ntibin
twabuze
atabanje
barapfuye
sili
yaraha
adwaye
azaku
lift
ibyabereye
utabona
utagomba
nkomoko
mwihariko
bitume
bakizi
##ghting
yatekereza
karega
##babariye
eap
bagezeyo
nduba
price
##vuguruzanya
2507
##eft
bihaha
ivumbi
tudafite
abakolosayi
managed
abagiraneza
yakiraga
abadiven
assess
nzabandora
gucicikana
etudes
tubanambazi
ibirungo
strategic
exclusive
mbonyintege
dusingizemungu
afa
chora
##ient
##ology
##4e
mushumba
kugenza
umukiza
gucururiza
inv
abamahoro
bivamo
##sius
##beri
buherutse
niya
mavi
##mikurire
cyabyo
ziko
yereke
nemeye
byonge
dufate
simoni
ahagarika
batashatse
bababajwe
##kiriti
bagafatwa
guteganya
imbatu
ensu
enou
icyambere
birahari
##sanzemo
roa
izifite
##ened
182
ataribyo
ubashe
esse
chlo
bajyayo
pretoria
##shyingurwe
ampa
budasobanutse
akumiro
##sohokaga
yatumiwe
##resitora
honyine
riravuga
ndababaye
ndabashimira
##kongoka
princess
hagiyeho
partici
8000
adusubiza
samsun
gitangiye
frvb
kalisiyumu
ilibagiza
khali
insina
nzahuratorero
decisions
kugwingira
##hwihwi
labour
vladi
incamake
santarafurika
dodoma
russia
gihirahiro
hakizabera
afghanistan
pfizer
enough
agena
avamo
gitangazamakuru
hani
mbuye
usenya
winjira
##bitsinze
##stal
##pton
muhora
##back
kuzan
bahangana
yafatanwe
umuyoboke
inkura
biyo
bishimisha
wakira
wakundaga
wakomotse
amahema
##beli
ibiguruka
kids
rutangaza
mavugurura
cyasandaye
kwiyita
reque
ananiwe
dushyira
##lom
baratsinze
bakagi
babazwa
hanini
abizera
cabinet
byibazwa
wiase
guhagurukira
joined
bikorwaremezo
irahari
rom
kesir
ontari
##bereyeho
foun
nanubu
kuyikorera
guturika
kitabi
##gwende
##jwiri
##tandukanywa
tukamenya
uteza
batangajwe
ndayizeye
berg
akanda
ukurikirana
yatoye
fonda
##sitari
donatien
##yitiriye
girl
1938
agasakoshi
hamza
##prises
##sansikiriti
turusheho
kansiime
firear
holdings
subscribe
evangelical
popularity
aubame
ontario
acide
aduha
g20
pdc
##cte
##qa
##rikane
##rata
mugende
mugenga
kumira
kucyi
kugenera
batwe
bashimye
##gogi
##zenze
kogera
##tejwe
ingore
abatangiye
abashoboye
biganye
nahawe
wasigaye
ubuganga
##yuki
amazing
buhuje
##yangiza
##mor
kazungu
ibiruhuko
##kanzu
byata
urugereko
ntare
##rikirwa
##lak
rey
##vere
##shereza
ntirenganya
android
bakagaruka
babasaba
yanzuye
kumuba
biraha
bizaku
turazi
autono
twihaye
nandi
index
interpol
tubaha
kuzikoresha
kubitekerezaho
gushakwa
bimuviramo
itegekonshinga
choir
harris
rtda
crimes
iguhugu
##higwaga
accord
career
##renganure
hamdun
kigihari
tayiwani
kandti
soulign
agenerwa
igenga
mrs
##blan
##pline
##game
##kositi
bavuza
yatinze
yamamaza
##gesha
inshinga
bigenewe
bigufasha
nasho
nabwira
wazamutse
wagiriwe
hakubiyemo
karamuka
rukiri
abane
igikumwe
##dutera
ntaganzwa
ziru
zigendanwa
miyoboro
zagaragajwe
cop
rwarutabura
duhirwe
ryasohotse
twaru
batakaza
hou
babafashe
araje
abiciwe
abidjan
##just
##gendamo
bahamagaye
izagira
1200
rol
##swagen
hub
zemeza
kuyishyura
##voor
extra
##usse
gutambutsa
##garukiye
ibyiyumvo
impongano
shene
ryerekanye
ihuriye
eala
aruta
umunyemari
##tungurwa
mitis
shift
butembo
collective
ibihuru
infan
subje
yagiriwe
##yoberwa
gukebwa
repeburika
gikirisitu
ihererekanyabubasha
##ranishirizwa
penekositi
pasitoro
##denafil
luxembourg
diyarbak
ajo
asoje
akurikiranwe
eusta
ihangana
kl
oko
umbabarire
##gini
##zinu
##6e
##9b
##rich
bafashijwe
##kajwe
##tume
biye
bikindi
washaka
amage
buboneka
##dema
##deau
kagera
kireba
kiruta
##kereye
rutegeka
##totezwa
byafatiwe
##sanwa
zirwanya
imisigiti
kubatizwa
byinjiza
lewi
yicuza
dukuze
ryashingiwe
banganya
##hindo
sahel
behind
ntibo
##comes
##ania
victi
diq
##sinywe
ahurira
bazahita
##hindurize
yabaho
guhahira
izakoresha
yungutse
lis
hif
##chten
##sigajwe
witwara
##rangirana
hubert
##fatirwamo
kungana
twiteze
bikaze
udufaranga
ibyihebe
ryizihiza
elc
rizatangira
##rondogoro
twabahaye
ikuzwe
akabivuga
baherekeje
scored
adult
kuyitsinda
shusho
ecobank
rugandura
trois
ubushotoranyi
derni
provincial
yagonze
##pasitoro
enable
immacu
kamanayo
kwanduzanya
##ebah
declaration
##capwe
opozisiyo
tropicale
nyinawisugi
gn
itangizwa
zito
##cz
##js
##jyo
mumba
bafunga
##tations
kone
gukan
gushyi
gushinjwa
abake
abayitabiriye
bisirayeli
bigaragambya
##gukanwa
imyotsi
wamwa
bukware
havuyemo
akahe
ntaku
kwizerwa
bwaza
bwambere
seze
bano
##shakaho
rambura
##fisiye
arambye
bitazaba
comm
bagaza
kubiganiraho
157
uncle
japan
amavunja
rwiyamirira
##singizo
loan
flag
bidakwiriye
bigorana
bakeya
ingorabahizi
abatabufite
ubishaka
traffi
1965
##xien
batman
00pm
ritera
archange
range
##prof
##cukumbura
amatembabuzi
##gerekaho
abadipolomate
opening
bemeranyije
##gajega
bacumbikiwe
constant
uturahuri
ordinateur
##dimuriti
sfaxien
placidie
kurazikubone
eustache
elcrema
gwami
ifungura
ker
##iye
##mitse
##vity
##dney
##lde
mumwaka
##yens
yafungu
umusenateri
##roroka
kotsa
biyongereyeho
imfizi
nathan
wakiriye
buje
nigi
##onder
gipu
##somera
ikibura
cyandi
##naba
##kanyweho
uruguay
ururondogoro
##lera
zirebana
##vas
misemburo
boston
baricwa
beha
beyij
##byitwaramo
ahaba
batabanje
moment
bitarimo
heard
bazakira
##gishakishwa
bahaga
izaha
izakora
izarangira
##tumaho
form
kubibwira
bibatera
bamazemo
nancy
byabafasha
bronze
birombe
nigeri
basabose
##hanuye
##hanuwe
yabujije
rena
mubuzima
##gumamo
salax
##shingiweho
570
indobanure
finals
kunyuramo
ntakabuza
guillaume
beyijingi
988
akurura
nite
ngerageza
urani
ushyigikiye
ukenera
##kra
##gnan
##scha
bamerewe
##mubona
##bisha
##serukira
##tected
abagerageje
biwu
bikongera
wapi
##wimana
bukana
##lio
##miyoboro
cyangombwa
yoherereje
##bereke
##hirika
byadufasha
##sane
##neke
##shingirwa
##su3
rich
comes
##shundura
anc
bwakorerwaga
yarishwe
ntikira
dat
ahakikije
holl
abica
bitaraba
azahembwa
bagakorerwa
kubikorera
golf
##sengerwa
accra
ugatangira
butaza
biherutse
tubabwira
vote
ababagana
oneste
generic
theoba
##zindutse
ivuko
incungu
##hhh
bugatera
inyamibwa
therefore
##hitira
##turukaga
medicine
##dayimoni
binyabiziga
bigerweho
fall
kalecik
bucyeye
kageyo
dukuzimana
yahitaga
kwishyurana
coaster
animateri
arrested
##miu2o
##yriu
scientific
##divezi
mibambwe
aubameyang
benya
ikore
ugende
zine
##kitu
##rmed
##pria
##cn
##ldo
murya
mukomereze
##bakiye
##baruki
##rect
kuge
kuhan
basubiza
bakubaka
##maba
##mako
yafata
gushingwa
bishira
natanze
wawo
busin
hat
arijan
aritwo
arikumwe
##tanyije
ibishobora
kizere
gikize
akayu
tubizi
##mentu
ukorwa
kwihagarika
##vious
risoza
cova
duhita
##load
sime
bakabana
babahaye
bitagenda
heg
mere
##zamurwa
sos
additional
wishimye
bagahora
bahasa
suleiman
biratinda
##sekera
##fatiriwe
japhet
kuzagera
1600
gutukana
##gurishi
##rabukungu
##gratu
kuguruka
##buzaga
kudatanga
byararangiye
benewabo
##tsindirwa
ruzajya
ayd
habayemo
amenshi
##wingiye
##tabaro
everton
clean
colombe
kizibanda
barore
gerardine
buziguye
missiles
avons
mubarak
##vitra
yanyagiye
problems
##furayimu
phionah
##yamamarije
conservatoire
ivura
ow
uto
urwe
##breye
##bitswe
##witwa
##riyani
mubone
kutita
bale
bahoraho
yasomye
kohererezanya
##kurwe
gusenywa
gushyamirana
bibuze
##hamije
amadirishya
bukode
bumvira
##tances
kigize
rugunga
ikijyanye
ngozi
byahagaze
byabindi
urubozo
zigenzi
##menis
riko
yikoreye
yishakiye
icyororo
duhamagara
##garagarize
posts
ukubiri
viola
aratangaza
kwinshi
mechan
2025
communa
##shyurwe
sobanu
yarahiriye
##panzwe
rayons
laza
warigeze
fact
doze
bahatanye
isohoka
nkuta
##kinamico
yahaga
babikesha
bibaya
kuburizamo
twigisha
rwigamba
justine
igatanga
yamuteye
akiduhaye
anamu
nzuki
prefe
ingobyi
kuzamurwa
inatek
kuhatura
ikoti
yakuyeho
inclusion
musique
yakwiga
ikenda
institution
story
rukuruzi
zinc
reached
abagizweho
authorities
##iiii
banyuzemo
salomon
bushali
lietu
shared
yahya
dyna
restoration
yungamo
license
gustave
ash
asohotse
ihanurwa
usu
##frika
##ai
##rimbi
##riot
##rege
basuzumwe
bahanwe
##inka
##yob
##goje
##board
koherereza
bicanyi
navuye
haw
##wanze
kassim
ibitanga
##somo
cyarimo
cyahuzaga
mise
atize
baririmbye
ananirwa
yibereye
salu
saison
pompe
divine
##ryamira
##kwemeza
izatanga
izatwara
##rasisi
ubwiru
##danda
118
185
amukubita
141
marketing
##kendera
cyibasiye
abemerera
badakwiriye
alibaba
idindi
##garurwa
##indura
uwicyeza
pima
shya
chile
kinyasuwede
3500
onesme
monday
baburiwe
igitsinagore
furuma
fdrl
survi
yaburanye
##cumbikiwe
##mitted
arabasubiza
baranduye
provides
abahezanguni
became
ingororano
biremewe
##sieurs
confident
ronnie
aaron
plusieurs
sitting
mucyaro
mukorogo
##barukiro
avura
asubiye
eca
ihanganye
ivuguruye
sri
soni
tina
##fits
##ufite
##ede
##remeye
##kagire
yakin
yaretse
##gerweho
##zemera
bishimangira
bishakira
hali
##most
maha
gikunze
byagombye
mika
mirambo
kubafite
##ory
##caba
sadc
bemererwa
baratabaza
##byazwa
##urd
bazabana
kumujyana
izagiye
arembye
bigaruka
umuvugo
abel
igataha
byeruye
johnny
bwanditse
tubikora
wamuhaye
gusimburwa
perfe
niyonsenga
mandate
igitambaro
mubumbe
##gumaho
nibiba
bibukijwe
hatangizwaga
yahozemo
yagabanutse
liveliho
##bitaho
gashabana
hills
imyato
values
maniraho
insurance
basimburana
mberabyombi
standard
guardian
parikingi
poroteyine
niyonizera
##breyesus
##menisitani
a1
cani
irangi
ikungahaye
##over
##mahire
##muhire
yatwi
yakurikiye
yakorwaga
##gemanyi
##ziz
##zee
##tabaye
umutinganyi
##terura
gukurikiraho
injiji
bishobotse
##guzanyo
ubutita
kiganza
rugana
ruhagaze
byatera
byagabanya
akado
kwihugura
##kunywa
zaha
##vered
barira
bwatanze
yihuse
duka
dushyize
agatera
##kwizera
##stina
barawu
ikiniga
rwerekeza
##sindu
miligarama
azakorera
izahuza
burushaho
##inyura
unyura
bizasaba
amugira
amazirantoki
telecom
##sengeraga
inyunganizi
chry
rutaganda
gutungwa
abatazi
iyitsinze
twongeye
karahava
chemi
##muhamije
update
abamurika
phones
ubwugarizi
arumu
banyapolitiki
outs
ivunanye
studies
micheal
ruregwamo
highli
bitigeze
iguriro
clear
abyicuza
paulo
clementine
abafatabuguzi
nsengu
coordinator
umwitozo
representative
entrepreneur
irerero
##hungabanyijwe
potasiyumu
papua
koweti
vladimir
kyo
ss
ushaje
##nywe
##ryan
##zinduka
##oki
##4a
##shwanye
kugurira
bid
imitsindire
##vuwe
ububo
nos
urushyi
##veli
yikubita
deep
agaha
nyamure
##jyenda
kigari
atabonye
##fiya
aravuze
arabura
bitatse
ndabereye
##shyuriye
##sobanukirwe
##garirwa
##mpta
[...]
