<unk>	0
<s>	0
</s>	0
[CLS]	0
[UNK]	0
?	0
.	0
'	0
;	0
[MASK]	0
[PAD]	0
:	0
!	0
,	0
[SEP]	0
▁	-1.78232
’	-3.54293
▁n	-4.211
▁1	-4.30327
▁2	-4.39102
▁mu	-4.52236
▁b	-4.99018
1	-5.05273
▁y	-5.09031
Sm	-5.15082
▁i	-5.16225
Ng	-5.17393
▁ku	-5.22293
Bm	-5.23573
2	-5.24301
▁Zb	-5.24744
▁“	-5.2524
▁na	-5.27874
▁Gut	-5.28086
▁Kv	-5.30245
▁Yehova	-5.32446
▁It	-5.37244
▁a	-5.41426
▁Kb	-5.45602
▁c	-5.47087
”	-5.49202
3	-5.49951
▁d	-5.501
▁g	-5.50928
▁k	-5.51038
▁w	-5.51276
▁h	-5.52782
▁f	-5.54133
5	-5.54763
6	-5.57389
7	-5.57874
4	-5.61592
▁j	-5.62797
▁3	-5.64523
8	-5.6568
9	-5.65722
▁ati	-5.67563
▁e	-5.67806
▁m	-5.68982
▁ya	-5.71985
▁Lw	-5.72456
▁7	-5.72572
▁ni	-5.73051
▁l	-5.73536
10	-5.74306
▁4	-5.76772
▁9	-5.7808
i	-5.79183
▁6	-5.79402
▁Ys	-5.80492
▁wa	-5.8229
11	-5.83071
13	-5.85934
12	-5.87371
▁kandi	-5.87677
▁10	-5.88868
▁5	-5.89456
▁8	-5.89592
a	-5.90809
14	-5.91768
▁12	-5.92046
15	-5.92307
▁11	-5.98236
▁ngo	-6.0013
16	-6.00318
▁15	-6.00396
17	-6.01832
e	-6.04207
▁we	-6.05137
18	-6.05707
▁18	-6.07609
▁14	-6.07915
▁13	-6.10481
▁o	-6.10734
19	-6.11557
▁muri	-6.13784
▁Img	-6.14653
▁20	-6.15338
▁r	-6.15624
▁p	-6.15872
▁16	-6.16779
▁Nuko	-6.18033
▁ko	-6.18251
▁19	-6.18428
20	-6.18671
▁ba	-6.2057
▁17	-6.21756
▁Abc	-6.23702
▁Ye	-6.25807
▁ari	-6.26743
21	-6.2686
▁21	-6.28202
▁23	-6.29891
▁Imana	-6.33536
▁22	-6.34716
▁yari	-6.36195
E	-6.37427
▁u	-6.39281
C	-6.3981
22	-6.40544
▁28	-6.44069
▁s	-6.45899
23	-6.4601
▁bari	-6.46475
24	-6.46806
▁nk	-6.47011
▁IGI	-6.48924
▁24	-6.48945
▁26	-6.49118
▁25	-6.49662
▁bose	-6.51389
25	-6.53361
▁kuko	-6.53977
▁z	-6.55963
▁t	-6.5796
▁̨	-6.59345
26	-6.60691
29	-6.62693
▁kugira	-6.63047
▁cy	-6.63517
27	-6.64278
▁bo	-6.64768
▁umwami	-6.66555
▁Dawidi	-6.66817
▁Yr	-6.66819
▁imbere	-6.67728
▁mwene	-6.67751
▁‘	-6.68498
-	-6.68541
28	-6.69782
▁ry	-6.706
▁Nh	-6.71026
▁27	-6.72856
▁yo	-6.73878
▁29	-6.75838
uko	-6.79577
▁32	-6.79828
▁uwo	-6.81125
▁maze	-6.81974
▁munsi	-6.84577
▁Isirayeli	-6.84591
▁Yb	-6.84994
▁31	-6.872
30	-6.88035
▁gihugu	-6.88498
▁Mose	-6.88619
31	-6.88868
▁byose	-6.89034
▁cyangwa	-6.89127
▁kuri	-6.90708
▁30	-6.92028
▁Hb	-6.94207
▁no	-6.94668
▁34	-6.99758
▁cya	-7.02392
▁aho	-7.03144
▁33	-7.03415
▁Inkingi	-7.04821
▁yawe	-7.0617
▁yose	-7.0648
▁bene	-7.07402
33	-7.0768
▁Ibk	-7.07768
u	-7.08566
▁be	-7.09807
o	-7.09828
▁icyo	-7.10641
▁Mt	-7.10726
▁Abisirayeli	-7.11199
▁ibyo	-7.11748
▁mirongo	-7.11924
▁Ezr	-7.12372
▁v	-7.13156
▁se	-7.1342
▁ye	-7.17094
▁Ariko	-7.17476
▁nzu	-7.18304
▁abwira	-7.18881
▁abantu	-7.19915
ye	-7.2042
Kr	-7.20991
▁bati	-7.22781
▁rw	-7.23274
32	-7.24215
▁nta	-7.24759
▁cyane	-7.25071
Imana	-7.25425
▁by	-7.26281
▁Kandi	-7.26605
▁Hanyuma	-7.27098
▁bw	-7.27796
▁Ezk	-7.27829
▁35	-7.31265
▁kugeza	-7.31466
▁I	-7.32026
34	-7.33938
▁wawe	-7.34027
▁Lk	-7.35476
▁cyo	-7.35548
ho	-7.3689
▁yabo	-7.37672
▁byo	-7.39024
35	-7.39655
▁igihe	-7.40737
▁gihe	-7.42373
▁37	-7.42636
umwami	-7.439
▁Rm	-7.44408
▁wo	-7.4551
▁Ni	-7.45606
▁Mu	-7.45887
▁36	-7.45972
ra	-7.46506
▁wese	-7.47574
▁ariko	-7.48327
▁ho	-7.49419
▁Sawuli	-7.51283
▁Est	-7.52027
▁cumi	-7.53106
▁umuntu	-7.53545
▁A	-7.56765
▁Egiputa	-7.57287
we	-7.59268
▁iyo	-7.60711
ga	-7.60822
▁rya	-7.62239
umuriro	-7.6231
ukuri	-7.62483
Abisirayeli	-7.6252
▁igitambo	-7.62919
▁yanjye	-7.64691
ibyo	-7.6489
36	-7.64962
38	-7.66787
▁Umb	-7.69402
▁Yerusalemu	-7.70161
▁buri	-7.70191
▁wari	-7.70608
▁zahabu	-7.71185
▁Aroni	-7.71437
ni	-7.71684
▁za	-7.72066
▁yanyu	-7.72073
▁magana	-7.73364
37	-7.74996
Zb	-7.75368
intama	-7.774
▁38	-7.77967
▁imyaka	-7.78565
▁N	-7.78565
▁40	-7.78683
▁aba	-7.78964
▁aravuga	-7.80279
▁hejuru	-7.80747
▁rwa	-7.81023
▁kwa	-7.81523
▁ibihumbi	-7.81801
▁Umwami	-7.82322
▁mugi	-7.82356
wa	-7.83821
n	-7.8386
Pt	-7.83861
▁hamwe	-7.83904
ingabo	-7.84611
39	-7.8485
d	-7.84973
▁iki	-7.85181
▁Buyuda	-7.85825
▁None	-7.88218
▁kumwe	-7.88511
▁aramubwira	-7.88798
▁Dn	-7.89111
▁wanjye	-7.89251
▁Salomo	-7.89425
▁Uwo	-7.90135
▁cyose	-7.9129
inzu	-7.91551
▁49	-7.92363
▁itatu	-7.92865
▁zose	-7.942
▁bwa	-7.94869
na	-7.95143
▁umwe	-7.95327
▁mwe	-7.95534
40	-7.96124
b	-7.96736
▁muntu	-7.96965
mo	-7.97182
c	-7.98155
▁wowe	-7.9933
▁bawe	-7.99487
▁44	-7.99646
▁abo	-7.99865
▁makumyabiri	-8.00418
▁39	-8.00671
arawo	-8.00981
▁hari	-8.01282
Yehova	-8.01488
▁umutambyi	-8.02205
▁sekuruza	-8.02854
▁U	-8.03186
▁Yakobo	-8.03535
▁nti	-8.04176
▁46	-8.05656
abantu	-8.06893
▁ajya	-8.07101
▁neza	-8.07259
▁Yh	-8.07764
▁kimwe	-8.08033
▁maso	-8.08753
▁muryango	-8.08901
▁afite	-8.0902
▁uko	-8.09561
g	-8.10451
▁Ibh	-8.10577
▁izina	-8.10696
h	-8.10815
za	-8.11512
▁B	-8.12187
p	-8.12727
▁igihugu	-8.12911
▁bya	-8.12916
41	-8.12999
▁kuba	-8.1326
▁Yozefu	-8.14489
▁babo	-8.14538
▁41	-8.14564
▁bwe	-8.15189
▁uyu	-8.15769
▁Yosuwa	-8.16202
▁umugaragu	-8.16673
▁hagati	-8.1705
▁ze	-8.18009
▁umutware	-8.18433
▁abyara	-8.18501
▁Icyo	-8.18563
▁aza	-8.19007
▁Iyo	-8.19466
abahungu	-8.2008
mu	-8.20343
▁mbere	-8.20744
▁Ba	-8.20915
▁Bene	-8.21601
yo	-8.22401
▁Rs	-8.2263
▁isi	-8.22709
▁irindwi	-8.22861
▁gikongorwa	-8.2288
▁umugisha	-8.22949
ya	-8.23206
f	-8.23243
l	-8.23988
▁ndi	-8.24081
▁inzu	-8.24238
43	-8.24364
▁Y	-8.24428
abo	-8.25242
▁bwo	-8.25283
▁zo	-8.25327
m	-8.26087
▁Yk	-8.26718
42	-8.26906
▁yacu	-8.27259
▁78	-8.27679
▁Abo	-8.27792
▁gakondo	-8.2803
Gut	-8.28213
▁42	-8.30806
▁butayu	-8.30843
▁ihema	-8.30935
umuryango	-8.31603
▁cye	-8.317
ze	-8.31834
▁ibintu	-8.32246
▁umuhungu	-8.32681
▁rugo	-8.32742
▁ahita	-8.32831
44	-8.33338
ira	-8.33447
▁umugore	-8.33468
▁nawe	-8.33998
▁umutima	-8.34047
▁nde	-8.34744
▁nzira	-8.34771
▁akaba	-8.3496
▁uti	-8.34982
▁migi	-8.35046
k	-8.35133
▁itanu	-8.35437
uwo	-8.3572
▁Hs	-8.36052
▁kabiri	-8.36405
Yr	-8.3642
▁hanyuma	-8.36898
▁iminsi	-8.37117
▁bantu	-8.37162
A	-8.37412
ihema	-8.37426
45	-8.37646
▁Am	-8.37784
▁rye	-8.38184
▁akomeza	-8.38782
▁Ku	-8.38878
▁Yorodani	-8.39246
▁bibiri	-8.39471
▁hafi	-8.39831
▁ryose	-8.39926
▁abagabo	-8.40039
Inkingi	-8.40365
▁bi	-8.40678
j	-8.40804
▁Nanone	-8.40934
▁Nyuma	-8.41429
▁mwaka	-8.41452
▁umukobwa	-8.41531
▁yayo	-8.42421
re	-8.42753
▁106	-8.42779
▁Aburahamu	-8.43079
▁Amaherezo	-8.43079
▁Ibyo	-8.43161
▁umwana	-8.43255
▁zi	-8.4389
▁uri	-8.43892
▁ka	-8.44411
Yh	-8.44518
▁ibitambo	-8.44928
▁abahungu	-8.45273
umwe	-8.45517
▁ri	-8.45634
▁azaba	-8.46029
▁ingabo	-8.46352
uyu	-8.46936
▁afata	-8.48052
▁iri	-8.48085
▁hasi	-8.48172
▁bitewe	-8.48189
▁babiri	-8.482
▁niba	-8.48338
▁abagaragu	-8.48884
Tm	-8.48992
▁amagambo	-8.49062
ri	-8.49607
▁ayo	-8.50237
▁gicaniro	-8.50362
▁baza	-8.50832
▁ijana	-8.50836
▁45	-8.51027
▁bwanjye	-8.51362
▁Mk	-8.51574
▁105	-8.51588
▁buryo	-8.51734
▁abatware	-8.52131
abavandimwe	-8.52183
▁umugabo	-8.5224
▁musozi	-8.5226
▁amavuta	-8.52654
▁ra	-8.52783
▁jye	-8.53205
▁ukuboko	-8.53947
▁maboko	-8.54165
51	-8.54822
▁ine	-8.54915
ibonaniro	-8.55078
▁aha	-8.55224
▁gukora	-8.55369
▁Muri	-8.55636
▁ikintu	-8.56017
▁bajya	-8.56106
▁aramusubiza	-8.56135
▁Nta	-8.56279
▁Icyakora	-8.57057
▁uza	-8.57641
▁kuva	-8.5835
▁bwawe	-8.58431
ibinyampeke	-8.58582
▁ijwi	-8.58702
▁inkota	-8.58721
46	-8.59007
▁43	-8.59323
▁Yowabu	-8.59437
▁yabyaye	-8.59593
▁icumi	-8.59722
Abalewi	-8.60106
▁ubwoko	-8.60204
▁yaho	-8.60325
▁mugore	-8.60466
aho	-8.60833
▁50	-8.6099
▁Zk	-8.61183
▁ibyaha	-8.61259
▁Na	-8.61354
▁mugabo	-8.61895
umuntu	-8.6204
▁yakoze	-8.62143
Ye	-8.62222
r	-8.62723
▁bwoko	-8.62765
▁Ml	-8.62816
▁hose	-8.63386
▁Yuda	-8.63499
47	-8.64124
dore	-8.64484
▁amazi	-8.6463
▁databuja	-8.64781
▁ngoma	-8.64888
▁imirimo	-8.65084
▁Samweli	-8.65166
▁ryo	-8.65293
▁banyu	-8.65327
▁amaraso	-8.65337
▁Mana	-8.65421
▁48	-8.65452
▁S	-8.65544
▁ahubwo	-8.65551
▁Manase	-8.66469
▁Aba	-8.67432
▁rwose	-8.67497
ba	-8.67667
▁gitondo	-8.68126
▁ijuru	-8.68129
▁bafite	-8.68208
▁umunsi	-8.68313
t	-8.68363
Img	-8.68493
▁Ef	-8.69329
▁karere	-8.69551
▁bitarondoreka	-8.70311
w	-8.70528
▁umurimo	-8.70701
▁wabo	-8.70741
amazi	-8.70835
▁imigi	-8.71084
aba	-8.71174
▁data	-8.71427
▁mutwe	-8.71589
Abafilisitiya	-8.71811
▁hakurikijwe	-8.7194
▁Dore	-8.72027
▁ubwoba	-8.72231
I	-8.72259
aga	-8.72464
icyo	-8.72547
▁bintu	-8.72795
▁isezerano	-8.73151
▁abatambyi	-8.73446
▁bwose	-8.73669
▁nanjye	-8.73733
▁Igihe	-8.73865
umugore	-8.73917
▁Abalewi	-8.7418
▁shekeli	-8.74435
48	-8.74722
50	-8.74893
▁Yonatani	-8.75419
▁ituro	-8.75437
▁ruhande	-8.75495
▁iryo	-8.75523
▁mukuru	-8.75625
s	-8.75881
abagaragu	-8.76117
▁uwa	-8.76123
▁Cyangwa	-8.76413
abana	-8.76751
▁nda	-8.76767
umuhungu	-8.76807
▁abana	-8.77046
49	-8.7709
▁byari	-8.77213
abatware	-8.77237
▁imbaraga	-8.7732
▁amaso	-8.77337
▁minsi	-8.77701
amasambu	-8.77715
▁47	-8.78015
▁zabo	-8.78267
▁bu	-8.78387
▁Ese	-8.79322
▁Isaka	-8.79568
▁amategeko	-8.79666
ifeza	-8.79735
▁undi	-8.80707
▁ma	-8.80824
▁ahantu	-8.81049
▁iteraniro	-8.81173
▁wose	-8.81596
▁ab	-8.81876
▁batuye	-8.81957
▁Kuko	-8.82656
▁ibi	-8.82934
▁Abantu	-8.83688
ari	-8.83737
▁icyaha	-8.84141
ihene	-8.84264
▁Mbese	-8.84454
▁inyuma	-8.84545
▁amahoro	-8.84556
intambara	-8.8484
▁abe	-8.8514
▁ubwo	-8.8545
▁asanga	-8.85631
▁gu	-8.85761
ese	-8.8587
▁gitambirwa	-8.85991
▁kubera	-8.8603
▁benshi	-8.86248
bwira	-8.86327
reka	-8.8661
▁Gl	-8.86733
▁mutima	-8.86787
▁isanduku	-8.87004
▁Uko	-8.87121
▁M	-8.87341
▁ubu	-8.8802
▁Ab	-8.88185
▁Mr	-8.88207
▁byabo	-8.88292
▁ubugingo	-8.88358
▁mwana	-8.88579
▁ibibi	-8.88671
▁umu	-8.88706
▁gutamba	-8.88942
▁ryanjye	-8.89086
Abc	-8.89331
▁NGOMA	-8.89888
▁Abusalomu	-8.90073
▁ibihe	-8.90077
imikono	-8.90251
▁bara	-8.90337
▁ibyokurya	-8.90417
▁55	-8.90742
▁mi	-8.90796
▁arababwira	-8.91052
▁so	-8.91217
▁kwezi	-8.91259
ituro	-8.9132
ABAMI	-8.917
▁divayi	-8.91886
gira	-8.92046
▁urubanza	-8.92254
▁rugamba	-8.92277
iyo	-8.92377
IGI	-8.92778
▁ukuvuga	-8.92915
▁ufite	-8.92925
▁Reba	-8.93049
abakobwa	-8.93111
amavuta	-8.9327
▁Elisa	-8.94084
▁abiri	-8.94297
imisozi	-8.94509
▁Abafilisitiya	-8.94635
▁rwe	-8.9479
▁none	-8.94839
▁Bisirayeli	-8.9496
▁Amg	-8.94962
ibiti	-8.95014
▁52	-8.95072
▁Beti	-8.95157
▁119	-8.95329
▁Umuntu	-8.95421
▁ifeza	-8.95445
AM	-8.95786
▁ndetse	-8.9592
▁gusa	-8.96151
▁G	-8.96635
▁abona	-8.96768
▁amabuye	-8.96933
▁karindwi	-8.97072
▁Ahabu	-8.97207
▁89	-8.97424
▁yaba	-8.97498
y	-8.98671
genda	-8.98953
ELI	-8.98986
▁imwe	-8.99117
▁Umugereka	-8.99187
▁gatatu	-8.99189
▁rero	-8.99296
▁naho	-8.99357
▁ajye	-8.99545
▁amatwi	-8.99835
ubwami	-8.9984
▁ara	-9.00038
▁Esawu	-9.00433
▁ingoma	-9.0067
▁mpamvu	-9.00727
▁Niba	-9.00755
▁kurusha	-9.00949
amabuye	-9.01129
ka	-9.01146
je	-9.01278
▁iti	-9.01945
▁tu	-9.02479
▁gitabo	-9.02561
▁si	-9.02761
▁imana	-9.02817
abandi	-9.02905
amazu	-9.03041
▁izo	-9.03113
▁kibaya	-9.03212
ko	-9.03339
abatambyi	-9.03373
▁Bayali	-9.03571
▁kubwira	-9.03636
▁namwe	-9.03764
▁miremire	-9.03787
▁ujye	-9.0397
▁amara	-9.04193
▁yar	-9.04298
▁uw	-9.04541
abami	-9.05158
▁Umutambyi	-9.05305
imiryango	-9.0542
iki	-9.05421
▁itegeko	-9.05455
▁Gileyadi	-9.05888
▁giheburayo	-9.06066
▁butaka	-9.06073
▁amaze	-9.06176
▁rwawe	-9.0625
▁bajye	-9.06253
▁imyenda	-9.06256
▁Yerobowamu	-9.06277
Ys	-9.06799
▁zari	-9.07017
▁inzira	-9.07233
▁ahakikije	-9.07523
▁bar	-9.07652
umugi	-9.07874
▁magambo	-9.07903
▁nka	-9.08189
▁Uza	-9.08436
▁banjye	-9.08492
▁igicaniro	-9.08634
▁kujya	-9.08636
▁he	-9.09171
▁itandatu	-9.09291
igiti	-9.09449
▁bikongorwa	-9.09449
▁amaboko	-9.09523
▁51	-9.09578
abagabo	-9.09668
▁rwo	-9.09981
▁hantu	-9.10023
▁baba	-9.10184
▁Efurayimu	-9.1062
▁miryango	-9.10759
▁nabi	-9.10786
▁Buri	-9.10936
ti	-9.10963
▁Yobu	-9.10991
▁Hezekiya	-9.11021
▁sokuruza	-9.11836
52	-9.119
55	-9.12099
▁ntu	-9.1211
▁kw	-9.12138
▁atangira	-9.12649
▁atandatu	-9.12667
▁iby	-9.13149
▁abagore	-9.13404
▁hano	-9.13832
▁Mowabu	-9.14094
ne	-9.14163
Kv	-9.14242
▁cyimbo	-9.14308
▁inkingi	-9.14405
▁bakora	-9.14735
▁ubusa	-9.14839
▁Eliya	-9.14918
▁”	-9.15028
v	-9.15133
▁ikimasa	-9.15402
▁urugero	-9.15581
▁umugi	-9.15582
Kb	-9.15673
▁abaturage	-9.1591
U	-9.15996
▁umwaka	-9.16134
▁wanyu	-9.16377
▁ru	-9.16646
▁INTANGIRIRO	-9.1687
▁iruhande	-9.16941
▁abavandimwe	-9.17056
▁Kanani	-9.17067
▁kubaho	-9.17106
▁agiye	-9.17243
▁aramubaza	-9.17275
▁bakomeza	-9.17415
▁yohereza	-9.17427
▁abandi	-9.17432
▁bye	-9.17676
▁impongano	-9.17916
▁ijambo	-9.17921
▁iyi	-9.1816
▁nyina	-9.18168
▁umuvandimwe	-9.18286
ab	-9.18429
ibi	-9.18432
▁nkambi	-9.18571
▁bakambika	-9.18736
▁asubiza	-9.18844
▁uhereye	-9.19396
▁Yehoshafati	-9.19495
▁myaka	-9.19617
▁twe	-9.19995
▁atanu	-9.20135
▁68	-9.20376
▁ibiri	-9.2038
▁mahanga	-9.20386
isi	-9.2039
▁gasozi	-9.20798
▁Benyamini	-9.21032
▁ebyiri	-9.21463
▁atatu	-9.21507
▁bak	-9.21677
▁intumwa	-9.21738
▁yongera	-9.21861
icyaha	-9.21879
▁kurya	-9.22301
intwari	-9.2232
▁igihumbi	-9.22386
▁nimugoroba	-9.22392
▁arindwi	-9.23299
▁kure	-9.23581
▁yera	-9.23698
▁Heburoni	-9.23753
▁bagera	-9.24041
▁atuma	-9.24227
▁ryari	-9.24409
▁iwe	-9.24548
isezerano	-9.24829
▁mazi	-9.24872
▁nyinshi	-9.24939
▁mwami	-9.25069
▁re	-9.25138
▁twa	-9.25196
▁kintu	-9.25663
▁Samariya	-9.26321
▁mujye	-9.26698
amatungo	-9.26771
▁incuro	-9.2682
ingoma	-9.26909
igicaniro	-9.26934
▁yavuze	-9.2694
ura	-9.2695
▁ubwa	-9.27189
▁nyuma	-9.27256
▁Yehu	-9.27456
ndi	-9.27544
imbere	-9.27607
▁meza	-9.27858
▁yuje	-9.2786
▁yitwaga	-9.27864
jye	-9.27918
▁Asa	-9.28125
▁urukundo	-9.28224
▁hova	-9.28315
▁bava	-9.28331
▁Yeho	-9.28416
▁aka	-9.28553
▁Naho	-9.28598
▁nza	-9.28603
kuki	-9.28611
Lw	-9.28889
Ts	-9.29026
▁imiryango	-9.29556
▁KU	-9.29626
▁bacu	-9.29762
ukwezi	-9.29936
▁K	-9.30024
▁bahungu	-9.30267
▁giti	-9.30645
▁Ashuri	-9.30662
▁mugenzi	-9.30686
umugaragu	-9.30789
▁binyuze	-9.30938
▁agira	-9.30995
▁ak	-9.31256
amategeko	-9.31632
▁ava	-9.31977
▁cyari	-9.32003
▁akora	-9.32085
▁Eleyazari	-9.32408
▁kubaka	-9.32525
igihugu	-9.32684
▁murima	-9.32696
▁imyambaro	-9.32743
▁ineza	-9.32781
▁mana	-9.32835
▁babwira	-9.33351
54	-9.33395
▁ubwenge	-9.33536
▁KUBARA	-9.3366
▁rukagera	-9.33687
▁abanzi	-9.33935
▁gupfa	-9.33986
▁Abimeleki	-9.34179
uri	-9.3426
▁kwe	-9.34295
▁ryawe	-9.34536
ubu	-9.3465
ubwoko	-9.3488
▁aragenda	-9.34964
▁nziza	-9.35254
▁batatu	-9.35255
▁inama	-9.35708
ire	-9.35819
▁muti	-9.3618
▁kuvuga	-9.36197
▁cyawe	-9.36224
53	-9.36309
▁yica	-9.36613
▁uzaba	-9.3676
imidugudu	-9.37111
iburyo	-9.3718
▁kwawe	-9.37238
▁Aho	-9.37796
▁cyatumye	-9.37951
▁ki	-9.38274
umuringa	-9.38352
▁Balamu	-9.38612
▁nyanja	-9.38889
▁imigati	-9.38961
itanu	-9.39055
▁104	-9.39166
Nh	-9.39308
▁amafaranga	-9.39409
▁uzi	-9.39524
▁umwenda	-9.39718
▁ikindi	-9.39772
▁turi	-9.39833
▁yategetse	-9.40062
▁ha	-9.40191
▁Beteli	-9.40229
▁kugera	-9.40473
Mt	-9.40478
▁Eli	-9.40563
ane	-9.40709
▁ahumanye	-9.40781
ibiri	-9.41235
▁biri	-9.41408
▁byera	-9.41415
▁Hagati	-9.41597
▁Shekemu	-9.41603
▁Moridekayi	-9.41609
▁avuga	-9.41703
▁Yd	-9.41892
▁bitatu	-9.42043
▁Hari	-9.42544
amahanga	-9.42591
▁byiza	-9.42866
▁umuryango	-9.43093
▁atari	-9.43664
umunani	-9.43694
▁amazu	-9.43769
▁nkingi	-9.43802
▁Aburamu	-9.43819
It	-9.43911
ta	-9.44031
ifu	-9.44174
▁abakuru	-9.44655
▁bityo	-9.44964
▁byinshi	-9.44974
▁majyepfo	-9.4513
▁Rubeni	-9.4523
nta	-9.45355
▁gutura	-9.45686
▁cyabo	-9.45722
Ibk	-9.45727
▁Dani	-9.46098
▁ngiye	-9.46178
▁Gadi	-9.46637
▁imanza	-9.46673
▁witwaga	-9.46704
▁65	-9.46822
Abamori	-9.47249
▁Kuki	-9.47254
▁zawe	-9.47263
▁marembo	-9.47328
▁baka	-9.47412
zi	-9.47496
▁joro	-9.47529
si	-9.47568
▁kiri	-9.47631
▁tw	-9.47751
▁basanga	-9.4782
▁60	-9.48377
iteraniro	-9.48398
ibindi	-9.48417
▁batware	-9.48423
▁birebana	-9.48427
▁bagabo	-9.4861
Rib	-9.48663
igitambo	-9.48724
▁ibyiza	-9.48727
▁72	-9.48813
▁indi	-9.48989
▁ibyago	-9.49175
se	-9.49211
inyamaswa	-9.49666
iye	-9.4968
ibintu	-9.49963
tse	-9.50055
EKA	-9.50067
EG	-9.50098
▁ane	-9.5019
▁Labani	-9.50211
▁Hamani	-9.50213
▁ibikoresho	-9.50217
▁Hashize	-9.50218
▁rimwe	-9.50386
▁bunyage	-9.50468
▁YOBU	-9.50484
▁Samusoni	-9.50513
undi	-9.50734
▁bibe	-9.50736
▁at	-9.50757
▁Abuneri	-9.50811
▁batangira	-9.50954
▁uburakari	-9.51081
▁mbi	-9.51311
▁ategeka	-9.5143
inkuta	-9.51494
▁gitambo	-9.51747
amarembo	-9.51768
UT	-9.51881
umwana	-9.52079
Abamoni	-9.52099
▁natwe	-9.52111
umugabo	-9.5219
▁66	-9.52209
▁izindi	-9.5221
abanzi	-9.52575
ubugingo	-9.52583
igice	-9.52702
nda	-9.52789
z	-9.52937
▁intwaro	-9.5295
abagore	-9.531
▁ahamagara	-9.53193
▁aya	-9.53267
▁135	-9.53291
ibyokunywa	-9.53738
▁umuhigo	-9.53859
▁Yeriko	-9.539
▁rubanda	-9.53961
▁Esiteri	-9.54184
▁ifite	-9.54304
▁umuhanuzi	-9.54382
▁mva	-9.54673
ijuru	-9.54704
▁arapfa	-9.54776
▁mirimo	-9.54855
▁muringa	-9.5509
▁kare	-9.55116
▁ar	-9.55417
ibikoresho	-9.55519
▁Edomu	-9.5557
▁bombi	-9.55852
▁baramubwira	-9.55911
▁uburebure	-9.55984
indogobe	-9.56018
▁umutwe	-9.56061
▁cyanjye	-9.56143
▁aravuze	-9.56347
▁wacu	-9.56376
eho	-9.56413
▁burasirazuba	-9.56479
ibitambo	-9.56494
urugo	-9.56522
▁baravuga	-9.56558
▁umuja	-9.56571
▁budodo	-9.56636
▁wayo	-9.57258
▁mategeko	-9.57279
Ezk	-9.57441
▁Ndi	-9.57561
▁efodi	-9.57677
LE	-9.57691
▁Siriya	-9.57705
▁Yehoyada	-9.57897
▁bami	-9.58011
▁nijoro	-9.58026
fata	-9.58077
▁ntebe	-9.58198
▁mwa	-9.58253
ha	-9.58278
▁58	-9.58288
Hb	-9.58514
▁ajyana	-9.58693
▁gifite	-9.5879
▁ntara	-9.58899
igihe	-9.59362
Lk	-9.59573
▁Babuloni	-9.59653
▁inoze	-9.5966
▁arahaguruka	-9.60094
▁azicwe	-9.60163
amateka	-9.60169
▁majyaruguru	-9.60209
▁kureba	-9.60264
▁mwenda	-9.60346
li	-9.6049
▁inkoni	-9.60629
▁kujyana	-9.60777
▁koko	-9.61069
ku	-9.61082
ahera	-9.61148
▁Sadoki	-9.6164
▁Nowa	-9.61641
▁myinshi	-9.61655
▁Yehoramu	-9.61661
subiza	-9.61698
▁amabwiriza	-9.61875
▁Yw	-9.61891
▁rugabano	-9.61917
▁Gideyoni	-9.61976
▁ama	-9.62549
▁imbuto	-9.62617
▁baraza	-9.62683
N	-9.62807
▁bagiye	-9.62888
▁nuko	-9.62988
umu	-9.63003
▁kubona	-9.63078
ati	-9.63165
ma	-9.63533
▁zombi	-9.63692
▁menshi	-9.63693
▁bugufi	-9.63712
▁aratanga	-9.63736
▁ABA	-9.63829
▁yimye	-9.63894
▁Shimeyi	-9.64029
▁ubwami	-9.64054
▁abaza	-9.6432
bona	-9.6441
▁ashaka	-9.64558
▁83	-9.6459
▁agera	-9.64647
Umwami	-9.64685
▁Abanyegiputa	-9.64937
▁Ayo	-9.65026
▁abonye	-9.65238
ubudodo	-9.65332
▁iteka	-9.65381
▁Bari	-9.65501
▁atera	-9.65621
▁gito	-9.65713
▁pasika	-9.6576
▁bahita	-9.65988
uwa	-9.66017
▁nzima	-9.66044
▁Yari	-9.66091
▁inani	-9.66212
▁ubwoya	-9.66291
▁akiri	-9.66643
▁59	-9.66648
▁nyir	-9.66672
▁umwuka	-9.67325
ayo	-9.67435
▁urugimbu	-9.67467
▁Lewi	-9.67883
▁Rasheli	-9.6789
▁Yehowashi	-9.67903
▁impande	-9.67904
▁ishusho	-9.67922
▁63	-9.68211
▁yacyo	-9.68217
▁bahawe	-9.68307
▁mw	-9.685
▁ukora	-9.6851
nye	-9.68705
▁umubavu	-9.68777
▁va	-9.69087
▁cyumba	-9.69172
▁nari	-9.69283
▁igare	-9.69417
▁amahanga	-9.6969
▁inyama	-9.69847
uka	-9.69979
▁57	-9.70041
▁Bibiliya	-9.70065
▁inenge	-9.70068
▁gutambira	-9.70078
▁njye	-9.70178
▁Hk	-9.70423
▁abyumvise	-9.70518
hari	-9.70576
▁ndwi	-9.70599
▁amuha	-9.70627
▁nga	-9.7066
▁kimasa	-9.70799
▁abari	-9.70806
▁yara	-9.7105
▁Kubera	-9.71153
▁107	-9.71204
▁zayo	-9.71224
abanyambaraga	-9.71336
▁uk	-9.7154
▁ushaka	-9.71682
▁mushiki	-9.71724
▁kane	-9.71828
▁Isanduku	-9.71833
agaciro	-9.71836
va	-9.71911
▁agenda	-9.71982
▁imfura	-9.72041
▁yanga	-9.72198
ndakwinginze	-9.72231
▁iminyago	-9.72285
imfura	-9.7231
▁zanjye	-9.72489
iri	-9.72595
▁Kl	-9.72635
▁batera	-9.72642
▁ikimenyetso	-9.72643
▁bamaze	-9.72797
niba	-9.72993
▁bamwe	-9.73169
▁ngabo	-9.73277
▁bafata	-9.73633
▁Ayi	-9.73644
▁misozi	-9.73834
▁ndakwinginze	-9.74358
umutuku	-9.7443
ubururu	-9.7443
▁hakurya	-9.74554
▁Azariya	-9.74556
▁Gibeya	-9.74601
▁kurwana	-9.74647
▁mukobwa	-9.74696
abakuru	-9.74714
▁bwiza	-9.74773
▁umubare	-9.74895
▁yima	-9.74966
▁103	-9.74986
▁ibara	-9.75045
▁mfite	-9.7511
▁ibimasa	-9.75141
▁Abayahudi	-9.75161
mara	-9.75169
▁yamaze	-9.75437
▁umwa	-9.75505
▁ubutunzi	-9.75661
▁Kuri	-9.75678
umutima	-9.75815
Ariko	-9.75873
▁mba	-9.76093
uburemere	-9.76218
▁kanwa	-9.76235
▁ntib	-9.76593
▁uz	-9.76628
▁Rehobowamu	-9.76884
▁kabuza	-9.76897
▁murimo	-9.77069
▁byanyu	-9.77117
▁gi	-9.77194
▁Umutware	-9.7726
▁Gati	-9.77261
▁Abayuda	-9.77283
▁baragenda	-9.77326
ama	-9.7737
▁mukora	-9.77371
▁cyenda	-9.77395
abagize	-9.77402
63	-9.77518
▁matungo	-9.77537
▁umurage	-9.77582
▁Iryo	-9.77985
▁H	-9.78039
0	-9.78066
▁kose	-9.78092
▁bihe	-9.78556
60	-9.78571
akoze	-9.78658
▁irembo	-9.79187
▁Ibindi	-9.79274
▁Bashani	-9.79281
▁mugaragu	-9.79415
▁kwanjye	-9.7942
▁bagenda	-9.79645
umusozi	-9.79726
▁az	-9.79787
uku	-9.79952
▁ruhu	-9.80109
▁Aza	-9.80319
Umb	-9.80418
nimu	-9.80505
amaraso	-9.80552
▁56	-9.80684
▁guha	-9.81185
amasekurume	-9.81231
yi	-9.8134
▁ub	-9.81426
▁Ahubwo	-9.81686
▁Amasiya	-9.81689
▁Zekariya	-9.81693
▁shebuja	-9.81694
▁ukageza	-9.8171
▁gatanu	-9.81719
▁itunganyijwe	-9.81726
▁kirere	-9.82008
▁idasembuwe	-9.82025
▁Beri	-9.8211
▁uba	-9.82164
▁ruzi	-9.8225
▁bwabo	-9.82266
▁imitwe	-9.82448
▁ubuzima	-9.82692
▁umwimukira	-9.82821
▁Hg	-9.8293
▁uru	-9.82997
▁isabato	-9.83083
▁amu	-9.83125
▁umugabane	-9.83243
▁bavuga	-9.83539
▁rusengero	-9.83593
▁indogobe	-9.83616
▁gabo	-9.83651
sha	-9.84113
▁Yezereli	-9.8419
▁Natani	-9.84194
▁bisangirwa	-9.84194
▁Yesayi	-9.84197
▁sogokuruza	-9.842
▁amazina	-9.84275
▁batanu	-9.84282
▁amwita	-9.84372
andi	-9.84396
gera	-9.84419
▁gutanga	-9.84465
▁Rama	-9.84542
▁Mika	-9.84547
ugira	-9.84554
▁69	-9.84728
▁bituma	-9.84775
Umuntu	-9.85012
▁murumuna	-9.8504
▁yumvise	-9.85325
▁abami	-9.85447
▁tegeko	-9.85602
Ezr	-9.85668
imigati	-9.8569
▁babi	-9.85771
▁kizaba	-9.85793
▁inda	-9.85837
▁inzara	-9.85847
▁Balaki	-9.85853
ingano	-9.86239
▁Baza	-9.86561
umutambyi	-9.86612
amaturo	-9.86687
▁Benaya	-9.86744
▁two	-9.86746
YOS	-9.86827
▁bwinshi	-9.8692
▁babaga	-9.86926
▁imvura	-9.86976
▁manywa	-9.86995
▁wenyine	-9.87045
▁54	-9.87087
▁uretse	-9.87132
▁efa	-9.87181
▁muza	-9.87208
iminsi	-9.87389
▁bine	-9.87444
jyana	-9.87544
▁burengerazuba	-9.87617
itatu	-9.87735
▁azabe	-9.87756
58	-9.87882
▁Nafutali	-9.88032
inyanja	-9.88114
ibihe	-9.88164
▁abakobwa	-9.88364
▁akurikije	-9.8839
abaturage	-9.88454
▁bazajya	-9.88543
nga	-9.88604
di	-9.88871
▁Yn	-9.88985
▁icyubahiro	-9.89055
▁Ahazi	-9.89259
▁ibya	-9.89323
▁ABACAMANZA	-9.89385
▁Betelehemu	-9.89386
▁yaramye	-9.89387
▁gukuraho	-9.89717
▁gihumanye	-9.89755
▁byanjye	-9.8977
▁Simeyoni	-9.898
▁bwayo	-9.89862
▁mazina	-9.89911
inkambi	-9.89926
▁indwara	-9.90204
▁rumwe	-9.90206
▁ushobora	-9.90208
▁Abatambyi	-9.9026
▁Sara	-9.90321
era	-9.90366
▁bat	-9.90572
▁bavandimwe	-9.90773
▁bandi	-9.91257
ubwo	-9.91355
umuvandimwe	-9.91362
▁maraso	-9.91424
ntu	-9.91462
▁R	-9.91465
igitsina	-9.91999
▁baje	-9.92033
▁Loti	-9.92058
▁Kalebu	-9.92071
▁Sinayi	-9.92072
▁Nili	-9.92152
maze	-9.92161
▁buteye	-9.92192
▁Ahaziya	-9.92198
▁apfa	-9.92325
▁ejo	-9.9239
▁icururutsa	-9.92438
▁dore	-9.92491
▁Asheri	-9.92509
▁ahagana	-9.92522
▁rwabo	-9.92629
▁Isakari	-9.9263
▁yinjira	-9.92842
▁Uyu	-9.92931
▁cyayo	-9.93031
▁nzi	-9.93219
▁ukomeye	-9.9328
ukuboko	-9.93813
▁babonye	-9.94257
isanduku	-9.9427
imigi	-9.94299
kuko	-9.94324
inka	-9.94336
▁umugati	-9.94338
rwa	-9.94446
▁Id	-9.94481
raga	-9.94712
Hadadi	-9.94835
▁Leya	-9.94835
▁Shemaya	-9.94858
kubera	-9.94937
▁araza	-9.94946
▁yatanze	-9.94983
indi	-9.9502
▁mbuga	-9.95065
urugimbu	-9.95193
▁Hiramu	-9.95289
▁95	-9.95399
▁asubira	-9.95422
▁Abasiriya	-9.95602
▁wundi	-9.95627
▁akajya	-9.95675
61	-9.95695
▁gukiranuka	-9.95783
▁icumu	-9.95971
imbohe	-9.9628
▁urubyaro	-9.96399
▁bakajya	-9.96486
▁kumva	-9.96493
▁urwo	-9.96504
▁ro	-9.96594
▁itagira	-9.96626
▁ziri	-9.9664
▁muriro	-9.96655
▁nto	-9.96663
ara	-9.96726
abari	-9.96811
▁yatumye	-9.97229
▁mubi	-9.97265
▁nt	-9.97431
▁reka	-9.97463
▁kibe	-9.97507
▁Rebeka	-9.977
▁muka	-9.977
▁Yosiya	-9.977
▁Amunoni	-9.97704
intare	-9.97705
▁gisangirwa	-9.97712
▁imyobo	-9.97717
▁Abagaragu	-9.97726
▁rwerekeye	-9.97748
▁mwiza	-9.97755
▁biciyemo	-9.97755
▁ihakikije	-9.97762
▁Kora	-9.97763
▁Ha	-9.97777
▁Murwa	-9.97781
▁ahagarara	-9.97841
bo	-9.97854
▁azi	-9.97857
▁ntoki	-9.97887
▁ukundi	-9.9799
amatara	-9.97998
▁bibaya	-9.98101
impumuro	-9.98119
▁kugenda	-9.98131
▁Ruzi	-9.98133
▁Bowazi	-9.9815
▁Ndetse	-9.98152
▁kuboko	-9.98211
▁eshatu	-9.98213
▁Uriya	-9.98219
▁bazaba	-9.98282
▁birindwi	-9.98286
▁ga	-9.9841
be	-9.9848
▁Zf	-9.98579
isha	-9.98658
▁ivu	-9.9871
▁bavuye	-9.98726
urubyaro	-9.98844
▁73	-9.98859
▁bashinzwe	-9.98862
▁Ya	-9.98996
▁amagare	-9.99007
▁yeli	-9.99026
Sheba	-9.99147
nze	-9.9916
kira	-9.99197
▁86	-9.99249
▁ibisate	-9.99257
amapfizi	-9.99366
▁amatungo	-9.99456
▁basigaye	-9.995
▁urugamba	-9.99599
amagare	-9.99682
muri	-9.99694
▁132	-10.0014
▁noneho	-10.0023
▁yubaka	-10.0028
kazi	-10.0033
▁Z	-10.0035
▁Nyina	-10.0063
▁Seyiri	-10.0064
▁ubufindo	-10.0065
▁Maze	-10.0067
▁ubwanjye	-10.0067
ana	-10.0073
▁Umu	-10.0078
▁rwanjye	-10.0079
▁bakurikije	-10.0081
▁ubudodo	-10.01
▁Shilo	-10.011
▁umushyitsi	-10.0112
▁kumenya	-10.0121
▁mafarashi	-10.0137
izo	-10.015
▁maturo	-10.0158
▁ikiri	-10.017
▁rwari	-10.0174
▁imfizi	-10.0176
▁bakoze	-10.0197
▁umumarayika	-10.0201
▁gushyira	-10.024
▁itungo	-10.0266
▁kuki	-10.0273
▁kera	-10.028
▁mabuye	-10.0292
iya	-10.03
jambo	-10.0302
▁ese	-10.0304
▁impuhwe	-10.0309
▁igi	-10.0311
▁dufite	-10.0313
▁gukorera	-10.0337
▁icya	-10.0342
▁ifu	-10.0349
▁90	-10.035
▁Ujye	-10.0351
▁kwi	-10.0356
abahanuzi	-10.0356
▁Rusi	-10.0358
baza	-10.0361
aya	-10.0362
▁Sihoni	-10.0366
▁basubira	-10.0367
▁Kiriyati	-10.0367
▁Isi	-10.037
▁ukuntu	-10.0377
▁bimeze	-10.0378
▁mato	-10.0389
▁Ari	-10.0391
▁arasubiza	-10.0401
▁kubyara	-10.0406
▁mwijima	-10.0409
▁Gilugali	-10.0415
▁uzajya	-10.0419
uw	-10.042
▁yindi	-10.0447
▁Aya	-10.0449
▁Ubu	-10.045
Aba	-10.0459
amaso	-10.0482
▁haba	-10.0485
ine	-10.0491
amasederi	-10.052
▁mazu	-10.0531
▁Araba	-10.0533
Mu	-10.0538
▁yapfuye	-10.0548
▁94	-10.0554
▁ivanze	-10.0564
▁rayeli	-10.0578
▁izaba	-10.059
iryo	-10.0602
▁kuza	-10.0607
▁139	-10.0629
▁ageze	-10.0629
geze	-10.0631
uma	-10.0644
rira	-10.0648
▁Libani	-10.0679
▁Gibeyoni	-10.0679
▁Abiyatari	-10.068
▁ibisekuru	-10.068
▁Aramusubiza	-10.0681
▁barahaguruka	-10.0681
▁ijosi	-10.0681
▁Abahungu	-10.0682
▁kikiri	-10.0689
▁bikomeye	-10.0689
Dn	-10.069
ki	-10.0699
▁gukomera	-10.0704
▁cyanyu	-10.0709
▁nshya	-10.0711
tura	-10.0712
zamuka	-10.0715
he	-10.0721
nge	-10.0723
▁mukurikije	-10.0723
▁Iminsi	-10.0729
▁baturutse	-10.0739
▁li	-10.0747
▁yikubita	-10.0756
▁bagaragu	-10.0762
▁bicuzwe	-10.0763
64	-10.0769
akomeje	-10.0775
▁ikuzo	-10.0776
▁igitero	-10.078
▁harimo	-10.079
▁bakomeje	-10.0791
▁ukaba	-10.0793
▁utuye	-10.08
abiri	-10.0808
urubanza	-10.0814
she	-10.0822
▁enye	-10.0833
▁Nyamara	-10.0834
▁impano	-10.0838
▁iburasirazuba	-10.0877
ere	-10.0878
iza	-10.0888
bi	-10.0902
ubwoya	-10.0913
▁ndwara	-10.0923
▁iza	-10.0935
▁aramu	-10.0956
▁Abamoni	-10.0956
▁bagira	-10.0966
imana	-10.0984
imyaka	-10.099
bwire	-10.0991
▁Asafu	-10.0993
isine	-10.0997
▁Ezira	-10.0997
▁ishozi	-10.1003
▁italanto	-10.1035
▁byanditswe	-10.1037
▁iz	-10.1042
▁ntiya	-10.1043
▁Nuni	-10.1053
▁yahaye	-10.1059
▁ube	-10.1081
▁mitwe	-10.1087
▁yakomeje	-10.1094
▁byayo	-10.1095
mubwire	-10.1101
▁Tt	-10.1101
▁Zabuloni	-10.1107
▁bamuhamba	-10.111
▁bitambo	-10.1128
▁yabyo	-10.1131
▁bitanu	-10.1131
urusengero	-10.1136
ngwino	-10.1137
▁rukuta	-10.1153
▁muzaba	-10.1154
▁yumva	-10.1158
bere	-10.1166
▁ubwe	-10.1186
▁intama	-10.1189
▁bamu	-10.1196
▁Tamari	-10.1216
▁impanda	-10.1217
▁ahera	-10.1233
▁yabi	-10.125
inkingi	-10.1272
izindi	-10.1274
▁Yo	-10.1301
▁gituza	-10.1329
ibyakozwe	-10.133
Ababenyamini	-10.1334
▁ipima	-10.1347
▁rifite	-10.1364
▁biganza	-10.137
▁igoswe	-10.1372
▁hanze	-10.1373
ibihumbi	-10.1373
▁cyiza	-10.1375
▁kwica	-10.1382
▁ikibi	-10.1385
▁Izo	-10.1389
▁kunywa	-10.1399
▁ibindi	-10.1411
jya	-10.142
▁mukungugu	-10.1428
▁nubwo	-10.1444
▁bibi	-10.1454
▁babaruwe	-10.1463
▁munani	-10.1467
▁wakoze	-10.147
▁kindi	-10.1472
▁bana	-10.1495
▁haje	-10.1498
▁inshingano	-10.15
▁Umunsi	-10.1501
▁99	-10.1519
▁Beni	-10.1524
▁atuye	-10.1528
▁babona	-10.1535
▁zera	-10.1545
▁amoko	-10.1547
▁Si	-10.1558
▁Ababaruwe	-10.1558
abaririmbyi	-10.16
ro	-10.1608
Gileyadi	-10.1614
mwe	-10.162
retse	-10.1636
▁ubutaka	-10.1642
Umu	-10.1643
▁biba	-10.1651
▁Ishoborabyose	-10.1652
▁ibibembe	-10.1661
▁Ababenyamini	-10.1663
▁Heshiboni	-10.1671
▁amaturo	-10.1673
▁yubamye	-10.1673
▁yabitegetse	-10.1674
▁Bahaguruka	-10.1674
▁ne	-10.1682
▁74	-10.1683
shobora	-10.1685
▁hino	-10.1687
▁145	-10.169
▁Nza	-10.1694
▁yicaye	-10.1702
▁ibe	-10.1709
▁yakoreye	-10.1709
▁bazi	-10.1715
▁bakobwa	-10.1719
Abanyakanani	-10.1732
▁rundi	-10.1733
▁Ishimayeli	-10.1733
▁asana	-10.1739
▁igiciro	-10.1739
▁biti	-10.1748
▁rutare	-10.1755
▁azana	-10.1767
▁ibiganza	-10.1792
▁Mikaya	-10.1796
▁Aha	-10.1803
iyi	-10.1805
iy	-10.1819
gire	-10.1831
▁akoranya	-10.1831
▁bamenya	-10.1836
▁53	-10.1841
batware	-10.1861
ibya	-10.1864
▁yaje	-10.19
▁iburyo	-10.1918
▁Nguko	-10.192
icyenda	-10.1933
oya	-10.194
▁ugiye	-10.1962
▁Abanyakanani	-10.1966
▁imeze	-10.1987
56	-10.2001
bonye	-10.2024
▁Obedi	-10.2028
▁rizunguzwa	-10.2029
▁urunuka	-10.2029
▁Reka	-10.2029
▁myenda	-10.2041
▁nd	-10.2042
▁batambyi	-10.2044
▁barindwi	-10.2053
ikimasa	-10.2057
▁arasohoka	-10.2057
vuga	-10.206
umwenda	-10.2065
▁izuba	-10.2068
iby	-10.2069
▁zanyu	-10.2073
▁yombi	-10.2076
ure	-10.208
▁mirima	-10.2081
Abayebusi	-10.2088
▁shobuja	-10.209
yeli	-10.2095
▁bata	-10.2105
▁mugabane	-10.2116
▁yi	-10.2116
▁ashyira	-10.2131
▁ryera	-10.2162
▁ikomeye	-10.2165
irindwi	-10.2177
tegeka	-10.2183
▁arangije	-10.2188
▁isoni	-10.219
▁bikoresho	-10.2202
▁bato	-10.2202
abarinzi	-10.2203
▁115	-10.221
arongera	-10.2211
▁Adoniya	-10.2216
ubugari	-10.2218
▁bakuru	-10.2221
▁Se	-10.2222
▁abigenza	-10.2224
▁magare	-10.2228
▁Bu	-10.2243
Rm	-10.2245
go	-10.2254
bwiye	-10.2257
abaja	-10.2271
▁yabahaye	-10.2278
▁Iyi	-10.229
▁impeta	-10.2331
▁nini	-10.2357
tangira	-10.2361
▁Abiya	-10.2375
▁ibishushanyo	-10.2377
amagambo	-10.2377
▁inkuru	-10.2388
umunyinya	-10.2399
ubutambyi	-10.2399
▁ibirindiro	-10.2399
▁Shalumu	-10.24
▁Yeshuwa	-10.2401
▁vuba	-10.2404
▁ino	-10.2407
▁Uziya	-10.241
▁Nk	-10.2413
▁bateranira	-10.2417
▁kuguha	-10.2421
▁bube	-10.2425
▁icuzwe	-10.2427
▁Abwira	-10.2429
▁Ima	-10.2438
▁bizaba	-10.2453
▁biza	-10.2455
▁gushaka	-10.2457
▁umurambo	-10.2462
▁ingano	-10.2466
68	-10.2474
vugana	-10.2482
Yb	-10.2515
▁acura	-10.2519
Abanyegiputa	-10.2525
▁gicu	-10.2527
▁amahembe	-10.2528
▁bumva	-10.2531
bu	-10.2534
▁ibirenge	-10.254
▁147	-10.2561
▁riri	-10.2562
▁inzozi	-10.2591
amafarashi	-10.264
▁ayi	-10.2643
▁agomba	-10.2671
▁baz	-10.2673
▁bakaba	-10.2675
mbese	-10.2691
data	-10.2695
▁Mujye	-10.2716
▁ah	-10.2728
▁abaha	-10.2729
▁umubiri	-10.275
tera	-10.2768
shyira	-10.2772
uza	-10.2773
▁Ahasuwerusi	-10.2783
▁Kadeshi	-10.2783
▁Merari	-10.2783
▁Bakomeza	-10.2789
▁yabyaranye	-10.279
▁Kuva	-10.2791
▁twose	-10.2791
▁batyo	-10.2797
▁bitagira	-10.2808
cc	-10.281
▁kuzana	-10.2824
▁kinini	-10.2829
nya	-10.2831
▁yazo	-10.284
▁Yefuta	-10.2848
▁Mwami	-10.2849
▁80	-10.285
59	-10.2855
▁urw	-10.2857
▁Misipa	-10.2862
▁mugoroba	-10.2865
▁irindi	-10.2878
▁muto	-10.2881
▁rubyaro	-10.2883
umunsi	-10.2888
▁Ibi	-10.2902
▁ata	-10.2903
rababwira	-10.2908
▁baha	-10.291
▁hema	-10.2911
▁Ndakwinginze	-10.2915
imi	-10.2924
▁umuriro	-10.2926
ravuga	-10.2952
▁bazana	-10.2955
▁Gu	-10.2959
▁bwari	-10.2964
Niba	-10.2972
imbuto	-10.2973
umwimukira	-10.2981
▁mbo	-10.2991
▁buriri	-10.3
▁guhagarara	-10.301
▁Basha	-10.3021
umuhanga	-10.3021
70	-10.3029
itwara	-10.304
ibirenge	-10.3045
Yk	-10.3045
▁nyu	-10.3047
▁ashobora	-10.3047
▁itsinda	-10.3073
umwaka	-10.3073
▁gutegeka	-10.3074
komeza	-10.3083
▁akarere	-10.3087
abagendera	-10.3094
▁umwijima	-10.3145
▁urugendo	-10.3146
▁96	-10.316
ibyishimo	-10.3169
▁ubutwari	-10.3175
▁bamara	-10.3176
▁Abishayi	-10.3183
inehasi	-10.3183
▁Sisera	-10.3183
▁rikomeye	-10.3186
▁intege	-10.3186
▁kwambuka	-10.3187
▁Zera	-10.319
▁byombi	-10.319
▁buvumo	-10.3202
▁Sa	-10.3208
▁yambaye	-10.3212
▁bushake	-10.3213
▁Uw	-10.3215
▁bwanyu	-10.3216
▁aramanuka	-10.3222
▁buntu	-10.3225
▁bitandatu	-10.3239
▁icyorezo	-10.3244
▁kuvugana	-10.3248
▁urugabano	-10.325
amagana	-10.3257
▁Nimu	-10.3287
▁Nawomi	-10.3317
ubuki	-10.3331
▁ibice	-10.3331
▁Ahiya	-10.3341
▁cyera	-10.3342
amahoro	-10.3344
▁amapfizi	-10.3347
emo	-10.3351
jwe	-10.337
▁igishushanyo	-10.3373
buri	-10.3375
▁gutera	-10.3383
▁bane	-10.3385
▁uburenganzira	-10.339
▁bageze	-10.3394
inyuma	-10.3397
imyambaro	-10.3397
▁yamu	-10.3399
▁batura	-10.3415
no	-10.3416
▁ib	-10.3431
▁muhanuzi	-10.3443
▁wera	-10.3458
ishe	-10.3459
Abasiriya	-10.3474
▁cyaha	-10.3492
▁iriba	-10.3492
▁inkambi	-10.3507
kugira	-10.3509
▁ibiti	-10.351
▁kwigomeka	-10.3588
▁Meshulamu	-10.36
▁Yabeshi	-10.36
Shemeshi	-10.36
▁Abigayili	-10.36
▁Hilukiya	-10.36
▁Bukeye	-10.36
▁yarabitegetse	-10.36
▁Nabali	-10.36
▁Nebati	-10.36
▁sayiri	-10.36
▁Seruya	-10.36
▁Yezebeli	-10.36
▁ntiyigeze	-10.36
▁sebukwe	-10.3601
▁ruhanga	-10.3601
▁Akomeza	-10.3608
▁gato	-10.3614
▁musaza	-10.3619
▁tujye	-10.3625
▁mwanya	-10.3625
▁ngutegeka	-10.3628
▁kigeze	-10.3633
▁tununga	-10.3633
ib	-10.3633
▁mukumbi	-10.3639
▁iy	-10.3648
▁bab	-10.365
▁atyo	-10.3655
▁amasekurume	-10.3664
▁Umumarayika	-10.367
▁kubana	-10.3674
▁muhungu	-10.368
▁bisate	-10.369
sanga	-10.3693
▁arazamuka	-10.3708
▁yahawe	-10.3731
mufate	-10.3737
▁yubatse	-10.3747
▁ntiba	-10.3754
▁bifite	-10.3755
▁yuzuye	-10.3757
▁ndogobe	-10.3757
▁wavuze	-10.3758
zana	-10.376
waga	-10.3763
uruzi	-10.3766
owe	-10.377
▁kumu	-10.3783
▁nzaba	-10.3788
ibyaha	-10.3802
▁kub	-10.3816
▁ag	-10.382
▁Sheba	-10.3824
rimo	-10.3839
▁kubaha	-10.3842
▁81	-10.3852
▁riba	-10.3865
65	-10.387
sa	-10.3901
geza	-10.3907
Abayuda	-10.3936
ngaho	-10.3957
▁Bi	-10.3967
▁ta	-10.3968
▁umwamikazi	-10.397
▁tse	-10.3973
▁ngu	-10.3985
▁yuda	-10.3993
▁Irembo	-10.3994
▁ibiki	-10.4009
mugende	-10.4013
ibumoso	-10.4015
▁mpa	-10.4022
Am	-10.4025
▁Karumeli	-10.4035
▁Negebu	-10.4035
▁Yubile	-10.4035
▁Elukana	-10.4035
▁Kohati	-10.4035
▁riranguruye	-10.4035
Igihamya	-10.4035
▁Yehowahazi	-10.4035
▁Hazayeli	-10.4035
▁Kishi	-10.4035
▁Nyanja	-10.4035
▁cyagenwe	-10.4035
korera	-10.4036
▁ibihembo	-10.4037
▁azamese	-10.4039
▁bugende	-10.4054
▁ibumoso	-10.4054
▁nkombe	-10.4056
▁zacyo	-10.4061
▁bahaguruka	-10.4068
itirirwa	-10.4068
asanga	-10.4071
▁mahema	-10.4073
▁ukingiriza	-10.4086
▁bashaka	-10.4104
▁NEHEMIYA	-10.4105
haguruka	-10.4107
▁Nanjye	-10.411
▁ahateganye	-10.4114
▁bikwiriye	-10.4121
▁bag	-10.4125
bihuje	-10.4136
▁mpinga	-10.414
▁bayi	-10.4142
kura	-10.4149
Ku	-10.4171
▁bavuza	-10.4177
▁utununga	-10.4179
▁Amaraso	-10.4181
▁ahandi	-10.4208
Ab	-10.4215
▁bica	-10.4229
Ibh	-10.4233
ke	-10.4234
tu	-10.4245
▁intumbi	-10.4252
▁umucamanza	-10.4254
mba	-10.4258
▁umugaba	-10.4263
▁ntiy	-10.4273
▁gitambaro	-10.4274
aka	-10.4286
▁ibikorwa	-10.431
▁waje	-10.4317
bwo	-10.4324
▁Uzi	-10.4341
▁byawe	-10.4356
▁icy	-10.4381
▁148	-10.4389
▁bakoraga	-10.4395
rya	-10.4413
▁97	-10.4413
amaboko	-10.4421
▁Imigi	-10.4424
waho	-10.4433
▁baho	-10.4454
▁ut	-10.4471
ubuhungiro	-10.4474
icuraburindi	-10.4489
▁Hadadezeri	-10.4489
Abaperizi	-10.4489
agahato	-10.4489
▁Ogi	-10.4489
▁Arunoni	-10.449
▁Ramoti	-10.449
umunyambaraga	-10.449
▁Mufilisitiya	-10.449
▁yabyariye	-10.4495
▁gatandatu	-10.4499
▁babigenza	-10.4501
ay	-10.4502
shi	-10.4503
ibibembe	-10.4505
▁yatoranyije	-10.4506
▁ntiyari	-10.4506
▁yab	-10.4509
▁Undi	-10.4509
ayi	-10.4511
▁hirya	-10.4512
▁yakoraga	-10.4515
Ef	-10.4528
▁uzakora	-10.4528
▁Im	-10.453
▁gitereko	-10.4532
▁bwami	-10.4546
▁bihugu	-10.4549
▁Obadiya	-10.4562
▁bukuru	-10.4563
▁ibizingiti	-10.4566
▁Abana	-10.4571
▁akurikiraho	-10.4583
▁ubwawe	-10.4584
hereza	-10.4592
▁Umwe	-10.4595
ranye	-10.4605
▁ahitwa	-10.4638
▁abasore	-10.464
▁wigeze	-10.4647
▁aje	-10.4652
▁127	-10.4656
▁ubabwire	-10.4659
None	-10.4659
▁barimo	-10.4678
▁tuza	-10.4679
▁yawo	-10.4684
▁te	-10.4686
▁ihembe	-10.469
▁amubwira	-10.4695
▁Ahera	-10.4703
▁ugomba	-10.4715
▁umucyo	-10.4716
▁ishyanga	-10.4719
imu	-10.4725
▁arakarira	-10.4735
▁Muza	-10.4735
urira	-10.4736
umutware	-10.4744
▁atanga	-10.4748
amashyo	-10.4763
▁igice	-10.4771
▁ikiganza	-10.4776
▁bahanuzi	-10.4785
▁mbwira	-10.4796
▁gusenga	-10.4797
ndahiye	-10.4799
▁ugende	-10.48
▁nyama	-10.4838
▁cyuzuye	-10.4842
▁yitwa	-10.4853
ikintu	-10.4882
▁ng	-10.4882
▁izi	-10.4911
▁bite	-10.4918
▁abi	-10.4926
▁azafate	-10.4929
▁ikaba	-10.494
▁imbaho	-10.4948
ubwenge	-10.4964
▁isengesho	-10.4965
▁Sodomu	-10.4965
▁Timuna	-10.4965
▁Yotamu	-10.4965
▁biyunze	-10.4965
▁Nadabu	-10.4966
▁gitambwa	-10.4966
▁Urwo	-10.4967
▁Umuhungu	-10.4967
▁Makiri	-10.4967
▁Eliyabu	-10.4967
▁ntibyanditse	-10.4968
▁Abeli	-10.4969
▁Ingabo	-10.497
▁Akishi	-10.497
▁Maka	-10.4975
▁Nubwo	-10.4976
▁Shela	-10.4976
▁kumvira	-10.4977
Edomu	-10.498
▁kibazo	-10.4982
ibwami	-10.4987
▁yagiraga	-10.4992
akuye	-10.5005
▁ntumbi	-10.5011
▁bajyana	-10.5013
babwire	-10.5013
▁yabaye	-10.5026
▁ibicaniro	-10.5028
▁mpera	-10.5031
icyubahiro	-10.5032
▁iwawe	-10.5036
▁bumvise	-10.5054
▁mpeta	-10.5071
▁ukurikije	-10.509
bwa	-10.5099
▁T	-10.5102
▁nz	-10.5115
imikumbi	-10.5118
akarere	-10.5122
▁imitima	-10.5127
▁kawe	-10.5142
riye	-10.5151
umuyaga	-10.5153
▁mutware	-10.5162
ije	-10.5163
▁amenya	-10.5163
▁utari	-10.5168
igicu	-10.5176
Umugabo	-10.5177
▁yicara	-10.5179
▁144	-10.5193
▁bongera	-10.5195
▁Abamidiyani	-10.5199
▁nsi	-10.5199
▁ziti	-10.5205
▁Umugore	-10.5206
▁Uri	-10.5207
▁nyamaswa	-10.5212
▁77	-10.5227
▁abarinzi	-10.5229
▁haza	-10.5236
sigaye	-10.5251
▁Abamaleki	-10.5258
reke	-10.5259
▁imi	-10.5278
aza	-10.5278
▁intebe	-10.5286
gwa	-10.5292
▁yatanzwe	-10.5293
▁109	-10.5293
ve	-10.5297
▁ikomeza	-10.5309
▁mugende	-10.5317
aha	-10.5319
▁babaru	-10.5319
gura	-10.5328
gize	-10.5333
▁akura	-10.5345
umwa	-10.5357
umukobwa	-10.5379
itandatu	-10.538
▁ibuye	-10.538
▁Hanani	-10.5397
▁bayo	-10.5414
▁Da	-10.5417
▁gare	-10.5428
mubwira	-10.5429
inkota	-10.5436
inyenyeri	-10.5442
▁Hana	-10.5461
▁bukaraze	-10.5465
▁kwicwa	-10.5466
▁Hamati	-10.5466
▁Itamari	-10.5466
▁gutata	-10.5466
▁Yoweli	-10.5467
▁Namani	-10.5467
▁rinini	-10.5469
▁Kuro	-10.5471
▁kwambara	-10.5471
▁gukomeye	-10.5472
▁barazamuka	-10.5472
▁Shemu	-10.5473
▁gituma	-10.5476
▁rwacyo	-10.5477
kora	-10.5486
ngwa	-10.5488
▁yarahiye	-10.5489
Kandi	-10.5495
▁bashinga	-10.5501
▁urya	-10.5509
Gl	-10.5513
▁Abamowabu	-10.5515
▁abishyira	-10.5517
▁abagize	-10.5518
mpa	-10.5522
▁ntimu	-10.5528
▁mpande	-10.5531
▁Iteraniro	-10.5545
umwuka	-10.5573
abwiye	-10.5589
none	-10.5592
inzara	-10.5627
▁Naboti	-10.5628
▁Mwa	-10.5645
▁jyewe	-10.5651
▁bake	-10.5657
▁mwese	-10.5658
▁amafarashi	-10.5665
▁amenye	-10.5669
ikiganza	-10.5672
▁uku	-10.5676
▁inka	-10.5677
▁baramu	-10.5686
▁isekurume	-10.5703
urukuta	-10.5704
▁iba	-10.5707
▁amababa	-10.5707
▁turo	-10.5708
so	-10.5716
▁146	-10.5724
ingamiya	-10.5725
▁nzajya	-10.5733
▁Azaba	-10.5737
bera	-10.576
icyuma	-10.5761
▁mbona	-10.5766
▁twari	-10.578
▁avuye	-10.5784
▁aga	-10.5787
▁nte	-10.579
▁ibikomangoma	-10.5814
▁kibi	-10.5823
Amen	-10.583
▁ako	-10.5856
▁bita	-10.5859
nde	-10.5873
ose	-10.588
▁inzugi	-10.5889
ibiguruka	-10.5899
▁mavuta	-10.5959
▁Abandi	-10.5982
Umuheti	-10.5992
▁Keyila	-10.5992
▁Manowa	-10.5992
▁Shushani	-10.5992
▁burundu	-10.5992
▁umumaro	-10.5992
Yeyarimu	-10.5992
▁itarengeje	-10.5992
▁Elifazi	-10.5992
▁Balewi	-10.5992
▁Damasiko	-10.5992
▁wakomotsweho	-10.5992
▁Muzatambe	-10.5993
abanyazi	-10.5993
▁kibajwe	-10.5994
imyelayo	-10.5994
▁Cyane	-10.5994
▁isano	-10.5995
▁bahuriraho	-10.5995
▁igico	-10.5996
▁Aramubwira	-10.5996
▁azatoranya	-10.5997
uburetwa	-10.5998
abazabakomokaho	-10.5998
igarurira	-10.5999
▁Aravuga	-10.6001
▁Ara	-10.6001
▁byacyo	-10.6003
▁Ela	-10.6004
impyiko	-10.6004
▁zigenda	-10.6005
▁Itukura	-10.6007
▁Nahori	-10.6008
▁ntumwa	-10.6009
▁uka	-10.6015
▁ingana	-10.6015
▁ushinzwe	-10.6015
▁yiruka	-10.6018
uru	-10.6029
▁tujyane	-10.6038
Hs	-10.604
▁kwabo	-10.6045
▁kuruza	-10.6056
▁Eni	-10.6057
▁bamuzanira	-10.6065
korere	-10.6065
▁binjira	-10.6073
▁Amoni	-10.6075
▁amusimbura	-10.6075
▁rwayo	-10.6082
▁mbe	-10.6092
Mk	-10.6099
▁busitani	-10.6101
▁muzajya	-10.6104
ahantu	-10.6111
▁ameza	-10.6113
▁azazane	-10.6116
▁abwi	-10.6119
in	-10.614
57	-10.614
itegeko	-10.6152
▁bahagarara	-10.6157
oti	-10.6159
19–	-10.6162
▁igikombe	-10.6162
▁ububasha	-10.6163
▁ubushobozi	-10.6164
meze	-10.6164
▁bam	-10.6178
ngo	-10.618
shinga	-10.6186
▁nzozi	-10.619
te	-10.6194
▁mushobora	-10.6198
▁ita	-10.6206
▁mbyi	-10.6216
▁arambura	-10.6218
▁nkuru	-10.6219
isabato	-10.6221
▁nkuta	-10.6223
ibisate	-10.6237
▁imikono	-10.6242
yajyaga	-10.6243
turi	-10.6243
▁uturutse	-10.6261
wo	-10.6265
▁ruri	-10.6268
▁abibonye	-10.6274
koreye	-10.6276
▁batwara	-10.6278
teye	-10.6279
▁Bara	-10.6279
Abamidiyani	-10.6281
babere	-10.6288
cyo	-10.6289
isekurume	-10.6315
▁ureke	-10.6335
▁ibirori	-10.6343
Est	-10.6346
▁biteye	-10.6348
ahandi	-10.6349
umva	-10.6354
▁bah	-10.6366
▁Uz	-10.6377
Umulewi	-10.6387
▁akiriho	-10.6391
▁64	-10.6391
▁Data	-10.6413
fite	-10.6422
ubuhagarike	-10.6423
▁bakore	-10.6428
mureke	-10.6428
▁mwari	-10.6443
▁imbe	-10.6449
ubwire	-10.6451
▁aki	-10.6452
▁gutaka	-10.6461
komeze	-10.6467
Abakohati	-10.647
umupfakazi	-10.6472
akomokwa	-10.6474
▁136	-10.6489
rye	-10.6505
▁mugiye	-10.6525
▁Afata	-10.6534
▁kun	-10.6541
Ikirenga	-10.6547
▁Lakishi	-10.6547
▁Gehazi	-10.6547
eshanu	-10.6547
▁umugogo	-10.6548
▁umugongo	-10.6548
▁Batisheba	-10.6548
▁ngombwa	-10.6548
▁ukore	-10.6548
▁yakomotsweho	-10.6548
▁Baramusubiza	-10.6549
▁guverineri	-10.6549
▁Sarayi	-10.6549
▁ingwate	-10.655
▁yabategetse	-10.6551
▁Ko	-10.6552
abanyamahanga	-10.6553
▁nyoko	-10.6553
▁igitabo	-10.6555
▁riza	-10.6556
▁kurimburwa	-10.6556
nimugende	-10.6557
▁ahumura	-10.6558
▁uwera	-10.6562
▁nkuge	-10.6562
▁batandatu	-10.6572
▁cyacyo	-10.6572
▁aryamana	-10.6575
▁bubiko	-10.6576
▁ibanga	-10.6589
▁batari	-10.659
▁byuzuye	-10.6592
▁musore	-10.6598
▁kizabe	-10.6598
▁bambaye	-10.6607
▁tungo	-10.6609
▁nkengero	-10.6615
▁bashoboye	-10.6616
gi	-10.6627
▁bahagaze	-10.6629
▁Umwuka	-10.663
▁mfizi	-10.663
▁Asaheli	-10.663
▁Ahimeleki	-10.6631
▁umwambaro	-10.6633
▁Abagabo	-10.6635
▁76	-10.6654
iriza	-10.6659
▁kanjye	-10.6659
▁bizingiti	-10.6665
umuganura	-10.6666
▁umeze	-10.6666
anye	-10.6681
▁akimara	-10.6681
▁ryayo	-10.6697
▁arahindukira	-10.6705
▁Az	-10.6719
▁Kayini	-10.6726
▁Harani	-10.6726
Abantu	-10.6732
▁gusanganira	-10.6736
zane	-10.6757
▁gice	-10.6762
Dawidi	-10.6764
▁ur	-10.6765
kubita	-10.6766
ahura	-10.6775
vu	-10.6786
▁inzabibu	-10.6789
▁kongera	-10.6802
▁kwinjira	-10.6811
▁mama	-10.6815
areka	-10.6815
▁ikoraniro	-10.6822
▁ubugari	-10.6829
▁ivuga	-10.6845
ibyago	-10.6845
▁wumve	-10.6847
umuja	-10.6853
umubavu	-10.6856
▁urukuta	-10.6867
habwa	-10.6868
▁atagira	-10.6871
▁abimukira	-10.6871
ubuzima	-10.6875
▁bakorera	-10.6882
▁D	-10.6886
▁Abamori	-10.689
▁umenye	-10.6898
imfizi	-10.6898
hagarara	-10.6901
▁inkwi	-10.6912
▁ukagera	-10.6916
▁bagende	-10.6929
▁bwaho	-10.6929
▁ukomeza	-10.6934
subira	-10.6935
▁ntihagire	-10.6938
▁amezi	-10.6945
ugire	-10.6949
▁imikumbi	-10.6952
mwami	-10.696
▁Nti	-10.6961
▁kuzamuka	-10.6961
▁Abarubeni	-10.6967
Zk	-10.6967
iz	-10.697
▁menye	-10.6972
ibyuma	-10.6976
emera	-10.699
urwo	-10.699
shyire	-10.7005
reba	-10.702
▁umurima	-10.703
ibwira	-10.7052
▁ashyiraho	-10.7058
yeho	-10.7058
▁im	-10.7059
urubura	-10.7068
abacamanza	-10.7069
▁Amasa	-10.707
injira	-10.7072
▁am	-10.7085
▁cyaba	-10.7112
▁agakiza	-10.7121
▁67	-10.7122
▁Eliyashibu	-10.7136
▁Tirusa	-10.7136
▁Tobiya	-10.7136
▁ZAB	-10.7136
▁Maseya	-10.7136
▁Ataliya	-10.7136
▁kirekire	-10.7136
▁Ekuroni	-10.7136
▁Mataniya	-10.7136
▁Omuri	-10.7136
▁gitemba	-10.7136
▁azatangaze	-10.7137
▁gucumura	-10.7138
▁birangiye	-10.714
▁Abavandimwe	-10.7141
▁yamutegetse	-10.7141
▁urwaye	-10.7142
▁Huri	-10.7146
umupfundikizo	-10.7148
▁zabyo	-10.7149
▁ibakure	-10.7154
▁Bose	-10.7154
▁gikozwe	-10.7157
▁Hori	-10.7158
▁batanze	-10.7163
▁Siba	-10.7163
icy	-10.7164
▁tuti	-10.7167
meza	-10.7175
▁munwa	-10.7178
▁Gaza	-10.7191
▁yohereje	-10.7194
▁yiyuhagire	-10.7196
▁mubiri	-10.7197
icyumba	-10.7199
▁Ahitofeli	-10.7206
▁bakoreraga	-10.7217
▁akurwe	-10.722
▁EZIRA	-10.7221
shaka	-10.7222
ubw	-10.7222
▁Hesironi	-10.7225
▁yigarurira	-10.7226
ita	-10.7232
▁bahabwa	-10.7235
80	-10.7236
▁amata	-10.7238
▁amushyira	-10.7259
▁gufata	-10.726
izina	-10.7262
▁asaba	-10.7268
▁ahagaze	-10.7287
ic	-10.7288
▁rugendo	-10.7291
▁imijishi	-10.7294
zanire	-10.7297
utwara	-10.7302
komeje	-10.7303
▁midugudu	-10.7308
▁rwanyu	-10.7322
▁urutoki	-10.7323
fatiro	-10.7323
▁ikanzu	-10.7326
▁bagize	-10.7327
▁ibinyoma	-10.7328
▁Abi	-10.7333
▁Ituro	-10.7334
▁amagufwa	-10.7341
▁Abami	-10.7344
bura	-10.7354
▁tugiye	-10.7381
▁bikaba	-10.7382
▁umukumbi	-10.7386
▁yita	-10.7387
▁ate	-10.7399
eza	-10.7403
▁ubwinshi	-10.7423
manuka	-10.7446
kure	-10.7447
imbaraga	-10.7447
▁ashinzwe	-10.7458
▁ikirenge	-10.748
▁62	-10.7483
▁wishe	-10.7484
ababi	-10.7484
imyenda	-10.7489
▁ijisho	-10.7492
▁kubaza	-10.7499
▁Abari	-10.7505
▁ubona	-10.7515
zamuke	-10.7518
▁kira	-10.7523
umuhanuzi	-10.7549
▁kurwanya	-10.7552
▁Ana	-10.7554
▁ameze	-10.7558
Abayahudi	-10.7558
mbuka	-10.7559
▁ijya	-10.7572
ibimasa	-10.7574
▁baturage	-10.7577
▁bakomoka	-10.7584
bari	-10.7586
▁ubwire	-10.7593
▁bararya	-10.7598
▁ruza	-10.7613
▁aku	-10.7634
ongera	-10.7653
Isirayeli	-10.7662
▁sin	-10.768
rambura	-10.7689
ejo	-10.7693
uye	-10.7697
kubise	-10.7697
▁ig	-10.7698
▁umwanzi	-10.7719
umukono	-10.7731
▁bakiri	-10.7735
▁byaba	-10.7744
uburiza	-10.7744
▁gihu	-10.7758
▁Ahitubu	-10.7761
▁Debora	-10.7761
▁Eguloni	-10.7761
▁Mefibosheti	-10.7761
▁Sikulagi	-10.7761
▁Sukoti	-10.7761
▁Horebu	-10.7761
▁Shafani	-10.7761
▁Yehiyeli	-10.7761
▁Hemani	-10.7761
▁amaherezo	-10.7761
▁Sedekiya	-10.7761
▁Elihu	-10.7761
Abagerushoni	-10.7761
Abaheti	-10.7762
▁Uziyeli	-10.7762
▁Mikali	-10.7763
▁mikuru	-10.7764
▁icyiza	-10.7764
▁umwanya	-10.7765
▁kwigarurira	-10.7765
igiheburayo	-10.7765
▁imigabane	-10.7765
▁byazo	-10.7767
nimuze	-10.7768
▁ahumanutse	-10.777
abahanga	-10.7772
▁Neri	-10.7773
▁cyemejwe	-10.7775
▁batigeze	-10.7777
▁yampaye	-10.7778
▁baramusubiza	-10.778
▁basingiza	-10.7781
gatera	-10.7785
▁yategekaga	-10.7788
▁abahanuzi	-10.7789
▁atura	-10.779
▁arambwira	-10.7792
▁hini	-10.7792
ikibaya	-10.7797
▁agaruka	-10.7797
▁75	-10.781
kintu	-10.7813
▁atunze	-10.7814
▁91	-10.7819
▁bagomba	-10.7821
▁ntonnye	-10.7822
▁uvuga	-10.7824
▁gukomeza	-10.7826
▁bikubita	-10.7827
▁bubaka	-10.7835
kuruta	-10.7837
▁muzi	-10.7843
▁Ahimasi	-10.7851
mwa	-10.7864
▁mumenye	-10.7876
amakuba	-10.7877
▁ug	-10.7878
mbaraga	-10.7878
Nu	-10.7879
▁kari	-10.7883
▁shyanga	-10.7886
▁war	-10.789
ahabwa	-10.7894
▁yaravuze	-10.7898
ubaka	-10.79
tega	-10.7906
▁bamuha	-10.7907
▁ruka	-10.791
▁impu	-10.7911
▁arabasubiza	-10.7911
▁inkuta	-10.7912
tinya	-10.7916
▁mbese	-10.7921
▁basubiza	-10.7925
▁banga	-10.7932
▁ibyuma	-10.7938
▁ntari	-10.7941
▁guca	-10.7951
▁bimasa	-10.7954
sezerano	-10.7954
▁adahumanye	-10.7955
wi	-10.7956
▁mahembe	-10.7958
▁Hasori	-10.7959
▁Peresi	-10.7959
▁yishe	-10.797
▁Ubwo	-10.7975
▁murya	-10.7982
▁zitwa	-10.7987
▁babe	-10.7996
Abaheburayo	-10.8005
mana	-10.8006
▁isambu	-10.801
▁ukwezi	-10.8013
▁Be	-10.8014
▁mukomeza	-10.8014
▁tega	-10.802
▁agahinda	-10.8025
amahwa	-10.8034
▁ibyari	-10.8037
▁Ashyira	-10.8043
▁nyi	-10.8049
▁indirimbo	-10.8067
▁Umunaziri	-10.8069
▁Yesaya	-10.807
▁ugeze	-10.807
▁Ntimukagire	-10.8071
▁mbuto	-10.8076
bisobanuro	-10.8107
inzira	-10.8119
yose	-10.812
Nuko	-10.8141
asigaye	-10.8151
▁ukuri	-10.8157
Dore	-10.8172
▁bikorwa	-10.818
imwe	-10.819
▁wako	-10.8193
▁umunani	-10.8195
itako	-10.8196
ag	-10.8199
▁Nu	-10.8202
zo	-10.8207
▁mo	-10.8216
▁ntaza	-10.8229
▁aturutse	-10.8234
akoreshejwe	-10.8241
ica	-10.8249
▁bik	-10.8253
baga	-10.8267
zwe	-10.8274
▁yagiye	-10.8276
▁urebe	-10.8283
enda	-10.8298
uburebure	-10.83
zaga	-10.8301
ramo	-10.8309
▁mube	-10.831
amabwiriza	-10.8321
▁mut	-10.8323
▁ashinga	-10.8328
imvura	-10.8346
▁ubi	-10.8354
vuye	-10.8358
▁rusalemu	-10.8365
▁wabaye	-10.8367
yanditse	-10.8375
kwiriye	-10.8375
agendaga	-10.8379
italanto	-10.8383
62	-10.8387
ukuntu	-10.8389
▁akanwa	-10.8397
▁nihagira	-10.8398
▁Aroweri	-10.8427
▁Hashabiya	-10.8427
▁IGITABO	-10.8427
▁Befurayimu	-10.8427
▁Gezeri	-10.8427
Umwisirayeli	-10.8427
▁Amuramu	-10.8427
▁Urugabano	-10.8428
▁runaka	-10.8428
Umunyu	-10.8428
▁inteko	-10.8428
uwishwe	-10.8428
▁Satani	-10.8428
▁Dawi	-10.8428
▁Hagari	-10.8429
▁yarabivuze	-10.8429
▁Geba	-10.843
▁bigatuma	-10.843
▁barahunga	-10.8431
ibona	-10.8432
inuma	-10.8433
▁Elamu	-10.8433
▁Isiraye	-10.8435
▁bigaragara	-10.8437
▁zifite	-10.8438
▁byerekeza	-10.8443
▁idirishya	-10.8444
▁kuriramo	-10.8444
▁basana	-10.8445
▁barangije	-10.8447
nd	-10.8452
umukungugu	-10.8454
▁genda	-10.8457
▁kwita	-10.8464
▁bakoresheje	-10.8464
umwanzi	-10.8476
▁ndirimbo	-10.8483
kurikira	-10.8487
akanwa	-10.8492
▁ururimi	-10.8492
▁Buyu	-10.8499
inshoreke	-10.85
▁Amazi	-10.85
▁Bani	-10.8504
izi	-10.851
anga	-10.8516
▁abashobora	-10.8516
▁yagize	-10.8519
▁iramubwira	-10.8522
▁buba	-10.8522
▁Buperesi	-10.8523
▁nzabaha	-10.8524
bitambo	-10.8527
▁turere	-10.8529
▁bajyaga	-10.8534
▁ategura	-10.8543
▁nabonye	-10.8546
▁Amaso	-10.8548
uruhu	-10.8554
ashoboraga	-10.856
▁namara	-10.8562
▁awu	-10.8564
ibifite	-10.8564
ge	-10.8581
▁ban	-10.8584
eka	-10.859
▁ik	-10.8592
amaguru	-10.8595
byo	-10.8605
▁Mi	-10.8609
mi	-10.8613
▁utwo	-10.8617
sohora	-10.8622
▁yaryo	-10.8627
▁ibyumba	-10.8636
▁inyamaswa	-10.8636
▁imbabazi	-10.8638
▁agende	-10.8649
▁bwoya	-10.8655
▁azabaha	-10.8656
izababere	-10.8657
▁Ntimuza	-10.8664
▁wazaga	-10.8666
ibimera	-10.867
▁ngoro	-10.8678
▁wahawe	-10.8682
▁61	-10.8684
▁nya	-10.8684
▁yabaga	-10.8684
▁utinya	-10.8687
an	-10.8705
rire	-10.8733
▁imirima	-10.8733
▁Nzi	-10.8735
gendera	-10.874
uje	-10.8742
▁umusore	-10.8751
▁umuheto	-10.8753
▁140	-10.8753
teza	-10.8757
▁igira	-10.8764
▁yahoze	-10.877
abe	-10.8773
▁ashishimura	-10.8776
▁guking	-10.8776
wowe	-10.8789
▁kubi	-10.8793
▁ingamiya	-10.8793
▁Inzu	-10.8795
▁bashyira	-10.8796
uturutse	-10.8807
umviye	-10.8811
irya	-10.8816
Icyo	-10.8824
ibyari	-10.8831
hunga	-10.8831
byumva	-10.8832
▁92	-10.884
▁hera	-10.8847
ibuka	-10.8847
vuze	-10.8851
nzandiko	-10.8853
Y	-10.8862
agira	-10.8862
buhinduzi	-10.8864
▁umwuzukuru	-10.8871
▁Amagambo	-10.8876
amara	-10.8893
▁baramanuka	-10.8894
▁Umwa	-10.8898
▁ngira	-10.8899
▁batambira	-10.89
koze	-10.8915
databuja	-10.894
menye	-10.8957
eze	-10.8975
▁ubuhanga	-10.8985
▁azajya	-10.8991
▁ncuro	-10.8993
▁Abisira	-10.9003
▁intwari	-10.9008
amo	-10.9009
Ni	-10.9018
Bayali	-10.9038
twaye	-10.904
ufite	-10.9046
▁akoresheje	-10.9046
▁mwi	-10.9047
▁kum	-10.9047
ahawe	-10.9052
▁Ntuza	-10.9055
▁azanye	-10.9056
Amg	-10.9068
senga	-10.907
▁hugu	-10.9071
▁arab	-10.9083
cira	-10.9085
miryango	-10.9092
muzane	-10.9096
▁urwibutso	-10.9101
▁Rimoni	-10.9101
▁150	-10.9102
▁umukungugu	-10.9117
migati	-10.9118
▁zacu	-10.9133
▁aca	-10.9136
Horoni	-10.9142
▁Barizilayi	-10.9142
▁Gosheni	-10.9142
▁Nebukadinezari	-10.9142
▁Netaneli	-10.9142
▁Yedutuni	-10.9142
▁nebelu	-10.9142
imikindo	-10.9142
▁Midiyani	-10.9142
▁atarengeje	-10.9142
▁Hoseya	-10.9142
▁Yefune	-10.9142
▁karubanda	-10.9142
▁Yowashi	-10.9142
▁Bafilisitiya	-10.9142
▁Eberi	-10.9142
▁Yeremiya	-10.9142
▁Bela	-10.9142
▁Yerubayali	-10.9142
▁ubusembwa	-10.9142
▁mpiri	-10.9143
▁Amariya	-10.9143
▁gipima	-10.9144
▁Hushayi	-10.9144
▁yarategetse	-10.9145
▁bahetse	-10.9145
▁kumusanganira	-10.9145
▁kuninda	-10.9145
▁barabakurikira	-10.9145
▁Adamu	-10.9146
▁barasohoka	-10.9147
▁Ahita	-10.9147
▁bayobowe	-10.9148
▁Gera	-10.9148
▁uwishe	-10.9149
ibuye	-10.9149
▁ayandi	-10.915
▁ntugu	-10.9151
▁yabimutegetse	-10.9152
▁byaryo	-10.9153
▁ziteye	-10.9153
hera	-10.9153
▁yabivuze	-10.9156
▁yaguhaye	-10.9161
▁ufate	-10.9164
oni	-10.9164
ibibi	-10.9165
garuka	-10.9165
▁yasutseho	-10.9166
▁Hamu	-10.9166
▁giteye	-10.9166
▁Isira	-10.9168
▁ribe	-10.9175
▁muzajye	-10.9175
▁yababwiye	-10.9177
▁agapfa	-10.9178
▁buturo	-10.9178
▁utyo	-10.918
Ishoborabyose	-10.9181
▁gikombe	-10.9183
▁batangiye	-10.9186
▁bwacu	-10.9186
▁wahaye	-10.9186
Ujye	-10.9188
byatewe	-10.9188
isarura	-10.9189
▁kugaruka	-10.9192
▁babyumvise	-10.9196
▁atabigambiriye	-10.9199
▁yafashe	-10.9201
ibishushanyo	-10.9206
▁rwobo	-10.9207
▁amarembo	-10.9208
ubutaka	-10.9208
▁bibajwe	-10.9211
umubiri	-10.9211
▁yagiranye	-10.9212
Irembo	-10.9212
umwijima	-10.9213
urugendo	-10.9214
▁mashyo	-10.9216
▁kwinangira	-10.9217
▁kenshi	-10.9219
kiza	-10.922
▁Iki	-10.9223
ngiye	-10.9232
▁bac	-10.9238
▁wabyo	-10.924
▁Aritazerusi	-10.9244
▁nabahaye	-10.9264
▁102	-10.9267
▁agaciro	-10.927
Abagadi	-10.9283
▁ruk	-10.9293
▁Ar	-10.93
kurikije	-10.93
▁kuboha	-10.9302
tuza	-10.9316
ubundi	-10.9325
▁bakambitse	-10.9328
▁wamu	-10.9329
▁wihariye	-10.9333
▁byanditse	-10.9336
igitereko	-10.934
garagariza	-10.9345
▁banyura	-10.9353
▁141	-10.9353
▁kurimbura	-10.9361
▁Ob	-10.9362
uze	-10.9363
▁Dagoni	-10.9366
▁urwandiko	-10.9368
▁sinigeze	-10.9369
▁bahunga	-10.9372
▁ibiceri	-10.9372
▁kigega	-10.9385
▁mukomeze	-10.939
▁yerekeza	-10.9399
Abamowabu	-10.9401
▁barab	-10.9401
mushyire	-10.9406
▁haguruka	-10.9406
tware	-10.9407
abakerubi	-10.9409
▁nshi	-10.941
▁kwicara	-10.9413
shya	-10.9415
▁matsinda	-10.9422
▁amashami	-10.943
▁kayo	-10.9439
▁asiga	-10.944
abaga	-10.9441
▁bizabe	-10.9442
▁agi	-10.9444
twika	-10.9445
aze	-10.9451
azanywe	-10.9455
▁bageza	-10.9464
vume	-10.9466
▁84	-10.9467
mye	-10.9477
▁ke	-10.9479
▁imyambi	-10.949
▁umugambi	-10.949
▁buye	-10.9492
▁hungu	-10.9498
yari	-10.95
▁Uwa	-10.9504
▁yakuye	-10.9508
▁ibyawe	-10.9518
▁Ntimu	-10.9528
▁ntambara	-10.9528
▁wacyo	-10.9533
shyi	-10.9536
▁buzaba	-10.9549
▁incuti	-10.9555
▁naba	-10.9556
hindura	-10.9556
kanywe	-10.9565
▁ntiyagira	-10.9585
▁inanga	-10.9598
▁manu	-10.9602
shoboye	-10.9604
kikije	-10.9607
▁umuyaga	-10.9613
S	-10.9629
▁ugira	-10.9629
tsinda	-10.9629
▁atakambira	-10.9635
mbere	-10.9644
sin	-10.965
▁Has	-10.9652
oherereza	-10.968
giye	-10.969
▁mb	-10.9691
▁atar	-10.9699
tangiye	-10.9701
▁ibye	-10.9709
iti	-10.9718
Uza	-10.972
iro	-10.9728
▁ujyane	-10.9733
▁witwa	-10.9736
▁mafaranga	-10.9745
▁ijoro	-10.9746
▁ujya	-10.9746
▁abone	-10.9749
icya	-10.9798
▁Yongera	-10.9799
▁sekurume	-10.9809
▁Ako	-10.9811
▁Me	-10.9837
agiye	-10.9848
mera	-10.9853
▁yambara	-10.9855
▁Yowa	-10.9874
▁ibicu	-10.9875
▁ikime	-10.9878
yongeraho	-10.9886
genza	-10.9899
▁Adoni	-10.9904
▁utaza	-10.9906
▁Abinadabu	-10.9911
▁Miriyamu	-10.9911
▁Shefela	-10.9911
▁Eliyezeri	-10.9911
▁Isuhari	-10.9911
▁Yehoyakini	-10.9911
▁Elishama	-10.9911
amajoro	-10.9911
Havumwe	-10.9911
▁tahashi	-10.9912
▁ibipimo	-10.9912
▁Baraki	-10.9912
▁Seraya	-10.9912
indabyo	-10.9912
▁Acura	-10.9912
▁giteretse	-10.9912
▁guhigura	-10.9913
▁Malikiya	-10.9913
▁kavukire	-10.9913
▁CYA	-10.9913
▁Abakuru	-10.9915
▁Tiro	-10.9915
▁akitwa	-10.9915
ingando	-10.9915
▁Sela	-10.9915
▁gikomeye	-10.9917
▁Hananiya	-10.9918
▁Zifu	-10.9919
▁yarakoze	-10.9919
▁Ntu	-10.992
▁zizaba	-10.992
▁hakaba	-10.9925
▁birangira	-10.9925
urugori	-10.9926
imburamumaro	-10.9929
▁Bamwe	-10.993
▁keretse	-10.9931
▁ikihe	-10.9932
▁gukura	-10.9933
▁yabimubwiye	-10.9937
▁ibyera	-10.9938
▁munini	-10.9942
impongano	-10.9954
▁Abihu	-10.9954
▁baranywa	-10.9959
▁Ido	-10.9963
▁kweza	-10.9968
▁hanjye	-10.9971
▁tambo	-10.9973
▁intambara	-10.9974
▁Ib	-10.9976
▁amahema	-10.9977
▁Yeyeli	-10.9978
▁yashyize	-10.9979
mirongo	-10.9983
ubuye	-10.9985
▁bakerubi	-10.9986
▁bagenzi	-10.9987
▁koserezaho	-10.9989
▁bavuze	-11.0009
▁ashaje	-11.0012
▁bagombaga	-11.0012
▁igufwa	-11.0016
▁umurinzi	-11.0016
▁uruzabibu	-11.0017
▁Yehoyakimu	-11.0018
▁bararira	-11.0018
▁Soba	-11.0019
▁bigenda	-11.0023
B	-11.0023
▁uta	-11.0023
▁gukurikira	-11.0027
▁hazabe	-11.003
Isanduku	-11.003
subize	-11.0031
▁mwandiko	-11.0033
▁basore	-11.0034
▁ahungira	-11.0037
▁gore	-11.0043
▁bishimye	-11.0045
▁widi	-11.0054
ikindi	-11.0058
▁kumuha	-11.0074
▁yanze	-11.0082
▁akurikira	-11.0092
ata	-11.0097
Mujye	-11.0102
▁bapfuye	-11.0104
▁uzajye	-11.0108
14–	-11.0117
▁ntuza	-11.0118
▁uy	-11.0126
▁murage	-11.013
twara	-11.013
zima	-11.0132
vandimwe	-11.0134
▁wapfuye	-11.0135
Abarubeni	-11.0138
uhumura	-11.0145
▁ukwe	-11.0145
▁imbabare	-11.0152
▁nimu	-11.0154
▁yandika	-11.0155
▁Kugeza	-11.0157
▁ibizira	-11.0157
▁rwandiko	-11.0161
ahoze	-11.0165
▁abitewe	-11.0171
She	-11.0175
amezi	-11.0177
▁amakosa	-11.0181
▁urye	-11.0182
▁ryabo	-11.0183
kuye	-11.0183
▁gutinya	-11.0185
▁utu	-11.0185
▁ay	-11.0189
▁mufite	-11.0197
▁imb	-11.0199
fate	-11.0204
▁umaze	-11.0208
▁mara	-11.021
▁ukwiriye	-11.0222
▁indahiro	-11.0225
▁akorera	-11.0226
▁hene	-11.0229
▁ntangiriro	-11.0233
▁mushaka	-11.0237
inanga	-11.0239
imfubyi	-11.0244
hita	-11.0252
abonye	-11.0253
rimbura	-11.0253
im	-11.0255
73	-11.0257
umweru	-11.0258
▁bagore	-11.0264
indaya	-11.0266
▁inyanja	-11.0284
▁kaga	-11.0286
▁umusatsi	-11.0289
baturage	-11.0292
ibumba	-11.0303
erekeza	-11.0303
▁di	-11.0305
▁Ama	-11.0315
ak	-11.0323
▁utugati	-11.0336
uriye	-11.0346
▁70	-11.0352
kimara	-11.0352
pfa	-11.0353
ubumaji	-11.0356
▁banzi	-11.0362
sezeranyije	-11.0363
uburyo	-11.0368
bishobora	-11.0372
ongeraho	-11.0373
▁aririra	-11.0377
tsi	-11.0378
abona	-11.038
zanywe	-11.0386
▁utegeka	-11.0386
▁igicu	-11.0388
geraho	-11.0393
ububiko	-11.0403
rusha	-11.0403
▁rizaba	-11.0404
uriya	-11.0404
ah	-11.0406
▁igiye	-11.0416
itungo	-11.0418
▁ibyatsi	-11.042
▁bapfa	-11.0424
abakora	-11.0426
▁masa	-11.0431
riza	-11.0431
▁buta	-11.0437
▁in	-11.0445
▁izabe	-11.0446
▁Nawe	-11.0448
tuye	-11.0457
asanzwe	-11.0462
rate	-11.0468
uzi	-11.0485
▁tuba	-11.0495
1-	-11.0508
▁agirana	-11.0509
▁isa	-11.0521
menya	-11.0556
▁umusozi	-11.0556
▁ukomeze	-11.0571
▁Abagadi	-11.0581
12-2	-11.0594
▁Nda	-11.0605
rera	-11.0624
▁mbaho	-11.0636
kigega	-11.064
abyarira	-11.0642
omeri	-11.0645
igeze	-11.0647
akwiriye	-11.0648
nywe	-11.0649
umvise	-11.066
▁big	-11.0661
bira	-11.0671
▁abakomeye	-11.0683
af	-11.0693
jyanye	-11.0695
ik	-11.0704
71	-11.0709
vuza	-11.071
▁tura	-11.071
tambira	-11.0717
▁akomok	-11.0726
inda	-11.0729
ryango	-11.0735
▁Biluha	-11.0739
▁yandi	-11.0742
ikiruhuko	-11.0744
umusenyi	-11.0744
▁ESITERI	-11.0744
▁Selofehadi	-11.0744
▁Shefatiya	-11.0744
▁Tekowa	-11.0744
▁mfuruka	-11.0744
▁uruhanyije	-11.0744
Aruba	-11.0744
rwe	-11.0744
▁Ishibosheti	-11.0744
▁Mahali	-11.0744
▁gufuma	-11.0744
▁arakabaho	-11.0744
▁Babenyamini	-11.0744
▁Efuroni	-11.0744
▁icyarimwe	-11.0744
umuzika	-11.0744
▁bwumutse	-11.0744
Abefurayimu	-11.0744
▁Mahanayimu	-11.0744
▁Sidoni	-11.0744
▁Ehudi	-11.0745
▁Zikiri	-11.0745
▁udukondo	-11.0745
▁umutungo	-11.0745
▁imbata	-11.0745
▁guhumana	-11.0745
▁Imfura	-11.0745
▁Beroti	-11.0746
▁Aminadabu	-11.0746
▁Bayana	-11.0747
▁Genda	-11.0747
▁ayiyagirizaho	-11.0747
▁isahani	-11.0748
▁yarubatse	-11.0748
abuzukuru	-11.0749
▁bubamye	-11.075
▁kur	-11.075
▁Tera	-11.075
▁bizatuma	-11.075
umara	-11.0751
▁kundwanya	-11.0751
▁ntibongera	-11.0751
Rs	-11.0753
▁hashize	-11.0753
▁yakundaga	-11.0754
ijoro	-11.0755
▁iboshye	-11.0756
▁rugana	-11.0756
▁mbategeka	-11.0759
sange	-11.076
▁munara	-11.076
▁abiha	-11.0765
▁bwacyo	-11.0771
▁arahunga	-11.0772
tero	-11.0772
▁guhabwa	-11.0777
▁Babwira	-11.0782
▁birori	-11.0783
▁dusimba	-11.0784
uzura	-11.0785
musubiza	-11.0788
▁Libuna	-11.079
▁cyami	-11.0791
anwa	-11.0793
▁batuyemo	-11.0797
bintu	-11.0804
▁ntihagir	-11.0805
▁kumanuka	-11.0806
▁nguhe	-11.081
yaba	-11.0814
▁cyacu	-11.0818
▁umuvumo	-11.0818
▁ibigirwamana	-11.0819
▁ugakora	-11.082
▁iya	-11.0826
▁atara	-11.0828
69	-11.0828
▁muzima	-11.0838
9-2	-11.0846
▁kiganza	-11.0849
▁Yeru	-11.085
▁bigarurira	-11.0852
▁amakuru	-11.0852
▁ikosa	-11.0854
▁ikashe	-11.0855
▁Heti	-11.0857
▁Eri	-11.0857
▁Debiri	-11.0857
▁miro	-11.0859
▁igana	-11.086
▁Zimuri	-11.086
kuboko	-11.0861
▁riti	-11.0861
▁bumwe	-11.0861
▁bazanira	-11.0861
▁kug	-11.0874
▁nabwo	-11.0875
▁mizabibu	-11.088
▁amahundo	-11.089
hanuzi	-11.0891
tuma	-11.0897
▁So	-11.0898
▁yako	-11.0906
mbwira	-11.0918
▁Ka	-11.0926
▁babarura	-11.0929
▁ijye	-11.0937
tambire	-11.095
▁bimwe	-11.0962
▁batsinda	-11.0974
muhe	-11.0975
▁urumuri	-11.0977
▁muz	-11.0978
gu	-11.0982
▁kwari	-11.0989
agati	-11.0994
amafaranga	-11.0995
▁amakoro	-11.1003
▁Amategeko	-11.1009
uhabwa	-11.1011
▁murebe	-11.1013
▁uturuka	-11.1019
▁Igihugu	-11.1023
genzura	-11.1029
ijambo	-11.1033
▁baheka	-11.1036
▁bohereza	-11.1041
umugabane	-11.1042
▁batanga	-11.1043
nzi	-11.1043
▁abibwira	-11.1045
mukurikira	-11.1047
▁ntimuza	-11.1052
baho	-11.1054
▁Abahivi	-11.108
iburasirazuba	-11.1081
imbwa	-11.1087
▁buza	-11.1091
▁yibuka	-11.1097
22–	-11.1103
Abamaleki	-11.1107
M	-11.1109
▁byakozwe	-11.1114
tangire	-11.112
ibikorwa	-11.1122
muka	-11.1124
irwa	-11.1126
abimukira	-11.114
ikirenge	-11.1145
▁gutwara	-11.1148
▁71	-11.115
▁Abedomu	-11.1155
▁bateye	-11.1165
▁yambwiye	-11.1166
▁ibyana	-11.1167
ambike	-11.1168
incuti	-11.117
sanze	-11.117
utugati	-11.1171
ikozwe	-11.1176
Nihagira	-11.1189
▁akomeze	-11.1193
72	-11.1193
▁kiza	-11.1204
▁arah	-11.1209
▁minyago	-11.121
▁byabaye	-11.1213
▁vuga	-11.1213
ashi	-11.1235
▁wifuza	-11.1242
Aramu	-11.1244
al	-11.1246
▁Ufu	-11.1254
6-2	-11.1262
ibigwi	-11.1264
werekeza	-11.127
urupfu	-11.1271
mbe	-11.1297
▁akunda	-11.1297
▁amatsinda	-11.1298
▁waba	-11.1303
▁kugi	-11.1304
ibyeze	-11.1315
umuhererezi	-11.1319
▁teraniro	-11.1326
▁tuzaba	-11.1332
▁du	-11.134
ongere	-11.1357
abikora	-11.1364
ore	-11.1369
ubakiye	-11.138
▁je	-11.1384
Aroni	-11.1385
▁bazamuka	-11.1391
▁ihene	-11.1398
ij	-11.1403
bakoreye	-11.1407
buka	-11.1417
toranya	-11.1419
▁100	-11.1419
▁barabi	-11.1419
anywa	-11.1434
▁muvandimwe	-11.1436
▁ifarashi	-11.1441
abanyacyubahiro	-11.1442
igihamya	-11.1445
▁ziba	-11.1449
kiri	-11.1449
▁byagenze	-11.145
▁akavuga	-11.145
ndeke	-11.1461
nzwe	-11.1462
▁arara	-11.1471
17–	-11.1478
▁ntama	-11.1479
12–	-11.148
hurira	-11.1484
ako	-11.1485
tanze	-11.1494
▁P	-11.1495
▁bikiri	-11.1503
▁muk	-11.1503
asanze	-11.1506
hesh	-11.1507
ubwa	-11.1515
hawe	-11.1516
ca	-11.1523
eseri	-11.1525
akora	-11.1532
▁Azi	-11.1543
▁koze	-11.1548
agarutse	-11.1562
▁nakoze	-11.1573
▁ahari	-11.1581
▁azamuka	-11.1586
▁yabonye	-11.1593
mukono	-11.1598
▁abashyira	-11.1599
▁bicara	-11.1601
irebana	-11.1607
▁inshoreke	-11.1608
am	-11.1609
yatambwe	-11.1609
eguriwe	-11.1611
ngira	-11.1627
▁muzab	-11.1628
ub	-11.164
nk	-11.1642
▁ingo	-11.1649
ika	-11.1649
geko	-11.165
▁ahaguruka	-11.1651
igihogere	-11.1653
▁Delila	-11.1653
▁Henoki	-11.1653
▁Kedeshi	-11.1653
▁Lameki	-11.1653
▁Salumuna	-11.1653
▁Tarushishi	-11.1653
▁Yafeti	-11.1653
▁abacakara	-11.1653
▁terafimu	-11.1653
▁Hanuni	-11.1653
▁Orunani	-11.1653
▁Padani	-11.1653
▁Yerohamu	-11.1653
▁hagerwa	-11.1653
▁azamutangire	-11.1653
▁kuzingirwa	-11.1653
▁ibakomokaho	-11.1653
▁Reweli	-11.1653
▁Anatoti	-11.1653
▁Dariyo	-11.1653
▁myanya	-11.1653
▁amasabato	-11.1653
▁icyuho	-11.1653
▁Abiramu	-11.1654
▁Gerushomu	-11.1654
Abamerari	-11.1654
▁Gerushoni	-11.1654
▁Akisa	-11.1654
▁ruzabibu	-11.1654
▁umuhamya	-11.1655
▁rugakomeza	-11.1656
▁Igice	-11.1657
▁Uhereye	-11.1657
▁Umuryango	-11.1657
ibihindizo	-11.1657
yashyire	-11.1658
▁akamwica	-11.1658
▁yayoboraga	-11.1658
▁kubasanganira	-11.1658
ingore	-11.1658
indobanure	-11.1658
▁mwebwe	-11.1658
▁Baramubwira	-11.1658
▁bazavuge	-11.1658
ora	-11.1659
▁Husha	-11.1659
▁Kimwe	-11.1659
▁gukurikiza	-11.166
▁ucyigarurire	-11.166
amabara	-11.1661
▁ararakara	-11.1662
▁gutuma	-11.1663
▁bukeye	-11.1663
ubutayu	-11.1664
▁Umwamikazi	-11.1664
▁watwaraga	-11.1666
▁Zeba	-11.1667
▁barya	-11.1669
▁Bamaze	-11.167
▁barahindukira	-11.1671
▁bakagenda	-11.1672
wibuke	-11.1672
▁mvuge	-11.1674
▁bwite	-11.1674
66	-11.1675
▁babonaga	-11.1676
▁kuyobora	-11.1678
igira	-11.1679
▁ziva	-11.1682
▁bazajye	-11.1683
▁abanjye	-11.1683
▁kurira	-11.1683
▁bugurumana	-11.1684
▁bakomezaga	-11.1687
▁akagenda	-11.1687
▁yasize	-11.1688
▁zawo	-11.1689
▁maga	-11.169
▁banditswe	-11.1691
3-	-11.1692
▁kurenga	-11.1694
▁kwihisha	-11.1697
▁avuze	-11.1698
▁byatumye	-11.1698
▁bito	-11.17
▁ibyishimo	-11.1704
▁She	-11.1707
▁Sha	-11.1709
hagurutse	-11.1713
▁mashami	-11.1713
▁umukono	-11.1713
▁babaha	-11.1713
▁ababwira	-11.1716
wira	-11.1718
▁ibikwiriye	-11.1725
▁imibabaro	-11.1732
▁ngwa	-11.1733
▁narahiye	-11.1733
▁ukorera	-11.1739
▁yarabi	-11.174
▁bizihiza	-11.1743
aranywa	-11.1744
▁Raba	-11.1745
▁zigez	-11.1747
▁wabyawe	-11.1748
▁mikumbi	-11.1751
▁Hamo	-11.1753
▁ararira	-11.1753
▁guhiga	-11.1757
▁Gali	-11.1766
▁kuh	-11.1771
▁baya	-11.1772
if	-11.1772
▁Besaleli	-11.1776
▁amajwi	-11.1778
▁ngende	-11.1779
▁Umugaragu	-11.1779
▁ibyiringiro	-11.1781
aramwica	-11.1783
▁nkono	-11.1784
▁agakora	-11.1784
rinda	-11.1788
▁mukore	-11.179
▁yateye	-11.1795
babwira	-11.1795
▁imigisha	-11.1795
▁hariho	-11.1801
▁akabona	-11.1805
▁nzaguha	-11.1809
▁No	-11.1816
▁rurimi	-11.1828
▁Hav	-11.1832
Icyakora	-11.1833
ubura	-11.1849
▁Niyo	-11.1852
▁nakoreye	-11.1855
▁batinya	-11.1859
ijana	-11.1862
tihazagire	-11.1865
Samweli	-11.1869
garukira	-11.1876
igi	-11.1878
▁bakoranya	-11.1878
▁nyagasani	-11.1879
▁nkoni	-11.1881
5-2	-11.1886
um	-11.1888
▁Ageze	-11.1889
il	-11.189
nira	-11.1893
▁wab	-11.1901
▁143	-11.1909
▁usange	-11.1914
atwite	-11.1928
▁ingumba	-11.1934
▁imitwaro	-11.1936
▁intara	-11.1936
ragu	-11.1952
4-	-11.1955
▁itari	-11.1968
▁gana	-11.1968
▁avugana	-11.197
▁mfura	-11.1971
▁Egi	-11.1977
Umutambyi	-11.198
15–	-11.1982
cure	-11.1985
▁Shimeya	-11.1986
▁Uku	-11.2
▁nkwi	-11.2011
▁ayaminjagire	-11.2023
▁myambaro	-11.2031
▁itangira	-11.2044
▁mbaraga	-11.2067
▁um	-11.2072
ir	-11.2072
▁Ada	-11.2077
▁icyuma	-11.2081
uburakari	-11.2083
Naho	-11.2088
29–	-11.2091
avuga	-11.2092
kwirukana	-11.2092
▁imigozi	-11.2096
▁umwotsi	-11.2097
▁nigeze	-11.2101
▁Adari	-11.2103
▁azishyira	-11.2103
▁abafite	-11.2105
ur	-11.211
inkoni	-11.2113
▁muvuga	-11.2114
rebye	-11.2122
ubutunzi	-11.2131
Iryo	-11.2132
ramutse	-11.2137
nyuze	-11.2139
kuraho	-11.2141
Hg	-11.2143
▁nkaba	-11.2144
▁bazanye	-11.2145
kuru	-11.2146
hova	-11.2149
▁rira	-11.2153
umumarayika	-11.2158
rangira	-11.216
bara	-11.2166
bya	-11.2175
▁afate	-11.2179
gomba	-11.2179
ture	-11.2183
duhe	-11.2188
▁but	-11.2189
iriho	-11.2192
igishushanyo	-11.2193
gisha	-11.2199
▁bakwira	-11.2201
Ahera	-11.2203
▁Ntib	-11.2208
asingizwe	-11.2209
▁bigwi	-11.2212
▁Umugabo	-11.222
▁urusengero	-11.2222
imirima	-11.2223
▁bicisha	-11.2223
isoni	-11.2224
inzabibu	-11.2231
▁ugenda	-11.2234
umukumbi	-11.2235
▁kuru	-11.224
▁kurinda	-11.2244
eli	-11.2249
▁abakozi	-11.225
ihembe	-11.2253
agahinda	-11.2257
akomeza	-11.2257
▁kubara	-11.226
▁ngwino	-11.226
▁muta	-11.226
Abahivi	-11.2262
▁ibyabaye	-11.2262
amashami	-11.2262
zakomeze	-11.2264
duka	-11.2264
indahiro	-11.2265
▁umubwire	-11.2267
sohoka	-11.2289
nyura	-11.2297
Sawuli	-11.2297
zera	-11.2298
▁ute	-11.2301
jugunya	-11.2302
▁beza	-11.2305
▁kanya	-11.2309
inzoka	-11.2312
▁Zebu	-11.2317
ageze	-11.2321
hereye	-11.2324
uburabyo	-11.2327
rane	-11.2328
obwa	-11.2333
amabakure	-11.2334
Ntuk	-11.2338
▁gira	-11.2351
▁Sin	-11.2354
iwabo	-11.2363
intara	-11.2368
▁uki	-11.2369
da	-11.2374
ubudahemuka	-11.2375
▁bareba	-11.2376
▁uhwanye	-11.2383
amenyo	-11.2396
azatuma	-11.2399
weho	-11.2411
▁Ma	-11.2414
kurikiza	-11.2419
babarira	-11.2423
agendera	-11.2424
umukozi	-11.2427
▁afi	-11.2431
▁kubura	-11.2434
▁ubundi	-11.2442
rimbuye	-11.2453
ihwanye	-11.2459
▁bagi	-11.2464
arambuye	-11.2472
zatuma	-11.2472
yikubita	-11.2474
▁inko	-11.2475
▁aram	-11.2479
▁uve	-11.249
▁uzabe	-11.2503
▁salemu	-11.2509
inga	-11.2511
▁ageza	-11.2539
shake	-11.2542
tihakagire	-11.2548
▁raga	-11.2551
Abami	-11.2563
agize	-11.2579
▁bura	-11.258
senya	-11.2581
guruka	-11.2584
ibaya	-11.259
hirengeye	-11.2591
▁ibitangaza	-11.2592
▁ahe	-11.2603
▁bicu	-11.2608
16–	-11.2611
▁intare	-11.2624
▁Yako	-11.2624
▁sirayeli	-11.2629
▁anyura	-11.263
Abakaludaya	-11.263
▁areba	-11.2632
▁kwanyu	-11.2635
abwira	-11.2642
▁basiga	-11.265
Baruneya	-11.2653
▁Amihudi	-11.2653
▁Bamanase	-11.2653
▁Shekaniya	-11.2653
▁Yozabadi	-11.2653
▁Zerubabeli	-11.2653
▁mitambiko	-11.2653
▁umusemburo	-11.2653
▁Betuweli	-11.2653
▁Mamure	-11.2653
▁amahwemo	-11.2653
▁kwigomwa	-11.2653
▁Heberi	-11.2653
▁Edeni	-11.2653
▁Zakuri	-11.2653
▁Ayaloni	-11.2653
▁Kenazi	-11.2653
▁Ofiri	-11.2653
▁Gomora	-11.2653
▁shohamu	-11.2653
▁Indirimbo	-11.2654
▁Yedaya	-11.2654
▁Gitabo	-11.2654
▁gukiranirwa	-11.2654
▁Bityo	-11.2654
▁ayikikije	-11.2654
▁umusaka	-11.2654
▁Netofa	-11.2654
▁buhoro	-11.2654
▁ishyano	-11.2654
▁mazuru	-11.2655
▁inkunga	-11.2655
▁ibitero	-11.2655
▁amakara	-11.2655
▁Peka	-11.2655
▁gusobanukirwa	-11.2655
▁Siyoni	-11.2655
▁aratwita	-11.2656
▁giturwa	-11.2656
▁bikabije	-11.2656
▁akato	-11.2656
▁amubyarira	-11.2656
▁kiyagijwe	-11.2656
▁Yetiro	-11.2656
▁Dina	-11.2657
▁Zini	-11.2657
▁Eliyeli	-11.2657
▁bitangaje	-11.2657
▁zikomeye	-11.2658
▁Yayeli	-11.2658
▁Milo	-11.2658
▁Abanzi	-11.2658
▁Igicaniro	-11.2659
▁Kushi	-11.2659
▁uzumve	-11.2659
▁Nebo	-11.2659
▁Muzajye	-11.2659
▁myiza	-11.266
▁Bigeze	-11.266
▁cyinshi	-11.2661
▁umukwe	-11.2661
▁rizabe	-11.2663
▁wategekaga	-11.2664
▁zaryo	-11.2664
▁babageza	-11.2667
▁bisanzwe	-11.2667
▁umwete	-11.2667
▁ringana	-11.2669
▁Shama	-11.267
▁atsinda	-11.2671
▁Namwe	-11.2673
▁ibibazo	-11.2673
▁Gus	-11.2675
▁naramuka	-11.2676
▁azamare	-11.2676
bishyire	-11.2678
▁cyiyongera	-11.268
raho	-11.268
▁mbahe	-11.268
twa	-11.2681
▁gicuzwe	-11.2682
▁Harimu	-11.2683
▁nagutegetse	-11.2688
▁mucyigarurire	-11.2689
nimuntege	-11.2691
▁uburiza	-11.2692
▁arebe	-11.27
▁mbonera	-11.2716
20–	-11.2721
▁L	-11.2721
▁ndo	-11.2721
twakoze	-11.2722
▁azaguha	-11.2723
▁cyawo	-11.2726
▁natoranyije	-11.2731
ru	-11.2731
▁Abaza	-11.2733
▁umuha	-11.2733
▁Ahi	-11.2738
▁wumva	-11.2745
▁bavaga	-11.2753
▁utagira	-11.2754
▁nzakomeza	-11.2754
sabye	-11.2756
▁numvise	-11.2757
uta	-11.2763
▁azakomeza	-11.2763
nkota	-11.2773
▁agwa	-11.2775
▁azinduka	-11.2776
▁Tema	-11.2776
ironi	-11.2777
▁ntibari	-11.2778
10–	-11.278
ahemu	-11.278
▁abatasi	-11.2784
▁umutego	-11.2785
▁uburanga	-11.2785
▁ubwatsi	-11.2786
▁Miluka	-11.2786
▁Parani	-11.2786
biri	-11.2787
▁Senakeribu	-11.2788
▁Ubugingo	-11.2788
▁Umukobwa	-11.2789
▁irya	-11.279
▁kirimo	-11.2791
▁Akani	-11.2791
K	-11.2791
▁ahamagaza	-11.2791
▁Itayi	-11.2796
▁gutabara	-11.2797
▁utamba	-11.2798
▁uzapfa	-11.2804
▁ubabarire	-11.2804
▁kwayo	-11.2805
▁uwari	-11.2805
▁yaguye	-11.2809
▁arabi	-11.281
▁ririmo	-11.2815
▁batamba	-11.2815
ahumanyijwe	-11.282
ajyana	-11.2821
▁yumvira	-11.2822
amafi	-11.2824
▁uvuye	-11.2825
▁118	-11.2826
▁uhagaze	-11.2827
▁isugi	-11.2832
▁Mushi	-11.2833
▁puta	-11.2845
▁agishyira	-11.2852
▁yagendaga	-11.2854
▁bad	-11.2856
umuri	-11.2858
▁amujyana	-11.2858
▁cyuma	-11.2862
humanye	-11.2862
▁barwana	-11.2863
▁nagiranye	-11.2863
▁batere	-11.2866
bindi	-11.2869
▁ntibashobora	-11.2873
takambira	-11.2875
▁ishyamba	-11.2877
▁sinari	-11.2886
▁bamenye	-11.2888
un	-11.2893
▁uriya	-11.2895
aguye	-11.2895
▁Pisi	-11.2901
igezwe	-11.2903
ambo	-11.2911
zabona	-11.2914
ut	-11.2918
▁ntazi	-11.2921
kwa	-11.2925
▁atoranya	-11.2926
▁ishaka	-11.2947
▁ikamba	-11.295
▁Umulewi	-11.2956
▁Iri	-11.2956
hitamo	-11.2959
▁inyota	-11.2961
▁Rehobu	-11.2965
▁Herumoni	-11.2966
▁urushyi	-11.2967
aravuze	-11.2969
▁abaga	-11.2969
▁Uzaba	-11.2975
zasigara	-11.2978
▁kugirira	-11.2986
▁tambyi	-11.2986
egera	-11.2995
▁igiti	-11.2998
▁tur	-11.3
bitewe	-11.3005
babaza	-11.3007
▁iwabo	-11.3017
▁meze	-11.3019
▁mutinya	-11.3021
▁kurara	-11.3021
▁uvuze	-11.3021
nkize	-11.3022
tuyemo	-11.3022
▁yibwira	-11.3023
itambanwa	-11.3025
▁79	-11.3028
▁kuyi	-11.3046
▁nsanga	-11.3051
ingo	-11.3055
arababaza	-11.3059
▁rubanza	-11.3066
▁ngire	-11.3069
▁bay	-11.3081
▁arayi	-11.3087
▁sita	-11.3098
▁Hor	-11.3098
imirimo	-11.311
hinduka	-11.3114
boko	-11.3117
iraga	-11.312
mbi	-11.3122
Igihe	-11.3126
▁yigeze	-11.3144
▁abanyabwenge	-11.3144
7-2	-11.3148
▁bigeze	-11.3148
nyamaswa	-11.3158
Mbese	-11.3159
▁Kid	-11.316
zwa	-11.3179
bagore	-11.3182
▁biko	-11.3185
▁tware	-11.3186
Hanyuma	-11.3187
▁Nihagira	-11.3194
hekeli	-11.3199
▁urugo	-11.3208
ar	-11.321
gucungura	-11.3223
▁nak	-11.3225
urashaka	-11.3255
cyaha	-11.3272
tinye	-11.3283
ramu	-11.3284
▁zit	-11.3285
hagaze	-11.3285
▁irimo	-11.3288
▁indaya	-11.3292
▁akomeye	-11.3293
▁Bisobanur	-11.3296
▁bamubwira	-11.3297
▁un	-11.33
icumu	-11.33
tegurire	-11.3303
▁umweru	-11.3304
hasigaye	-11.3307
pfuye	-11.3308
tume	-11.3309
ashyize	-11.331
▁sezerano	-11.3312
▁intoki	-11.3313
▁abagira	-11.3313
▁imva	-11.3317
▁imitambiko	-11.3319
ineza	-11.3325
▁dute	-11.3332
Mr	-11.3336
sukeho	-11.3344
usa	-11.3346
▁itara	-11.3355
▁kizingiti	-11.3366
umurage	-11.3368
▁uzab	-11.3369
rabasubiza	-11.3374
rebe	-11.3375
imitwe	-11.338
nyaga	-11.3382
▁atambira	-11.3383
▁asigaye	-11.339
barweho	-11.3397
▁ntiyemer	-11.3399
abahaye	-11.3399
▁ateza	-11.3405
▁araba	-11.341
Aya	-11.341
▁mukorere	-11.3411
bajyane	-11.3413
ruta	-11.3416
indwara	-11.3416
▁uha	-11.3417
▁bas	-11.3418
▁buk	-11.3419
garagu	-11.3424
ikuzo	-11.3425
▁Efa	-11.3426
ima	-11.3433
▁akab	-11.3437
▁Nd	-11.3443
▁Nari	-11.3445
mwana	-11.3451
gana	-11.3452
akomokaga	-11.3452
impu	-11.3453
iteye	-11.3456
zakomeza	-11.3456
wigarurire	-11.3459
bahaye	-11.3461
imijishi	-11.3467
▁Ishi	-11.3472
kumvira	-11.3472
▁nye	-11.3477
yemeza	-11.3481
tegereza	-11.3483
▁kubica	-11.3485
▁uburiri	-11.3486
taba	-11.3494
▁ubwibone	-11.3498
guteza	-11.3501
nyagasani	-11.3501
zumva	-11.3502
▁Zi	-11.3502
yakoreshejwe	-11.3503
umushumi	-11.3512
▁guteza	-11.3518
zababere	-11.352
ishyamba	-11.352
Inyanja	-11.3524
azamuka	-11.353
njye	-11.3536
nabonye	-11.3537
▁yan	-11.3539
Abanetinimu	-11.3542
kore	-11.3547
▁bap	-11.3559
umunyu	-11.3559
igihome	-11.3564
osereze	-11.3565
isugi	-11.3569
amaze	-11.3569
terwa	-11.3578
kaba	-11.3584
asohotse	-11.3587
inyagazi	-11.3592
ikibindi	-11.3595
naho	-11.3597
inyoni	-11.36
rize	-11.3602
▁gupf	-11.3605
▁Bo	-11.361
▁mvuga	-11.3613
umusaruro	-11.3614
nesha	-11.3615
sabira	-11.3617
atumye	-11.3623
▁abajyana	-11.3624
Umwamoni	-11.3633
8-2	-11.3633
shyikiriza	-11.3634
▁amatara	-11.3638
karam	-11.3644
▁rongo	-11.3648
ububani	-11.3649
Umunyegiputa	-11.3653
▁asa	-11.3659
▁bagendera	-11.3668
▁igicumuro	-11.367
▁umukene	-11.3671
ila	-11.3676
manika	-11.3678
tanga	-11.3685
▁ntibya	-11.3685
▁ukiri	-11.3686
▁yemera	-11.3697
dapfa	-11.3701
▁urashaka	-11.3703
ntwari	-11.3713
ikire	-11.3725
▁wandi	-11.373
omera	-11.3732
ul	-11.3735
tazongera	-11.3736
tewe	-11.3741
▁jambo	-11.3743
▁zijya	-11.3744
▁muyi	-11.3752
▁abaho	-11.3754
▁arya	-11.3756
butunzi	-11.3757
▁kitari	-11.376
▁Zabudi	-11.3764
▁bira	-11.3764
▁mpuzabitsina	-11.3764
Abamanase	-11.3764
umuluzi	-11.3764
▁Arupakisadi	-11.3764
▁Ashitore	-11.3764
▁Barefayimu	-11.3764
▁Berekiya	-11.3764
▁Gedaliya	-11.3764
▁Makeda	-11.3764
▁Megido	-11.3764
▁Nahashoni	-11.3764
▁hisopu	-11.3764
▁imibonano	-11.3764
▁kwihumanuza	-11.3764
▁rurerure	-11.3764
▁utabariyemo	-11.3764
ihangu	-11.3764
ubugondo	-11.3764
▁Moleki	-11.3764
▁Gakondo	-11.3764
▁Sanibalati	-11.3764
▁Shunemu	-11.3764
▁Zabadi	-11.3764
▁Otiniyeli	-11.3764
▁Shawuli	-11.3764
▁Zebadiya	-11.3764
▁Abudoni	-11.3764
▁Yazeri	-11.3764
▁Ashidodi	-11.3764
▁Shobali	-11.3764
▁mwinshi	-11.3764
▁ibigunira	-11.3764
▁Etamu	-11.3764
▁Yeshaya	-11.3764
▁kageni	-11.3765
▁jyenyine	-11.3765
▁Salo	-11.3765
▁Yobabu	-11.3765
Iburasirazuba	-11.3765
▁Ebali	-11.3765
Abakeni	-11.3765
▁Yahati	-11.3765
▁bambara	-11.3765
▁Nahashi	-11.3765
▁Tahati	-11.3765
▁kagoma	-11.3765
▁manini	-11.3765
▁Eloni	-11.3766
▁Anaki	-11.3766
▁umuzaho	-11.3766
▁Yohanani	-11.3766
▁Imeri	-11.3766
ashiti	-11.3767
ikigiriki	-11.3767
▁Mikayeli	-11.3767
▁gukambika	-11.3767
▁kwiyongera	-11.3767
▁ziramubwira	-11.3767
▁ubwanyu	-11.3768
▁byonyine	-11.3768
▁wuli	-11.3768
▁gukoresha	-11.3768
abapfumu	-11.3768
▁Neko	-11.3768
kubwira	-11.3768
isederi	-11.3768
▁Etani	-11.3768
▁utashye	-11.3769
▁turwane	-11.3769
▁kunkorera	-11.3769
▁CY	-11.377
▁uboshye	-11.377
▁Seti	-11.3771
▁gutaha	-11.3772
▁uvugwa	-11.3772
girira	-11.3772
▁ndavuga	-11.3773
▁gutsinda	-11.3773
▁barwane	-11.3773
fu	-11.3773
▁gutandukanya	-11.3773
girire	-11.3774
gutabara	-11.3774
▁bonyine	-11.3774
▁nyirabukwe	-11.3774
▁zizabe	-11.3774
▁gikwiriye	-11.3774
▁Urimu	-11.3776
▁bubiri	-11.3777
▁zingana	-11.3778
▁yicwa	-11.3779
ibitobo	-11.378
▁Azabe	-11.378
▁Mbere	-11.3781
▁yabigenje	-11.3781
▁biturutse	-11.3782
▁kwizihiza	-11.3783
▁ukoresheje	-11.3783
▁basahura	-11.3784
▁yamubyariye	-11.3785
▁Beriya	-11.3786
ac	-11.3787
▁bagakomeza	-11.3787
▁kurambuye	-11.3787
▁barindaga	-11.379
at	-11.3792
▁yatwo	-11.3793
▁batwaraga	-11.3794
▁yarwo	-11.3794
▁yaremye	-11.3795
uha	-11.3796
▁bazenguruka	-11.3797
▁akongorwa	-11.3797
▁baramubaza	-11.3797
▁yamubwiye	-11.3797
▁tumu	-11.3799
▁yavugaga	-11.3801
▁nyira	-11.3804
▁ababi	-11.3804
▁twese	-11.3805
▁riva	-11.3807
shoboka	-11.3807
▁mur	-11.3809
umunyabwenge	-11.3811
▁arabyuka	-11.3811
▁akan	-11.3812
▁bamwicira	-11.3812
▁bicaye	-11.3814
▁ubivuze	-11.3815
▁gusana	-11.3819
▁kuvuza	-11.3821
▁berekeye	-11.3822
▁bavugaga	-11.3822
▁ihoraho	-11.3825
▁koru	-11.3825
▁mijishi	-11.3825
▁dutere	-11.3826
5-	-11.3827
kubiyemo	-11.3828
▁aguhe	-11.3836
▁uzarya	-11.3844
▁bazira	-11.3845
▁imizabibu	-11.3845
mukorera	-11.3849
▁mbabwira	-11.3849
▁kimeze	-11.3852
▁ibinyampeke	-11.3852
▁wakuwe	-11.3853
▁bagaruka	-11.3853
▁ntibagira	-11.3856
asubiza	-11.386
zunguza	-11.3862
▁bashobora	-11.3862
▁azajye	-11.3864
▁gushimira	-11.3864
▁Yeh	-11.3864
▁bujye	-11.3865
▁ibimenyetso	-11.3866
nza	-11.3867
▁Icya	-11.3868
▁basanzwe	-11.3868
▁inyungu	-11.3869
▁gikoresho	-11.387
▁ukomere	-11.3876
▁gutabaza	-11.3878
▁imvi	-11.3879
gakiza	-11.388
ameza	-11.3881
▁bameze	-11.3883
▁saa	-11.3889
▁mihango	-11.3892
bibwira	-11.3892
ushobora	-11.3898
▁Muz	-11.3899
amata	-11.3899
▁urubura	-11.39
ahindura	-11.3901
▁she	-11.3902
utariho	-11.3902
▁ruzaba	-11.3905
▁Yehonadabu	-11.3909
▁ZABURI	-11.391
▁umutekano	-11.3911
▁ibyanjye	-11.3911
▁umwanditsi	-11.3911
ingana	-11.3912
▁nyamara	-11.3913
▁umutwaro	-11.3914
▁nyoni	-11.3916
▁igikarabiro	-11.3917
Koko	-11.3917
avuye	-11.3923
▁ngi	-11.3927
▁abacamanza	-11.3927
▁yicisha	-11.3932
▁iherezo	-11.3936
▁muzatura	-11.3949
▁yashatse	-11.395
▁hitwa	-11.395
▁yabakuye	-11.3952
▁batagira	-11.3952
▁ibaho	-11.3956
abaza	-11.3958
guma	-11.3963
▁gutakamb	-11.3966
▁gut	-11.3966
▁hazaba	-11.3968
▁irimbi	-11.3969
▁muyaga	-11.3978
▁umara	-11.398
bye	-11.398
▁gusingiza	-11.3984
▁ntitwa	-11.3995
shinze	-11.4004
▁mumarayika	-11.4004
eraga	-11.4008
▁mub	-11.4011
gerageza	-11.4012
suzume	-11.4015
▁gucura	-11.4023
▁buloni	-11.4026
▁zira	-11.403
▁atandukanye	-11.4034
▁Akura	-11.4046
sohoze	-11.405
▁babaye	-11.4056
▁barara	-11.406
67	-11.4064
▁yegera	-11.4068
▁biteguye	-11.4072
▁Re	-11.4076
▁kanzu	-11.4081
kandi	-11.4081
ongeye	-11.4085
▁byago	-11.4086
▁Ti	-11.4094
▁ika	-11.4094
▁icyenda	-11.4095
bure	-11.4098
hora	-11.4099
ukozwe	-11.4099
▁utara	-11.4102
▁Ne	-11.4104
▁izamuka	-11.4107
mwice	-11.4109
asezeranyije	-11.411
▁Heferi	-11.411
oranye	-11.4111
▁batu	-11.4111
▁Abadani	-11.4112
wavaga	-11.4112
▁Abarinzi	-11.4113
wamutwazaga	-11.4121
ihe	-11.4126
agera	-11.4126
▁bwera	-11.4126
▁mugire	-11.4129
uk	-11.4144
▁kimenyetso	-11.4148
ani	-11.4149
akira	-11.4152
ranyije	-11.4158
▁da	-11.4161
▁azab	-11.4166
▁urwamo	-11.4169
▁zindi	-11.4174
▁yah	-11.4184
▁inzoka	-11.4189
ahungira	-11.4195
rahiye	-11.4195
▁kobwa	-11.4196
to	-11.4196
nywa	-11.4197
ibuke	-11.4197
▁In	-11.4203
▁mitima	-11.4209
18–	-11.4215
umugisha	-11.4221
▁seya	-11.4222
afu	-11.4239
▁umuga	-11.424
▁numva	-11.4241
kiriho	-11.4254
▁ntihakagire	-11.4258
▁bashyirwa	-11.4263
▁umenya	-11.4265
1-1	-11.427
▁byar	-11.4274
tere	-11.4283
pa	-11.4286
▁ziza	-11.429
azatange	-11.4301
bagira	-11.4304
▁Pewori	-11.4311
▁batinye	-11.4313
▁yarimo	-11.4315
buza	-11.4318
▁yam	-11.4323
▁nzamu	-11.4325
▁bataza	-11.4326
zahabwa	-11.4328
▁amubwiye	-11.4332
ahumanye	-11.4337
▁uva	-11.4347
ruhande	-11.4349
bana	-11.4351
81	-11.4358
agiranye	-11.4358
gibwaho	-11.4361
▁mubare	-11.4366
▁mabwiriza	-11.4369
▁uruhu	-11.4375
▁baga	-11.4392
▁yaguku	-11.4393
bikora	-11.4409
garagarije	-11.441
gereka	-11.442
▁kuk	-11.4421
21–	-11.4422
yubakira	-11.4423
bagirana	-11.4426
zerera	-11.4427
Muri	-11.4432
birebana	-11.4435
▁birema	-11.4438
nguye	-11.444
▁akamu	-11.4446
▁ngomba	-11.446
ryamana	-11.4476
gabo	-11.4491
mujye	-11.4495
rangiza	-11.45
▁iburengerazuba	-11.4519
reye	-11.4519
shyingira	-11.4521
▁irebana	-11.4538
itara	-11.4541
bice	-11.4548
▁rukagaru	-11.4549
cisha	-11.4553
asenya	-11.4553
▁yongere	-11.456
kagera	-11.4561
ikibi	-11.4561
▁gusubiza	-11.4562
▁He	-11.4572
hagarare	-11.4572
11–	-11.4575
ahashyira	-11.4586
“	-11.4587
apfuye	-11.459
zakorera	-11.4592
ahita	-11.4609
uhira	-11.461
maboko	-11.4614
beshya	-11.4617
abahana	-11.4618
▁utar	-11.4619
atumira	-11.462
▁ir	-11.463
injiye	-11.4631
▁ntiw	-11.4634
reje	-11.4638
hene	-11.4642
tegereje	-11.4642
byara	-11.4645
mirimo	-11.4649
▁bakura	-11.4652
▁biku	-11.466
babaze	-11.4661
asabira	-11.4668
▁igitereko	-11.4673
▁Pe	-11.4678
mbura	-11.4688
▁ibibyimba	-11.4706
▁inyangamugayo	-11.4708
▁inzige	-11.4708
▁umukiranutsi	-11.4709
▁Yayiri	-11.4711
rije	-11.4714
kemu	-11.4717
mira	-11.472
Na	-11.4728
kijije	-11.4735
amu	-11.4739
koresheje	-11.4746
umutwe	-11.4751
irengagiza	-11.4751
ikimenyetso	-11.4753
uti	-11.476
ibyiza	-11.4762
umubare	-11.4763
bireba	-11.4765
▁Ur	-11.477
merera	-11.4771
agombaga	-11.4776
teshuka	-11.4779
▁impumuro	-11.4783
yitwa	-11.4809
mutere	-11.4815
Kl	-11.4819
▁yaramu	-11.4828
boneka	-11.4834
17-3	-11.4837
icyorezo	-11.4839
hanga	-11.4841
nyiriza	-11.4842
iyemeje	-11.485
bagire	-11.4852
emerera	-11.4858
ibicaniro	-11.4859
teguriye	-11.4865
▁Ho	-11.4867
zaho	-11.4869
tekerereza	-11.4872
ajya	-11.4875
Amazi	-11.4878
izuba	-11.4889
▁cyitwa	-11.4891
ururimi	-11.4894
▁amanuka	-11.4898
ibigirwamana	-11.4902
umuvumo	-11.4906
wakoze	-11.4907
humbi	-11.4911
▁zar	-11.4912
amahema	-11.4915
imibabaro	-11.4916
▁asenga	-11.4916
rana	-11.4924
gaho	-11.4927
abyumvise	-11.4929
▁Kuba	-11.4934
imizabibu	-11.4936
mpe	-11.4936
utwika	-11.4938
giranye	-11.494
ambutse	-11.4943
ibimenyetso	-11.4947
mahundo	-11.495
mugire	-11.4956
intambwe	-11.4957
igitambaro	-11.4959
ig	-11.496
yigarurira	-11.496
▁kiny	-11.4963
uturere	-11.4977
▁nkoko	-11.498
▁umw	-11.498
▁bibwira	-11.4983
▁Kenani	-11.4985
anywe	-11.4986
▁bika	-11.4989
▁Inyama	-11.499
2-1	-11.499
zazane	-11.4997
▁ntibi	-11.5001
▁ikibaya	-11.5003
akoresha	-11.5004
byumvise	-11.5007
▁ntiyonger	-11.501
▁Abaheti	-11.5011
▁Biludadi	-11.5014
▁Enoshi	-11.5014
▁Gilibowa	-11.5014
▁Hinomu	-11.5014
▁Kadimiyeli	-11.5014
▁Oholibama	-11.5014
▁Rehumu	-11.5014
▁Sherebiya	-11.5014
▁Yaboki	-11.5014
▁gitwariro	-11.5014
▁rukiryi	-11.5014
▁Mikimashi	-11.5014
▁Ataroti	-11.5014
▁udukombe	-11.5014
▁Yerimoti	-11.5014
▁amakenga	-11.5014
umucakara	-11.5014
▁Sibeyoni	-11.5014
▁azamusuzume	-11.5014
▁Onani	-11.5014
▁musego	-11.5014
▁Ntiyigeze	-11.5015
▁umunyamabanga	-11.5015
inyumbu	-11.5015
umurimbo	-11.5015
▁Elifeleti	-11.5015
▁aramusoma	-11.5015
▁bushyo	-11.5015
▁Pedaya	-11.5015
▁Ladani	-11.5015
▁Yehohanani	-11.5015
▁ntazabure	-11.5015
▁Ofura	-11.5015
▁Sowari	-11.5015
000	-11.5015
▁Bewori	-11.5015
▁Rahabu	-11.5015
▁runini	-11.5015
Geberi	-11.5015
▁Yerameli	-11.5015
▁Luzi	-11.5015
▁Akubu	-11.5015
▁Nehemiya	-11.5015
▁akahashyira	-11.5015
▁barakorana	-11.5015
▁ubutumwa	-11.5015
▁ugubwe	-11.5016
▁Umugabane	-11.5016
▁uwuhe	-11.5016
▁Bayuda	-11.5016
▁Izuba	-11.5016
▁Isumbabyose	-11.5016
▁intanga	-11.5016
inzogera	-11.5016
▁rukamanuka	-11.5016
▁Rekabu	-11.5016
▁Hanyu	-11.5016
▁guheka	-11.5016
▁kwibera	-11.5016
▁uzishyire	-11.5016
▁zikiranuka	-11.5016
▁ugwire	-11.5017
▁Ibikoresho	-11.5017
▁iyerekwa	-11.5017
imihango	-11.5017
▁Bikiri	-11.5018
▁Arangije	-11.5018
▁ubwambure	-11.5018
▁uzashyireho	-11.5018
ibibaya	-11.5018
▁Afeki	-11.5018
▁havamo	-11.5019
▁ntibazongera	-11.5019
▁ndababwira	-11.5019
▁ipaji	-11.5019
▁Yeteri	-11.5019
▁amadarajya	-11.502
▁nimuze	-11.502
▁byumba	-11.502
▁Adaya	-11.5021
▁gukenyeza	-11.5021
gakomeza	-11.5021
umuseke	-11.5021
nogeye	-11.5022
▁gitumye	-11.5022
woli	-11.5022
▁birenze	-11.5023
▁bazinduka	-11.5023
▁kigaragaza	-11.5023
▁rihagarariwe	-11.5024
kobwa	-11.5025
▁Galila	-11.5025
▁Gerari	-11.5025
▁Bahita	-11.5026
▁nim	-11.5026
▁buhagaritse	-11.5028
▁kumureba	-11.5028
▁Baha	-11.5029
ishimwe	-11.5029
▁kugabanya	-11.5029
▁icyera	-11.5029
▁uzagwa	-11.5031
ntimugire	-11.5031
▁ntibigeze	-11.5032
▁Sora	-11.5034
kurikizwa	-11.5034
▁arabaza	-11.5034
umudendezo	-11.5035
▁yabonaga	-11.5035
uwari	-11.5035
▁kubarwanya	-11.5037
▁iyindi	-11.5037
▁kigomba	-11.5037
rugimbu	-11.5038
▁tuzajya	-11.5038
▁Men	-11.5038
▁yapimaga	-11.5039
▁gutwi	-11.5041
▁yafashwe	-11.5041
▁bahagarariye	-11.5042
▁kumubona	-11.5044
▁kubarimbura	-11.5044
ababwiye	-11.5045
▁binini	-11.5046
Ubwami	-11.5048
▁Sawu	-11.505
▁biz	-11.505
▁rutugu	-11.5052
▁kungirira	-11.5052
nacumuye	-11.5054
nyubako	-11.5055
fashe	-11.5055
gakora	-11.5056
▁byabaga	-11.5057
abahereza	-11.5058
▁barishima	-11.5058
▁muyitambane	-11.5059
▁rufite	-11.506
▁akagira	-11.5063
▁sha	-11.5065
▁barapfa	-11.5068
Ibyanditswe	-11.5071
eri	-11.5071
▁bakurikira	-11.5072
▁guhaha	-11.5074
ibihugu	-11.5077
▁hawe	-11.5079
ishimira	-11.5084
▁ayasuka	-11.5085
▁gucira	-11.5086
▁kugenzura	-11.5087
▁mwice	-11.5087
▁akaza	-11.5089
▁murashaka	-11.5091
▁azongere	-11.5091
▁akica	-11.5093
▁intambwe	-11.5095
▁gitambirwaho	-11.5096
▁bazabe	-11.5102
▁ararya	-11.5106
▁ngando	-11.5108
▁ruba	-11.511
▁Ajye	-11.511
▁ukubera	-11.5112
▁igitambaro	-11.5113
▁azira	-11.5117
baha	-11.5117
inkuru	-11.5124
▁muzaha	-11.5125
▁wabasha	-11.5126
▁agakomeza	-11.5127
▁aragaruka	-11.5127
▁baze	-11.5128
▁berekeza	-11.5129
▁nugera	-11.513
▁uteganye	-11.5132
▁banyuze	-11.5133
▁ateye	-11.5134
takiriho	-11.5136
shyize	-11.5139
batsinze	-11.5141
hura	-11.5145
amubonye	-11.515
▁biryoshye	-11.5151
▁byaha	-11.5152
ug	-11.5155
▁yigira	-11.5156
rutonde	-11.5156
▁iwanjye	-11.5156
▁bice	-11.5157
▁baram	-11.5157
buje	-11.5157
▁Ntuka	-11.516
saba	-11.5161
▁navuze	-11.5164
wongere	-11.5168
▁amate	-11.5168
rakarira	-11.5171
▁kubabwira	-11.5173
itwa	-11.5176
▁tugati	-11.5176
▁inziga	-11.5177
▁yongeye	-11.5177
▁Efurata	-11.5177
▁Igitare	-11.5178
▁Yewushi	-11.5178
▁umubembe	-11.5178
▁Azimaveti	-11.5179
2-	-11.518
▁kumubwira	-11.518
▁imitako	-11.5185
▁ibyotero	-11.5187
▁ishami	-11.5188
ibagirwe	-11.5193
▁gutambiraho	-11.5193
batikiza	-11.5194
▁naryamana	-11.5196
▁azabona	-11.5198
▁buze	-11.5199
▁iwanyu	-11.5201
▁arushaho	-11.5207
▁juru	-11.5208
▁mezi	-11.5209
▁ugakomeza	-11.5215
▁maku	-11.5215
▁Buki	-11.5217
▁Masa	-11.5217
me	-11.522
▁bwira	-11.5234
ahabu	-11.5236
kize	-11.5236
twike	-11.524
jyane	-11.524
▁yag	-11.5243
▁meye	-11.5245
▁Asaya	-11.5245
▁atamba	-11.525
wumva	-11.5253
▁makuba	-11.5258
▁utigeze	-11.5261
▁bare	-11.5263
▁sanduku	-11.5264
▁uzayi	-11.5268
▁shi	-11.527
▁Pi	-11.5271
▁banyaga	-11.5281
▁ugi	-11.5287
hisha	-11.529
ukajya	-11.5292
▁Inyanja	-11.5297
▁Nini	-11.5301
▁mye	-11.5302
agura	-11.5302
▁niyo	-11.5304
nje	-11.5308
shyireho	-11.5308
agukoreye	-11.531
▁Mbeg	-11.531
turika	-11.531
▁ubuhagarike	-11.5311
▁aryamye	-11.5316
yambare	-11.5317
kera	-11.532
uc	-11.5321
▁uhe	-11.5322
izengurutse	-11.5323
▁matara	-11.5325
uzuza	-11.5325
dadi	-11.5325
▁asohoze	-11.5326
byutse	-11.5327
▁yinginga	-11.533
▁kuge	-11.5332
▁wabu	-11.5334
yaguze	-11.5343
fa	-11.5351
masambu	-11.5352
▁ntuz	-11.5354
▁ibihu	-11.5355
Ima	-11.5368
gume	-11.5378
▁yakira	-11.5378
▁bajyanye	-11.538
atuwe	-11.538
▁tugomba	-11.5386
ndetse	-11.539
▁umunwa	-11.5391
▁tuvug	-11.5396
▁130	-11.5399
▁tug	-11.54
ariko	-11.5403
▁aribwira	-11.5405
▁imibavu	-11.5406
Umwana	-11.5408
gutegetse	-11.5409
▁Uzashyire	-11.5409
yawe	-11.5409
▁mukure	-11.5414
▁Ak	-11.5414
▁Ntiba	-11.5419
bareka	-11.543
byuka	-11.5432
▁ukoze	-11.5432
renga	-11.5436
nsange	-11.5436
▁urimo	-11.5439
▁nkanjye	-11.5449
genzure	-11.5469
two	-11.547
igisha	-11.547
▁88	-11.5477
▁tube	-11.5481
umpe	-11.5482
▁Mara	-11.5482
itambane	-11.5484
areshya	-11.5488
oherereje	-11.5488
▁mike	-11.5489
▁rura	-11.5491
▁ruhago	-11.5492
▁utera	-11.5497
▁baj	-11.5503
▁uzamu	-11.5504
nsubize	-11.5505
rezo	-11.5506
apfa	-11.5516
zashyira	-11.5529
▁banze	-11.553
sheri	-11.5538
bakuye	-11.5549
mbo	-11.555
▁kuvana	-11.5554
▁bihumbi	-11.5559
▁Bazana	-11.5563
ahagarara	-11.5566
▁Baramu	-11.5567
jyanwa	-11.557
ise	-11.5573
nyujije	-11.5574
kurikiye	-11.5582
▁rindi	-11.5587
▁Mwe	-11.5587
▁bugu	-11.5589
Yw	-11.559
gore	-11.5604
amenye	-11.5608
tagira	-11.561
▁ntuka	-11.5612
Uwo	-11.5622
abajyana	-11.5623
ibwiraga	-11.563
by	-11.5633
▁zik	-11.5637
▁bazakora	-11.5639
▁byokurya	-11.5641
shyiriyeho	-11.565
kuva	-11.5655
genzereza	-11.5673
▁uzafate	-11.5673
tamba	-11.5673
iriye	-11.5678
abireba	-11.5682
yita	-11.5695
asutswe	-11.5695
agibwaho	-11.5697
kagira	-11.57
shimire	-11.5708
▁iry	-11.5711
irira	-11.5733
▁barah	-11.5734
amwe	-11.5738
iba	-11.574
nzanire	-11.5742
muha	-11.5757
uf	-11.5757
amubaza	-11.576
igabanyamo	-11.576
▁yageze	-11.5763
▁arira	-11.577
▁ukwa	-11.5774
▁wakuye	-11.5775
sarure	-11.5779
muntu	-11.5781
▁watumye	-11.5782
▁tuz	-11.5785
manura	-11.5788
agana	-11.579
naga	-11.5804
basezeranyije	-11.5806
kaga	-11.5809
kimasa	-11.5809
tugire	-11.5818
awu	-11.5821
yohereza	-11.583
utu	-11.5831
akubita	-11.5832
▁imfubyi	-11.5832
28–	-11.5834
▁Aramu	-11.584
cy	-11.5854
▁incungu	-11.5854
▁amatongo	-11.5855
10-2	-11.5857
▁umuguno	-11.5857
▁indahemuka	-11.5858
turuka	-11.5859
▁riye	-11.5864
6–	-11.5864
irindi	-11.5867
ashakaga	-11.5869
umvira	-11.5882
abikoze	-11.5883
▁uyi	-11.5888
▁amusubiza	-11.5891
▁Sh	-11.5896
▁ibyabo	-11.5897
▁habe	-11.5897
▁ahu	-11.5898
asoma	-11.5902
▁imbwa	-11.5904
▁ntuzaba	-11.591
shyizeho	-11.5917
asukwa	-11.5922
▁110	-11.5924
tumaho	-11.5925
ishyira	-11.5925
▁myabiri	-11.593
▁njya	-11.5945
shoboraga	-11.5947
▁ija	-11.5949
bakoraga	-11.5956
▁uzica	-11.596
anyura	-11.5985
7–	-11.5986
menyesha	-11.5986
riya	-11.5989
▁amushyingir	-11.5992
hagarariye	-11.5992
zarambike	-11.6006
urwa	-11.6012
▁ngaho	-11.6012
▁azamu	-11.6019
mare	-11.6029
uteye	-11.6031
abarwanir	-11.6031
▁Nt	-11.6033
▁azane	-11.6042
▁mubona	-11.6045
wana	-11.6046
▁149	-11.6054
▁ntaz	-11.6054
nyir	-11.606
▁ura	-11.6061
zaba	-11.6067
▁agater	-11.6069
▁kureka	-11.6081
▁ubutabera	-11.6084
moni	-11.6092
▁buzima	-11.6093
arababwira	-11.6099
▁ntiyaba	-11.6103
akoreshwa	-11.612
▁abakora	-11.6124
amenya	-11.6129
▁itera	-11.6131
atuma	-11.6132
▁Baki	-11.6135
zamara	-11.6138
itwaje	-11.6141
▁ahereke	-11.6146
▁yubakiye	-11.6146
▁atu	-11.615
baze	-11.6151
ukunda	-11.6151
mariye	-11.6159
amuhaye	-11.6164
intera	-11.6166
bwenge	-11.6169
▁ahora	-11.618
hize	-11.6181
koman	-11.6183
iyoni	-11.6193
shimira	-11.6194
▁Bafat	-11.6196
▁bakazi	-11.6198
kuvuma	-11.6211
▁kuny	-11.6214
wumvire	-11.6219
▁wabonye	-11.622
hamya	-11.6226
ibisu	-11.623
murwanya	-11.6246
gambiriye	-11.6247
▁ubw	-11.6251
▁nzaha	-11.6255
atira	-11.6259
oko	-11.6264
atanyagu	-11.6268
toranye	-11.6269
▁gus	-11.6273
▁inkuba	-11.6275
avuze	-11.6276
ishobora	-11.6276
kindi	-11.6278
26–	-11.6282
▁ukaza	-11.6287
▁Ashi	-11.6292
▁twi	-11.6295
ngana	-11.6298
8–	-11.6301
▁umuringa	-11.6303
atwara	-11.6304
wimika	-11.6305
zengurutse	-11.6305
abatera	-11.6312
▁it	-11.6316
Iri	-11.6321
nsi	-11.6322
kunda	-11.6325
shwa	-11.6328
▁ariruka	-11.633
nsubiza	-11.6331
matungo	-11.6333
avuge	-11.6339
▁bagaba	-11.634
ad	-11.6344
▁nar	-11.6345
mbu	-11.6346
umuhigo	-11.6348
IG	-11.635
▁nkora	-11.6354
mikufi	-11.6354
▁uzabi	-11.6355
magufwa	-11.6356
imanza	-11.6356
yewe	-11.6356
Gadi	-11.636
anya	-11.6363
Ntuga	-11.6371
camo	-11.6372
rokora	-11.6372
13-	-11.6375
▁feza	-11.6379
▁kig	-11.6381
kurikire	-11.6388
nshoreke	-11.6397
▁Ra	-11.6398
iminyago	-11.64
witwa	-11.6401
rangirira	-11.6417
▁muzabi	-11.6422
▁bagako	-11.6425
rubibi	-11.6436
▁mug	-11.6439
▁Bala	-11.6441
yebusi	-11.6441
Abarefayimu	-11.6443
icyunamo	-11.6443
▁Ashitaroti	-11.6443
▁Basemati	-11.6443
▁Dishoni	-11.6443
▁Eliyowenayi	-11.6443
▁Gedori	-11.6443
▁Kinereti	-11.6443
▁Mahalaleli	-11.6443
▁Metusela	-11.6443
▁Munyegiputa	-11.6443
▁Ntibikabeho	-11.6443
▁Pelegi	-11.6443
▁imyanzuro	-11.6443
▁Maluki	-11.6443
▁Refayimu	-11.6443
▁ihumure	-11.6443
▁kirundo	-11.6443
▁kuzishingamo	-11.6443
▁muremure	-11.6443
▁Rabushake	-11.6443
▁guconga	-11.6443
▁igitutsi	-11.6443
ubupfapfa	-11.6443
▁Tanaki	-11.6443
▁Diboni	-11.6443
▁Merayoti	-11.6443
▁Yeremoti	-11.6443
▁Lotani	-11.6443
▁Shebaniya	-11.6443
Umuyahudi	-11.6443
▁mubitambe	-11.6443
Umunyasiriya	-11.6443
urubingo	-11.6443
▁Yakini	-11.6443
▁akaramata	-11.6443
▁Ahinowamu	-11.6443
▁Yaramuti	-11.6443
▁Banyakanani	-11.6443
▁Tola	-11.6443
▁Shafati	-11.6443
▁igitugu	-11.6443
▁Eleyasa	-11.6443
▁zitabera	-11.6443
▁rusaku	-11.6443
▁Eshitawoli	-11.6443
▁Icyampa	-11.6443
▁Yabini	-11.6443
▁Ntutinye	-11.6443
▁Matitiya	-11.6443
▁induru	-11.6443
▁gusengera	-11.6443
▁Mawoni	-11.6443
▁Inshingano	-11.6443
▁Refaya	-11.6443
▁ruziriho	-11.6444
▁igikuba	-11.6444
▁Umurongo	-11.6444
▁masabato	-11.6444
abarindaga	-11.6444
▁Arahaguruka	-11.6444
▁umug	-11.6444
▁Libuni	-11.6445
▁gisembuwe	-11.6445
▁gikumwe	-11.6445
▁ntibirukanye	-11.6445
▁mboneko	-11.6445
▁kurahuza	-11.6446
IC	-11.6446
▁igiteye	-11.6446
▁Yeredi	-11.6446
▁gushakisha	-11.6447
▁tubone	-11.6447
▁ukwabo	-11.6447
ibyumweru	-11.6447
▁ikizira	-11.6447
▁Yagendeye	-11.6448
▁gukorwa	-11.6448
▁baramwimika	-11.6448
▁utambitse	-11.6448
▁gukebwa	-11.6449
▁Amagufwa	-11.6449
▁bityaye	-11.6449
▁ntibaza	-11.6449
▁Ishiya	-11.6449
▁zisanzwe	-11.6449
▁barajyanywe	-11.645
▁bamwikubita	-11.6451
vumye	-11.6451
▁twubake	-11.6452
▁ukurikiyeho	-11.6452
▁tubiri	-11.6452
▁ndende	-11.6453
urugara	-11.6453
▁kukugirira	-11.6454
▁abatabare	-11.6454
▁ashimwe	-11.6454
▁Soko	-11.6454
ibikwasi	-11.6454
▁bapfiriye	-11.6455
▁Ayiya	-11.6455
▁kumugirira	-11.6455
▁kwiyeza	-11.6456
▁ugoswe	-11.6456
▁Batangira	-11.6457
▁ukongora	-11.6457
kono	-11.6457
arwana	-11.6457
▁Karumi	-11.6457
▁Yamaze	-11.6458
abanyabukorikori	-11.6459
▁azategeke	-11.6459
▁baririmba	-11.6459
Umurwa	-11.646
▁barabarimbura	-11.646
▁kurama	-11.646
▁Atuma	-11.646
ingazi	-11.6462
imigani	-11.6462
▁bamujyana	-11.6463
▁nabategetse	-11.6463
▁bishwe	-11.6463
▁muyakurikize	-11.6463
▁wuzuye	-11.6464
irembo	-11.6464
▁Meriba	-11.6466
bantu	-11.6466
▁bivamo	-11.6467
▁bananiwe	-11.6467
▁kuvugwa	-11.6468
▁uryamana	-11.6469
▁ubeza	-11.6469
▁barasigaye	-11.6469
▁asubirayo	-11.6469
▁bakurikiraho	-11.647
▁98	-11.647
▁rikaba	-11.647
▁basahuye	-11.647
▁wampaye	-11.6471
▁cyaryo	-11.6472
▁kuryama	-11.6472
▁yarambwiye	-11.6474
wamo	-11.6475
▁kumwica	-11.6475
▁inabi	-11.6475
ibihuga	-11.6476
tegura	-11.6476
▁bajyanywe	-11.6476
ubutwari	-11.6477
▁dukozwe	-11.6478
shima	-11.6479
yigarurire	-11.6479
▁yigomeka	-11.6479
▁abawe	-11.648
tegetsi	-11.6481
▁ntashobora	-11.6482
▁yihishe	-11.6482
▁bagitambira	-11.6484
▁impamvu	-11.6484
▁kumukorera	-11.6489
gendekeye	-11.6491
▁agatuma	-11.6491
30–	-11.6491
▁gushinga	-11.6493
▁babibwira	-11.6493
▁bakaza	-11.6495
bahe	-11.6498
▁mwakoze	-11.6499
Uzabohe	-11.6499
▁mutyo	-11.6499
▁biyiriza	-11.6499
dukurikije	-11.6501
▁kuboneka	-11.6501
▁basize	-11.6504
amazina	-11.6505
▁birindiro	-11.6507
bigiriye	-11.6515
▁yonyine	-11.6516
Yeho	-11.6518
▁yamuhaye	-11.6518
▁wicara	-11.6519
▁wategetse	-11.652
▁kukubwira	-11.6525
suzuguye	-11.6525
▁tub	-11.6526
isengesho	-11.6526
imbaho	-11.6528
nihagira	-11.6529
▁guhunga	-11.6529
Rimoni	-11.6531
amwicira	-11.6533
basubiza	-11.6535
ahaye	-11.6535
urwibutso	-11.6536
▁amusanga	-11.6538
▁mubone	-11.6539
▁yatangiye	-11.6543
▁yayi	-11.6545
bihereranye	-11.6546
▁bit	-11.6546
▁Nara	-11.6547
▁bisa	-11.655
ereza	-11.655
▁agisha	-11.6551
▁Yerusa	-11.6552
garagaza	-11.6554
vanye	-11.6555
ero	-11.6555
muhamba	-11.6556
▁sa	-11.6558
ivu	-11.6561
igicumuro	-11.6567
abakomeye	-11.6568
▁arinjira	-11.6569
agenje	-11.6569
umukene	-11.657
▁bizababere	-11.6574
▁kubakira	-11.6574
▁gihome	-11.6576
kabure	-11.6577
ibitangaza	-11.6578
▁Es	-11.658
▁nshingano	-11.658
▁har	-11.6585
▁basa	-11.6585
▁Aro	-11.6585
▁mbu	-11.6591
agakiza	-11.6592
▁aravu	-11.6593
aryamana	-11.66
umwuzure	-11.66
▁usigaye	-11.6603
umugozi	-11.6605
igire	-11.6607
▁mutari	-11.6608
▁azak	-11.6609
numvise	-11.661
nimugera	-11.661
▁mivumo	-11.6613
esha	-11.6613
umubabaro	-11.6614
inkuba	-11.6618
▁muze	-11.6621
▁uhumanye	-11.6621
▁Oya	-11.6622
▁umukire	-11.6623
▁iminwa	-11.6624
▁kiba	-11.6624
▁yinjiye	-11.6625
komoka	-11.6625
▁ahambwa	-11.6626
▁nge	-11.6626
▁ibikeri	-11.6627
yumva	-11.6627
▁Tumimu	-11.6628
▁umuyobozi	-11.6629
▁ibitekerezo	-11.6629
▁ace	-11.663
▁kunyura	-11.6632
musubize	-11.6633
▁turyamane	-11.6633
▁Umuriro	-11.6633
tangaza	-11.6635
▁Indi	-11.6636
amakomamanga	-11.6636
Abisiraye	-11.6637
▁Dori	-11.6638
imuhengeri	-11.6639
▁arata	-11.6639
▁nategetse	-11.6639
▁bukaba	-11.664
amusabye	-11.6642
▁rirenga	-11.6643
▁amugira	-11.6648
▁yambuka	-11.6651
▁Gi	-11.6651
Abasidoni	-11.6651
▁ibitiyo	-11.6653
akuraho	-11.6654
boshywe	-11.6655
ibifunga	-11.666
ntumwa	-11.6661
seka	-11.6662
garutse	-11.6665
igomba	-11.6667
etse	-11.6669
▁murongo	-11.6669
ukora	-11.667
▁babakurikiye	-11.6673
▁yakubwiye	-11.6674
▁kizaza	-11.6675
▁nshyize	-11.668
iteka	-11.6682
Hanani	-11.6683
▁barongera	-11.6688
abatuye	-11.6694
▁Nz	-11.6695
▁bigenza	-11.6697
hesha	-11.6697
▁bazaga	-11.6698
kamwe	-11.6705
▁ifitanye	-11.6705
▁ntimuz	-11.6709
▁Ira	-11.6709
▁akuramo	-11.671
nyu	-11.6711
▁muhigo	-11.6715
bagize	-11.6716
kazunamira	-11.6726
▁avuza	-11.6726
hema	-11.6738
▁kagezi	-11.6739
▁Abanetinimu	-11.6742
▁sinza	-11.6742
▁ndahiro	-11.675
iyiriza	-11.6753
aracyariho	-11.6756
tani	-11.6759
atazagira	-11.6761
asize	-11.6763
▁bishe	-11.6764
▁ukiranuka	-11.6765
nyumva	-11.6767
banza	-11.6768
irukana	-11.6777
▁Ashu	-11.678
ambitse	-11.6781
amapfundo	-11.6781
▁baja	-11.6783
irukanwa	-11.6783
▁mukuye	-11.6784
▁bera	-11.6789
▁bir	-11.6791
horera	-11.6796
bashitsi	-11.6798
▁abyuka	-11.6799
▁icu	-11.68
aman	-11.6803
abakazana	-11.6804
▁wagiye	-11.6805
▁abaririmbyi	-11.6805
▁yishimiye	-11.6807
bangurira	-11.6808
▁umunya	-11.6808
bumbura	-11.6814
shakire	-11.6815
▁masekurume	-11.6816
▁nara	-11.6821
▁hariya	-11.6823
ajyaga	-11.6824
sanzwe	-11.6824
▁ukurikira	-11.6829
▁barye	-11.6833
kureho	-11.6834
▁yac	-11.6845
▁zimu	-11.6845
bibe	-11.6848
▁bakoresha	-11.6851
iyeli	-11.6854
▁ukize	-11.6854
sarura	-11.6856
▁uwanjye	-11.6857
abata	-11.6859
yerekeje	-11.6861
▁ihinduka	-11.6862
▁muja	-11.6863
▁jya	-11.6867
▁dufunga	-11.6876
▁imbibi	-11.6876
myenda	-11.6877
▁igaragaza	-11.6877
mbuye	-11.6879
▁urusaku	-11.6887
▁esheshatu	-11.6892
▁Ntimuga	-11.6897
▁uworoheje	-11.6897
urifuza	-11.6901
▁intungura	-11.6902
yavaga	-11.6903
▁ndabinginze	-11.6907
▁urugi	-11.691
▁ikomoka	-11.691
▁ibic	-11.6912
▁baraha	-11.6912
hu	-11.6914
wice	-11.6914
▁nkwiriye	-11.6915
▁iva	-11.6917
▁uhorera	-11.6924
▁buka	-11.6925
gatuma	-11.6933
▁amabakure	-11.6938
▁uburabyo	-11.6943
▁bitum	-11.695
itotombera	-11.6952
bashyiraho	-11.6954
mufuka	-11.6962
wari	-11.6964
mukerubi	-11.6966
25–	-11.6968
13–	-11.6969
byambu	-11.6978
cire	-11.6983
ubona	-11.7001
boneye	-11.7003
renge	-11.7003
▁nu	-11.701
sho	-11.7023
pfuka	-11.7025
tonnye	-11.7026
mweli	-11.7031
yiyongera	-11.7031
▁Eliyaki	-11.7032
▁wan	-11.7037
▁bakure	-11.7039
▁Nzaba	-11.704
bwiraga	-11.7041
yoherereza	-11.7041
kizingiti	-11.7041
▁igwa	-11.7042
ud	-11.7052
shyiriraho	-11.7057
▁mwar	-11.7059
mwambika	-11.7061
imara	-11.7065
kamu	-11.7066
ajyanye	-11.7067
▁urundi	-11.7068
yarabaye	-11.7069
baye	-11.7072
▁ntuzige	-11.7074
▁ngamiya	-11.7081
▁Bahur	-11.7084
▁rezo	-11.7092
izatwikwe	-11.7092
ishingiye	-11.7097
akibabarirw	-11.7097
▁utere	-11.711
komeye	-11.7111
roni	-11.7116
abyara	-11.7118
aje	-11.7118
▁magara	-11.7132
▁imya	-11.7133
▁rug	-11.7137
▁aboroheje	-11.7151
▁amakanzu	-11.7151
gihe	-11.7153
▁umunyamahanga	-11.7157
▁umukazana	-11.7157
▁amatafari	-11.7158
▁udahumanye	-11.7159
ikoreye	-11.716
injire	-11.7164
▁imigambi	-11.7166
▁Bar	-11.7167
ndeka	-11.7169
umanuke	-11.7172
▁igihanga	-11.7172
ukagenda	-11.7173
shyingire	-11.7175
gukorera	-11.7179
▁uhari	-11.7181
kuri	-11.7182
teje	-11.7185
ntimu	-11.7187
ryo	-11.7193
shyiraho	-11.7195
akoresheje	-11.72
shije	-11.7206
kana	-11.7212
ujuje	-11.7214
abishyire	-11.7214
▁matwi	-11.7214
hamagara	-11.7215
tumye	-11.7217
wemere	-11.7219
inko	-11.7221
ubonye	-11.7222
▁mura	-11.7222
akikije	-11.7224
▁moko	-11.7226
▁nshyira	-11.723
ahereye	-11.7238
▁Mw	-11.7241
agerageza	-11.7243
teme	-11.7246
gota	-11.726
▁bacuranga	-11.7266
▁ugutwi	-11.7269
▁angana	-11.7271
atangira	-11.7273
▁agire	-11.7284
ry	-11.7284
▁yerekeye	-11.7286
▁bareke	-11.7287
▁mugeze	-11.7288
avanye	-11.7294
bahana	-11.7308
menagura	-11.7309
▁hagira	-11.731
▁ntibuza	-11.7312
iremeye	-11.7315
akaga	-11.7323
hano	-11.7325
▁Ah	-11.7326
rapfa	-11.7326
▁basenga	-11.7335
tegeke	-11.7335
nkiza	-11.734
kurinda	-11.734
ngirira	-11.7341
▁anyuz	-11.7348
ula	-11.7351
▁bakomotse	-11.7354
▁birenge	-11.7361
▁bisobanuro	-11.7364
ifuje	-11.7369
mbonye	-11.7369
kingi	-11.7371
▁begera	-11.7374
ukura	-11.7377
▁uzane	-11.7377
▁ubone	-11.7379
▁Shi	-11.7382
▁kuy	-11.7384
zongera	-11.7386
▁babone	-11.7387
barahiye	-11.7398
janjagura	-11.7399
▁wabaga	-11.7399
ngera	-11.7403
uramenye	-11.7403
▁mwica	-11.7404
▁amwe	-11.7405
kareba	-11.7406
nyi	-11.7411
atura	-11.7412
▁ubutare	-11.7413
aburira	-11.7413
▁mvira	-11.7414
ukorere	-11.7416
▁abakiranutsi	-11.7419
▁ubwanwa	-11.7419
▁abasigaye	-11.7429
ashobora	-11.7431
▁nze	-11.7434
▁tugera	-11.744
ishyize	-11.7441
mujyane	-11.7444
wita	-11.7449
umutin	-11.745
karere	-11.745
▁Bab	-11.745
asezerera	-11.7453
dakwiriye	-11.7457
sinz	-11.7458
T	-11.746
arangurura	-11.7462
suka	-11.7464
atuye	-11.7466
guhamagara	-11.7467
▁kugura	-11.7469
utume	-11.7471
nsaba	-11.7473
banya	-11.7475
▁Ibyah	-11.748
Ntuka	-11.7483
horerwe	-11.7485
iwe	-11.7487
vana	-11.7488
sabwa	-11.7489
▁Sheke	-11.7489
▁yaku	-11.7489
18-3	-11.7489
ramuka	-11.7493
manuke	-11.7493
▁ibisiga	-11.7502
▁133	-11.751
zitwara	-11.7512
nim	-11.752
hagije	-11.7524
guye	-11.7526
wagiranye	-11.7535
▁akazi	-11.7536
▁azayi	-11.7538
fatanya	-11.7547
mbure	-11.7548
▁mp	-11.7549
yanga	-11.7551
15-3	-11.7553
▁bacura	-11.7565
jyewe	-11.7571
▁hanyu	-11.7573
ashatse	-11.7575
yagijwe	-11.7576
▁kan	-11.7577
▁ubwiza	-11.7581
▁abajya	-11.7603
tira	-11.762
agenda	-11.7623
urura	-11.7626
▁Bazafat	-11.7626
8-	-11.7627
fungura	-11.7628
▁yarab	-11.7631
ngorwa	-11.7643
shundura	-11.7643
▁yavu	-11.7654
ororoka	-11.7658
▁babaza	-11.7659
▁amacumu	-11.7664
are	-11.7672
buye	-11.7679
wirukana	-11.7683
iramo	-11.7685
barize	-11.7685
uzamuke	-11.7686
angiriye	-11.769
▁yuba	-11.7696
▁ahinduka	-11.7697
▁gambo	-11.7713
aye	-11.7713
Iyo	-11.7723
Abah	-11.7734
arota	-11.774
▁ayishyira	-11.7742
hamba	-11.7743
toranyije	-11.7745
pfundo	-11.7749
ateye	-11.775
ongereho	-11.775
Nanone	-11.7752
yoni	-11.7754
▁ntiyab	-11.7756
▁guk	-11.7767
sohoza	-11.777
vugaho	-11.7772
atera	-11.7772
eye	-11.7772
▁Twa	-11.7779
twikira	-11.78
▁ibifite	-11.7801
ubakira	-11.7805
shakira	-11.781
nzira	-11.7811
▁umuto	-11.7812
▁ukuye	-11.7816
▁akam	-11.7821
akoraga	-11.7823
abanya	-11.7823
reza	-11.7824
Ibyo	-11.7826
wahoze	-11.7828
ibagirwa	-11.7829
▁muba	-11.7838
▁ikora	-11.7842
asa	-11.7844
▁abah	-11.7844
gere	-11.7847
wawe	-11.7855
▁Har	-11.786
cyubahiro	-11.7865
▁116	-11.7874
amubwira	-11.7878
Yowabu	-11.7883
kambika	-11.7887
garara	-11.789
icuzwe	-11.7895
▁ny	-11.7906
▁guh	-11.7906
woherereza	-11.7907
mura	-11.7908
nimw	-11.7908
iriba	-11.7911
yubakiye	-11.7911
▁Abisiraye	-11.7914
beho	-11.7922
urw	-11.7927
▁itako	-11.7928
genderaga	-11.7929
nwa	-11.7936
mutinye	-11.794
gurisha	-11.7943
▁Abida	-11.7943
▁batuma	-11.7946
▁wi	-11.7946
▁rit	-11.7946
▁umwuzure	-11.7948
rwanya	-11.7965
arangira	-11.7965
yisubiza	-11.7968
ngiranye	-11.7969
▁yacuze	-11.797
Mana	-11.7974
ijwi	-11.7987
▁bubi	-11.7989
nti	-11.7994
▁muha	-11.8004
▁ntibyandi	-11.8012
sengesho	-11.8013
▁Bajy	-11.8014
kabije	-11.8022
taka	-11.8022
shinge	-11.8024
▁azatura	-11.8028
amaye	-11.8034
nanjye	-11.8043
rano	-11.8054
ahumanyije	-11.8054
▁yakora	-11.8061
bigenza	-11.8063
mya	-11.8065
dukonzo	-11.8073
zibona	-11.8073
mbuwe	-11.8074
bijyane	-11.8076
▁kwiruka	-11.8089
jo	-11.8093
ahiga	-11.8093
▁biraba	-11.8095
abanyamba	-11.8097
Beti	-11.8097
▁akamuha	-11.8097
herezo	-11.8099
tandukanye	-11.8101
▁abera	-11.8103
▁Yerusale	-11.8104
▁ahana	-11.8105
▁Maliki	-11.8105
indwi	-11.8105
▁sogokuru	-11.8106
Abagirugashi	-11.811
umwimerere	-11.811
▁Abihayili	-11.811
▁Bamaleki	-11.811
▁Binuwi	-11.811
▁Dowegi	-11.811
▁Elizafani	-11.811
▁Eshikoli	-11.811
▁Makipela	-11.811
▁Ofeli	-11.811
▁Penuweli	-11.811
▁Rehabiya	-11.811
▁Resini	-11.811
▁Yahaziyeli	-11.811
▁Yediyayeli	-11.811
▁Zofari	-11.811
▁alumugimu	-11.811
▁ibirundo	-11.811
▁imishwaro	-11.811
▁shelegi	-11.811
▁Ahiyezeri	-11.811
▁Amotsi	-11.811
▁Zilupa	-11.811
▁nzakiguha	-11.811
▁Azazeli	-11.811
▁ayibangikanyije	-11.811
▁uzanzungura	-11.811
▁Eliyasafu	-11.811
▁Hanoki	-11.811
▁Zipora	-11.811
imishishe	-11.811
▁Pashuri	-11.811
▁Yehosadaki	-11.811
▁Yokitani	-11.811
▁kugerekeranya	-11.811
▁rungane	-11.811
▁gahunda	-11.811
Abanakimu	-11.811
Umutemani	-11.811
▁Maresha	-11.811
▁Yamini	-11.811
▁gisindisha	-11.811
▁Rekemu	-11.811
▁bitambirwa	-11.811
umushishe	-11.811
▁Hulida	-11.811
▁cyapimwe	-11.811
▁umwobo	-11.811
nimwigire	-11.811
▁Geshuri	-11.811
▁mpagaze	-11.811
amasugi	-11.811
▁Goliyati	-11.811
▁haruguru	-11.811
▁umusoro	-11.811
▁Shishaki	-11.811
▁Ebedi	-11.811
▁Edureyi	-11.811
▁Azareli	-11.811
ibihogo	-11.811
▁nyandiko	-11.811
abagome	-11.811
Sheyani	-11.811
▁Banyegiputa	-11.811
▁Ubufindo	-11.811
Umumowabukazi	-11.811
▁bizakorwe	-11.811
▁Elimeleki	-11.811
▁rwihishwa	-11.811
▁Guloti	-11.811
▁Yahasi	-11.811
▁nyumbu	-11.811
▁Bebayi	-11.811
▁Uburebure	-11.811
▁mwobo	-11.811
▁Azirikamu	-11.811
▁dusize	-11.811
▁Hodiya	-11.811
Abapeleti	-11.811
▁Rewu	-11.811
▁Arawuna	-11.811
▁gushidikanya	-11.811
▁amutangire	-11.811
▁Rwavaga	-11.811
▁Mahil	-11.811
▁butambitse	-11.811
▁ibibarimbuza	-11.811
▁baricara	-11.8111
▁zokeje	-11.8111
▁Uramenye	-11.8111
▁Nayoti	-11.8111
▁ricuranywe	-11.8111
bonekera	-11.8111
▁Nahati	-11.8111
▁Asiri	-11.8111
▁ntiwigeze	-11.8111
▁risumba	-11.8111
▁Aseli	-11.8111
▁Shamayi	-11.8111
▁bahatuye	-11.8111
▁abyosereza	-11.8111
▁Remaliya	-11.8111
▁umusomyi	-11.8111
▁Nobu	-11.8112
▁urujijo	-11.8112
▁tudasembuwe	-11.8112
▁gusobanura	-11.8112
▁gukoreshwa	-11.8112
Shuwali	-11.8112
▁amayeri	-11.8112
▁baramukurikira	-11.8112
▁riturwa	-11.8113
Abahori	-11.8113
▁byejejwe	-11.8113
▁gihuru	-11.8113
▁Adulamu	-11.8113
▁Natwe	-11.8113
▁yazanaga	-11.8113
▁bwangu	-11.8114
▁Amiyeli	-11.8114
budahemuka	-11.8114
▁zibajwe	-11.8114
▁gusohoka	-11.8114
▁Abibu	-11.8114
▁bimuvamo	-11.8114
akayungiro	-11.8114
▁Umwenda	-11.8115
▁uzazicurire	-11.8115
▁bakurikiye	-11.8116
▁kigari	-11.8116
▁bizagenda	-11.8116
▁Izina	-11.8116
▁Yimye	-11.8116
hore	-11.8116
▁guhindukira	-11.8116
▁gitare	-11.8116
▁Izabe	-11.8116
▁bamukikije	-11.8117
▁rishya	-11.8117
▁barabica	-11.8117
▁kuyicungura	-11.8118
▁byategetswe	-11.8118
▁yarabwiye	-11.8118
▁muhango	-11.8118
▁wonyine	-11.8118
▁Shuri	-11.8118
▁yarakoreye	-11.8118
▁guhinda	-11.8118
▁kuvoma	-11.8119
inkazi	-11.8119
▁babicira	-11.812
imitini	-11.812
▁byaturutse	-11.812
▁utubere	-11.812
ikoti	-11.812
ibihuru	-11.812
▁Akimara	-11.812
▁yakoreraga	-11.8121
▁riturutse	-11.8121
▁kumuririra	-11.8122
▁kwizihiriza	-11.8122
▁kikagera	-11.8122
sinzongera	-11.8122
▁agashaka	-11.8123
▁bavutse	-11.8123
▁ryihariye	-11.8124
▁Ahiyo	-11.8124
▁mukareka	-11.8125
▁arabica	-11.8125
tukamb	-11.8126
▁bavuzwe	-11.8126
▁zigiye	-11.8126
▁Abat	-11.8126
▁rwabya	-11.8126
▁kubakwa	-11.8126
▁impamba	-11.8127
▁bitandukanye	-11.8127
▁badafite	-11.8128
▁Ramu	-11.8128
atabarana	-11.8129
▁zitagira	-11.8129
▁yakunze	-11.8129
▁azaguhe	-11.813
▁kurasa	-11.813
▁ibib	-11.813
▁kubagirira	-11.813
akagati	-11.813
▁rwazo	-11.813
sohotse	-11.8131
▁tujyana	-11.8131
▁bihinduka	-11.8131
Uko	-11.8131
▁Kibu	-11.8131
bakomotse	-11.8131
▁kubakiza	-11.8132
▁baciye	-11.8132
▁bateraniye	-11.8133
▁waryamanye	-11.8133
▁Abiyamu	-11.8133
▁batsindirwa	-11.8134
▁ubeze	-11.8134
▁ibiribwa	-11.8134
▁gakomeye	-11.8134
▁baragiye	-11.8135
▁biruta	-11.8135
▁barahagurukaga	-11.8135
▁bamugiriye	-11.8135
▁tuzamuke	-11.8136
▁Babibwi	-11.8136
▁atumiza	-11.8136
▁batoranyijwe	-11.8136
▁Agiye	-11.8137
▁witegereze	-11.8137
▁zazo	-11.8137
▁rimeze	-11.8138
▁baramufata	-11.8138
▁yigaruriye	-11.8138
▁guturamo	-11.8139
▁yarapfuye	-11.8139
▁isobekeranye	-11.814
▁ishize	-11.814
▁umugenda	-11.814
nawe	-11.8141
▁rikomeza	-11.8141
▁Afite	-11.8142
▁harigeze	-11.8142
zikurikiye	-11.8143
▁yiburungushuye	-11.8144
▁gusarura	-11.8144
sheshe	-11.8144
hinguranya	-11.8144
▁kunyuramo	-11.8144
remamo	-11.8144
▁batoragura	-11.8146
Iriba	-11.8146
▁ishoka	-11.8146
▁Shema	-11.8147
▁nzabana	-11.8147
cya	-11.8147
imbuga	-11.8148
enye	-11.8148
▁bagota	-11.8148
▁yagutegetse	-11.8148
tugirane	-11.815
▁Nzu	-11.8152
▁arashaka	-11.8153
▁byabyo	-11.8155
▁bwije	-11.8156
abagurisha	-11.8158
itewe	-11.8159
▁yabakoreye	-11.8161
▁babibonye	-11.8161
▁bavukiye	-11.8161
▁yacitse	-11.8161
Mowabu	-11.8163
▁kujyamo	-11.8164
▁amwambika	-11.8165
▁wuba	-11.8165
▁umus	-11.8166
hamagaye	-11.8167
▁kugukorera	-11.8167
▁byagombaga	-11.8167
▁rwawo	-11.8168
▁musoz	-11.8169
▁uturere	-11.8169
▁bwawo	-11.817
▁Usi	-11.817
▁yarwanye	-11.8173
▁bumve	-11.8173
▁bacumura	-11.8174
▁nasuzuma	-11.8174
▁abasanga	-11.8174
▁bahinda	-11.8174
▁nasubire	-11.8177
▁ugendera	-11.8178
awuhungiramo	-11.8178
uracya	-11.818
ramburira	-11.8182
▁bubatse	-11.8183
inyama	-11.8184
nimujye	-11.8184
▁yagendeye	-11.8184
▁bakava	-11.8184
abate	-11.8186
▁amasoko	-11.8186
uba	-11.8186
▁azicwa	-11.8186
nimuhaguruke	-11.8186
▁tugende	-11.8187
yera	-11.8189
▁mababa	-11.8189
▁waturutse	-11.819
12-	-11.8193
jisho	-11.8195
▁yaciye	-11.8195
▁barusha	-11.8195
▁kuzirya	-11.8196
Eliya	-11.8197
▁Bava	-11.8198
▁Ntuz	-11.8198
▁babikoze	-11.8199
bariza	-11.8199
uh	-11.82
shimangira	-11.8202
▁kuzajya	-11.8202
▁mugezi	-11.8203
▁ryanyu	-11.8203
▁myobo	-11.8204
▁wambwiye	-11.8208
▁Amaze	-11.821
anze	-11.8212
▁azavuga	-11.8212
ugirira	-11.8213
▁Baravuga	-11.8219
▁Ik	-11.822
▁bashatse	-11.822
▁utariho	-11.8222
imikufi	-11.8228
▁kugusha	-11.8228
▁Is	-11.823
▁awushyira	-11.8231
▁nguhaye	-11.8234
▁Mosa	-11.8234
▁zig	-11.8235
▁yaka	-11.8236
▁bakomeze	-11.8236
ezeki	-11.8236
▁apfe	-11.8236
▁rwengero	-11.8237
▁bambuka	-11.8238
nimwumve	-11.8238
alanto	-11.8241
▁bigenewe	-11.8241
▁mutungo	-11.8241
▁yoherereza	-11.8242
▁ihita	-11.8248
▁biringirwa	-11.8253
▁ryiza	-11.8254
▁arawu	-11.8256
▁zigeze	-11.8256
yakabaye	-11.8258
▁rwego	-11.826
▁bihumanye	-11.826
▁iha	-11.8261
▁Ahira	-11.8261
▁asohoka	-11.8267
tambaro	-11.8271
▁zisobanura	-11.8272
nika	-11.8272
▁kwinginga	-11.8276
jwi	-11.8279
▁bambere	-11.828
bimenyetso	-11.8284
gagi	-11.8284
ibicuzwe	-11.8284
▁wishwe	-11.8286
▁bahe	-11.8287
▁ntibak	-11.8287
ito	-11.8288
atangwa	-11.829
hagarika	-11.8292
▁ntiza	-11.8295
tekereze	-11.8298
▁gutwikira	-11.8301
▁isoko	-11.8302
agire	-11.8305
▁Baya	-11.8308
▁ukiriho	-11.8308
▁ruguru	-11.8309
▁yubakira	-11.831
yihe	-11.8312
▁ubuntu	-11.8313
▁bakwiriye	-11.8313
▁Ntaza	-11.8314
▁ashiramo	-11.8314
▁yahanye	-11.8316
▁avuka	-11.8319
kenyera	-11.832
▁Aki	-11.832
▁yatuye	-11.832
▁wavuye	-11.8321
mubarure	-11.8321
▁RUSI	-11.8324
▁barambura	-11.8324
▁madarajya	-11.8325
▁yitwikiriye	-11.8325
▁imiheto	-11.8325
▁azamukana	-11.8325
zirinde	-11.8326
▁Amaleki	-11.8327
▁Umurinzi	-11.8328
▁bigira	-11.8328
▁Uburakari	-11.8329
▁Abagibeyoni	-11.8329
uzatura	-11.8329
▁sinshobora	-11.833
▁Umutima	-11.833
▁Ishiv	-11.8331
▁ntume	-11.8331
▁mutuye	-11.8333
▁Mwese	-11.8333
ugu	-11.8334
▁Ahantu	-11.8334
▁kwitotombera	-11.8335
▁Imyaka	-11.8337
▁yabwo	-11.8338
▁Ubundi	-11.8338
ice	-11.8342
sukaho	-11.8343
wanga	-11.8343
utekereza	-11.8344
ohereza	-11.8345
▁ajugunya	-11.8345
▁waguku	-11.8355
▁umupfakazi	-11.8356
▁arimbura	-11.8357
yegurira	-11.836
▁Abakohati	-11.836
▁niro	-11.8363
agaragarije	-11.8366
zanye	-11.8368
▁Akora	-11.8372
▁uzawu	-11.8373
▁ataza	-11.8375
▁banyaze	-11.8377
ike	-11.8379
abeho	-11.8386
▁Ge	-11.8393
Maka	-11.8394
▁aconze	-11.8396
umugati	-11.8398
▁buretwa	-11.8401
impuhwe	-11.8402
▁naravuze	-11.8402
ifatanya	-11.8406
▁kubamo	-11.8409
9–	-11.8411
bakikije	-11.8414
▁uwawe	-11.8414
tegetse	-11.8415
▁Ahari	-11.8418
▁nzugi	-11.8421
noneho	-11.8424
▁aramwegera	-11.8428
atangiye	-11.8431
▁agabanya	-11.8432
▁akaga	-11.8434
▁igihome	-11.8435
gurumaniye	-11.8439
▁bikozwe	-11.8439
▁ashakisha	-11.8442
▁usa	-11.8442
▁kid	-11.8443
▁umunyu	-11.8443
▁mina	-11.8447
▁nahaye	-11.8452
unga	-11.8455
ikomere	-11.8456
uli	-11.8457
▁bahunze	-11.8459
36–	-11.8461
ishije	-11.8462
▁uzahabwa	-11.8463
▁uture	-11.8466
impeta	-11.8467
▁Haga	-11.8467
bw	-11.8467
Uzafate	-11.8474
▁gisenge	-11.8476
▁hatagira	-11.848
▁atege	-11.848
▁kubiba	-11.8481
▁gusanga	-11.8483
umwamikazi	-11.8485
▁Uru	-11.8485
▁umbwire	-11.8487
umurima	-11.8489
Abisira	-11.8489
bakazana	-11.8491
abaye	-11.8492
▁zuza	-11.8492
guriye	-11.8495
ushake	-11.8498
icuze	-11.8504
mbaza	-11.8504
etayi	-11.8504
imoni	-11.8505
▁wumvise	-11.8505
▁salomu	-11.8507
mururumba	-11.8511
ubuhanga	-11.8513
umunara	-11.8514
▁afashe	-11.8515
▁lemu	-11.8522
byagenze	-11.8523
▁mugomba	-11.8524
▁atya	-11.8525
azi	-11.8528
inzige	-11.853
inzugi	-11.8531
▁Amara	-11.8531
▁bal	-11.8535
Yayiri	-11.8538
ibicu	-11.8541
▁wahisemo	-11.8542
inyangamugayo	-11.8543
azanye	-11.8544
dufite	-11.8545
umukiranutsi	-11.8545
▁uburemere	-11.8546
ubwibone	-11.8547
ibibyimba	-11.8547
shyirwe	-11.8549
▁wororoka	-11.855
nubwo	-11.8551
ume	-11.8551
▁abane	-11.8553
ubutabera	-11.8558
▁bavana	-11.8559
▁wubatse	-11.8559
▁utunganye	-11.856
▁atema	-11.8561
▁ti	-11.8562
ayii	-11.8563
▁ukagira	-11.8564
Shuwa	-11.8565
uburiri	-11.8565
▁uvuge	-11.8566
▁abateza	-11.8566
koraga	-11.8571
umwandukuzi	-11.8572
turakwinginze	-11.8572
ibicumuro	-11.8573
▁ahuman	-11.8575
ifarashi	-11.8575
amacumu	-11.8582
▁azakora	-11.8582
abacuruzi	-11.8582
161	-11.8582
▁inga	-11.8584
yambara	-11.8585
ubumenyi	-11.8588
umwambi	-11.8589
ate	-11.859
▁kohereza	-11.8592
▁anyuze	-11.8593
abashumba	-11.8593
▁dutambaro	-11.8599
nire	-11.86
▁zir	-11.86
uburumbuke	-11.8604
▁ishobora	-11.8604
fasha	-11.8604
abasaruzi	-11.8608
▁bundi	-11.8609
ingoro	-11.861
abajyanama	-11.861
ubumara	-11.8611
▁ada	-11.8611
ranya	-11.8614
ucuzwe	-11.862
cungure	-11.8625
abimubwiye	-11.8626
▁abakene	-11.8627
yumvise	-11.8628
▁Haza	-11.863
▁Yar	-11.8633
▁amukorera	-11.8634
ikomeze	-11.8636
umi	-11.8636
urutare	-11.8639
▁indakemwa	-11.864
▁Tapuwa	-11.8641
▁umwitero	-11.8641
mubona	-11.8649
andikwa	-11.8652
inyana	-11.8654
uhwanye	-11.8655
sigara	-11.8655
▁kwigisha	-11.866
adukoreye	-11.8662
watumye	-11.8662
▁isanz	-11.8663
▁ntiyabumv	-11.8665
▁asama	-11.8665
yazanira	-11.867
▁nke	-11.8672
▁heza	-11.8673
umupfapfa	-11.8675
ubwiza	-11.868
kwishimira	-11.868
ikoreshwa	-11.8681
koranywe	-11.8682
▁ibiteye	-11.8683
▁Azazan	-11.8683
gende	-11.8684
▁uduhe	-11.8685
zamare	-11.8687
▁Bajya	-11.8688
gereye	-11.8693
▁azahe	-11.8696
nditse	-11.87
hasigara	-11.8701
▁Suri	-11.8708
▁bowamu	-11.8711
▁ayashyir	-11.8717
▁wakoreye	-11.8718
anyaga	-11.8719
▁mpano	-11.872
▁barwanye	-11.8722
anditswe	-11.8724
▁yishimira	-11.8725
▁mutambyi	-11.8725
nanutse	-11.8725
atya	-11.8725
mushiki	-11.8728
▁yunamira	-11.8728
tuje	-11.873
avu	-11.8737
ugi	-11.8742
kageza	-11.8743
▁ukomoka	-11.8751
ambika	-11.8753
▁aray	-11.8753
▁ngero	-11.8754
▁ndahiye	-11.8759
ahagarare	-11.8762
cyatumye	-11.8763
▁gukemu	-11.8765
ajyanwa	-11.8767
▁ahi	-11.8768
▁inkoro	-11.8772
afashe	-11.8785
13-3	-11.8792
ibye	-11.8798
atakambira	-11.8801
amutera	-11.8802
▁ikikije	-11.8803
zahita	-11.8806
▁ububi	-11.8809
▁abanyambaraga	-11.8819
▁ndaya	-11.8823
musohore	-11.8824
▁nabwiye	-11.8825
mwumvire	-11.8828
▁atume	-11.8834
hungu	-11.8835
31–	-11.8837
ragenda	-11.8844
vuma	-11.8846
bikore	-11.8848
egereye	-11.885
▁128	-11.8854
uki	-11.8863
ng	-11.8865
▁Iza	-11.8866
remye	-11.8873
▁wejeje	-11.8875
bakure	-11.8875
▁ntuk	-11.8877
avaga	-11.8882
atashoboye	-11.8883
wizihiza	-11.8884
bategeka	-11.8885
▁urupfu	-11.8887
▁Um	-11.889
▁kugwa	-11.8897
sirayeli	-11.8901
aterura	-11.8903
shakaga	-11.8904
▁ushyireho	-11.8905
bwirira	-11.8908
nganira	-11.8909
▁bib	-11.891
▁amashyo	-11.891
▁ibigwi	-11.8911
mfashe	-11.8913
iteguye	-11.8934
▁bayaha	-11.8936
kika	-11.8937
bika	-11.8938
imye	-11.894
▁amera	-11.8943
garuza	-11.8943
sutseho	-11.8947
ndusha	-11.8948
komeretse	-11.8948
▁bige	-11.8951
▁reza	-11.8951
▁impumyi	-11.8952
▁imivumo	-11.8957
uga	-11.8957
enge	-11.8958
▁baku	-11.896
bone	-11.8965
hemukiye	-11.8966
▁asubi	-11.8968
▁inkweto	-11.8968
bisi	-11.8968
or	-11.8968
▁ruga	-11.8971
▁ibih	-11.8975
wohereze	-11.8975
▁bibaye	-11.8983
kurwanya	-11.8985
turutse	-11.8988
menyereye	-11.899
▁bafate	-11.8991
▁amagara	-11.8991
▁arag	-11.8992
atsinda	-11.8997
agucumuyeho	-11.8999
yitaho	-11.9
▁mugo	-11.9003
▁Ntiy	-11.9003
yitangire	-11.9004
wemo	-11.9011
injiza	-11.9011
vuzeho	-11.9016
▁Yad	-11.9024
haye	-11.9026
uke	-11.9026
iyongera	-11.9027
arafashe	-11.9031
23–	-11.9034
▁Tw	-11.9039
▁abakura	-11.904
▁ivuye	-11.9041
mwanze	-11.9049
ruye	-11.9052
isigaye	-11.9053
rodi	-11.9061
zagwa	-11.9062
mutange	-11.9063
uhereye	-11.9066
▁arimo	-11.9069
utse	-11.907
▁ntitu	-11.9073
aciriye	-11.9073
▁ntugire	-11.9074
abaje	-11.9074
▁ubura	-11.9076
ifuzaga	-11.908
▁arazi	-11.9081
▁avana	-11.9081
itambire	-11.9087
mifuka	-11.9088
▁nshaka	-11.9091
▁barayi	-11.91
▁bigo	-11.91
▁turage	-11.9101
▁buto	-11.9105
icyakora	-11.9107
abi	-11.9111
▁ibumba	-11.9114
▁bugingo	-11.9117
▁farashi	-11.9119
▁rera	-11.9119
abagiye	-11.9119
icisha	-11.9133
▁mifuka	-11.9135
abategeka	-11.9137
zahabu	-11.9144
▁abara	-11.9147
▁byatu	-11.9149
▁ushyire	-11.916
▁uzah	-11.9163
tubwira	-11.9171
▁kugu	-11.9172
▁barabaza	-11.9178
▁nkomeza	-11.9178
▁mun	-11.9179
subiye	-11.9188
sohoke	-11.9191
tange	-11.9198
sore	-11.9203
moti	-11.9204
ubahe	-11.9204
▁abab	-11.9212
kiya	-11.9216
▁rigera	-11.9225
19-3	-11.9226
abawe	-11.9227
19–1	-11.9228
zira	-11.923
▁baguma	-11.9247
▁akure	-11.9249
inta	-11.9254
▁uruzi	-11.9264
▁Noneho	-11.9265
▁ibaraza	-11.9268
hagarike	-11.9269
yamu	-11.927
▁ntibikabeho	-11.9271
cyitegere	-11.9277
gusenga	-11.9284
yemo	-11.929
▁Muzamar	-11.9291
ikiri	-11.9296
wenda	-11.9303
▁apfira	-11.9303
▁Sinza	-11.9312
▁imaze	-11.9321
▁lomo	-11.9324
shira	-11.9324
ragira	-11.9324
▁aze	-11.9326
ikubita	-11.9328
itondera	-11.9335
abyaye	-11.9339
isharira	-11.934
byimba	-11.9341
itaka	-11.9343
▁Bati	-11.9349
shakisha	-11.9356
▁abihe	-11.9358
▁bazak	-11.9359
remere	-11.9362
▁abakerubi	-11.9364
▁atanze	-11.9366
▁uzana	-11.9369
izagire	-11.937
tabara	-11.9377
▁ishyira	-11.9379
shinzwe	-11.9384
dashaka	-11.9385
nywaho	-11.9392
▁Naba	-11.9392
yagiye	-11.9398
azane	-11.9403
hagire	-11.9409
irukanye	-11.9418
rokoka	-11.942
nka	-11.9425
Mose	-11.9426
iryaho	-11.9428
tambanwa	-11.9429
▁ntiri	-11.943
koreshwa	-11.9439
guhaye	-11.9441
▁asenya	-11.9446
▁nsaba	-11.9456
avukiye	-11.9464
fatanye	-11.9469
▁amateka	-11.9471
ivuye	-11.9473
umba	-11.9476
▁Bira	-11.9479
lati	-11.948
gambaniye	-11.9484
ombi	-11.9486
ibe	-11.9489
ategereza	-11.949
▁isezera	-11.9502
twikiriza	-11.9505
rayimu	-11.9506
rika	-11.9511
▁bamen	-11.9513
▁Nama	-11.9513
afungura	-11.9523
barimbura	-11.9526
eke	-11.9528
gurishije	-11.9531
ihindura	-11.9534
▁aturuka	-11.9541
▁ingoro	-11.9543
guha	-11.9546
ababwira	-11.9547
▁Amahe	-11.9548
hishe	-11.955
garuke	-11.9551
▁gati	-11.9553
mbitse	-11.9554
ciye	-11.9556
shyingiranwa	-11.9558
Ibi	-11.956
▁umwambi	-11.956
atwika	-11.9564
▁abacuruzi	-11.9567
▁mbaga	-11.9568
▁ibicumuro	-11.9571
▁turakwinginze	-11.9573
▁umwandukuzi	-11.9573
it	-11.9573
yibwira	-11.9577
▁Shuwa	-11.9581
▁kwitwa	-11.9585
afata	-11.9587
rwana	-11.9587
▁amaguru	-11.9597
agenewe	-11.9597
Yakobo	-11.9602
▁yate	-11.961
igizwe	-11.9615
▁biruka	-11.9616
ubatse	-11.9616
▁mbonye	-11.9618
▁araha	-11.9624
itegereje	-11.9626
kwe	-11.9628
ite	-11.9632
la	-11.9633
▁tuka	-11.9645
kabona	-11.965
▁abizi	-11.9656
kagenda	-11.9657
▁Ntuk	-11.9666
seri	-11.9674
▁sina	-11.9677
uzakorera	-11.9678
ategeka	-11.9691
bizanira	-11.9691
itangwa	-11.9694
▁ntibaz	-11.9696
byiza	-11.9709
asigara	-11.9711
garagarize	-11.9713
uzamuka	-11.9713
arambarara	-11.9717
narari	-11.9718
▁vuze	-11.9721
▁Mumenye	-11.9723
imbaga	-11.9723
▁bumvira	-11.9724
▁udu	-11.9726
ijwe	-11.9727
vaga	-11.9732
▁tuzi	-11.9732
urebe	-11.9735
▁nzabi	-11.9735
irebe	-11.9736
Yozefu	-11.9744
▁akambika	-11.9751
as	-11.9752
awurimbur	-11.9754
▁bacitse	-11.9756
roti	-11.9761
bateze	-11.9768
▁atinya	-11.9774
ubahiriza	-11.9778
▁akeba	-11.978
nzatuma	-11.9783
▁ntihazab	-11.9789
▁uzam	-11.9798
▁mvise	-11.9801
mutambira	-11.9802
▁kuzaba	-11.9802
24–	-11.9805
haguruke	-11.9809
ruhukira	-11.9809
▁uhagarara	-11.981
▁Baba	-11.9817
shyikirize	-11.9818
singiza	-11.982
rotorera	-11.982
YA	-11.9824
abaha	-11.9824
byaye	-11.9824
▁ryuzuye	-11.9831
▁Gam	-11.9833
▁Had	-11.9834
ungirire	-11.9838
yirukanye	-11.984
ivanze	-11.984
kuzo	-11.9842
agendeye	-11.9844
Nujya	-11.9854
kuramo	-11.9856
32–	-11.9856
urya	-11.9857
asama	-11.986
yoborwa	-11.9861
▁abacu	-11.9864
wicishe	-11.9868
mva	-11.9869
kuba	-11.987
▁umubabaro	-11.9875
rangije	-11.9879
tumiza	-11.9881
ngu	-11.9881
ahinda	-11.9882
▁umugozi	-11.9883
ugiye	-11.9886
▁amakomamanga	-11.9887
▁ntitw	-11.989
barirwa	-11.9894
▁Ntimuz	-11.9901
ohereje	-11.9904
atanzwe	-11.9905
arangiza	-11.9919
igendera	-11.992
▁ubaha	-11.9925
ugarukire	-11.9928
▁umugo	-11.9928
ishimire	-11.9939
afatwa	-11.9942
▁bazab	-11.9947
▁kim	-11.995
ejuru	-11.9952
umutere	-11.9953
▁nywa	-11.9954
ajye	-11.9956
kanswe	-11.9959
byi	-11.9964
ohereze	-11.9975
▁ataki	-11.9983
asi	-12
tiriza	-12.0001
▁buja	-12.0001
▁Esi	-12.0003
fashaga	-12.0004
buriza	-12.0004
shami	-12.0011
▁aziha	-12.0018
▁ibit	-12.0028
▁ayiha	-12.0032
▁baf	-12.0034
O	-12.0038
kwawo	-12.0039
rambika	-12.0045
bahora	-12.0047
▁Uzafate	-12.005
16-3	-12.005
timuzagire	-12.0052
tandukanyije	-12.0056
▁gisa	-12.0066
▁umupfundikizo	-12.0068
Nyuma	-12.0068
bikomangoma	-12.007
▁ntihazagir	-12.0072
▁ugera	-12.0073
▁ntazaba	-12.0075
tererana	-12.0083
▁aguma	-12.0086
muzanira	-12.0086
▁Shel	-12.0087
zeho	-12.0088
mateka	-12.0092
▁82	-12.0096
cumura	-12.0096
▁ayita	-12.0096
▁muzarya	-12.01
▁murwa	-12.0101
hoshafati	-12.0104
▁inyura	-12.0104
Abanyashidodi	-12.011
Abasimeyoni	-12.011
Hatava	-12.011
Umwaruki	-12.011
ibisigo	-12.011
icyarameyi	-12.011
imboneko	-12.011
uducuma	-12.011
▁Ahiludi	-12.011
▁Akibori	-12.011
▁Amishadayi	-12.011
▁Arugobu	-12.011
▁Dedani	-12.011
▁Ederi	-12.011
▁Hamedata	-12.011
▁Hodaviya	-12.011
▁IMPINE	-12.011
▁KABIRI	-12.011
▁Kemoshi	-12.011
▁Kishoni	-12.011
▁MBERE	-12.011
▁Netaniya	-12.011
▁Oholiyabu	-12.011
▁Okirani	-12.011
▁Potifari	-12.011
▁Salatiyeli	-12.011
▁Shebuna	-12.011
▁Shedewuri	-12.011
▁Shelemiya	-12.011
▁Shelomoti	-12.011
▁Surishadayi	-12.011
▁Yoyada	-12.011
▁Zanowa	-12.011
▁Zerahiya	-12.011
▁imbonankubone	-12.011
▁impuzamirongo	-12.011
▁mpuzamirongo	-12.011
▁ndangagitsina	-12.011
▁safiro	-12.011
Umunyagati	-12.011
▁Ashikeloni	-12.011
▁Dishani	-12.011
▁Mishuma	-12.011
▁agatsinsino	-12.011
▁umushibu	-12.011
Umunyakanani	-12.011
Umwagagi	-12.011
▁Gibetoni	-12.011
▁Haseroti	-12.011
▁Mukushi	-12.011
▁umujyanama	-12.011
imiberoshi	-12.011
▁Bayahudi	-12.011
▁Pahati	-12.011
▁icyizere	-12.011
▁intimba	-12.011
▁Delaya	-12.011
▁Paroshi	-12.011
▁Yebusi	-12.011
▁guhinduranya	-12.011
▁kangahe	-12.011
▁Orebu	-12.011
▁Bigivayi	-12.011
▁Zeboyimu	-12.011
▁Talumayi	-12.011
▁Sheshani	-12.011
▁Tishubi	-12.011
▁Shutela	-12.011
▁bakakugarukira	-12.011
▁Databuja	-12.011
▁nibitondera	-12.011
▁Meremoti	-12.011
ubunaziri	-12.011
▁maremare	-12.011
Mayimu	-12.011
▁Heloni	-12.011
▁ntihazongera	-12.011
imyanda	-12.011
▁Pasika	-12.011
▁rutambi	-12.011
shanyo	-12.011
▁Yafiya	-12.011
umwelayo	-12.011
▁Tirusha	-12.011
umuhondo	-12.011
▁zibyibushye	-12.011
▁ibitugu	-12.011
▁Gihoni	-12.011
▁Serugi	-12.011
▁kumurikwa	-12.011
▁Byongeye	-12.011
▁Abiyezeri	-12.011
▁ibishirira	-12.011
▁amajosi	-12.011
▁Shelomiti	-12.011
▁Sanduku	-12.011
▁Helesi	-12.011
▁Yoyaribu	-12.011
▁gufuha	-12.011
▁Karere	-12.011
▁kuniha	-12.011
▁Bekeri	-12.011
▁dutatu	-12.011
▁Elisuri	-12.011
▁kanunga	-12.011
▁umwungeri	-12.011
▁Inzara	-12.011
▁binjirira	-12.011
▁Eshitemowa	-12.011
▁bukubwire	-12.011
▁acyoserezaho	-12.011
PA	-12.011
sesekamo	-12.011
▁Ono	-12.011
▁Abishuwa	-12.0111
▁byagenwe	-12.0111
▁kwihorera	-12.0111
▁Sipori	-12.0111
▁Rwose	-12.0111
▁logi	-12.0111
▁baramusanga	-12.0111
▁Palu	-12.0111
▁aryita	-12.0111
▁Hosa	-12.0111
urwabya	-12.0111
▁Dodo	-12.0111
▁Hashubu	-12.0111
▁Hagiti	-12.0111
▁zikwikiye	-12.0111
twaracumuye	-12.0111
▁Nimushi	-12.0111
▁Imuna	-12.0111
▁tuzabikora	-12.0111
▁busore	-12.0112
▁Ateri	-12.0112
▁Kenana	-12.0112
▁Zatu	-12.0112
abayobozi	-12.0112
▁Azeka	-12.0112
▁Uriyeli	-12.0112
▁Abishagi	-12.0112
Abanyetiyopiya	-12.0112
▁Amafarashi	-12.0112
▁gutegura	-12.0112
▁Azuba	-12.0112
▁gusingizwa	-12.0112
menagure	-12.0112
▁Purimu	-12.0112
▁Bacura	-12.0113
eretse	-12.0113
▁Suwari	-12.0113
▁yarashatse	-12.0113
▁izakorwa	-12.0113
▁Amaturo	-12.0113
▁iyikikije	-12.0113
▁Amasayi	-12.0113
▁twembi	-12.0113
▁ifuru	-12.0113
▁kubakisha	-12.0113
▁dukoni	-12.0114
▁ntazabura	-12.0114
▁warokotse	-12.0114
▁yaracuze	-12.0114
shoka	-12.0114
▁Adima	-12.0114
Epfo	-12.0114
gihumeka	-12.0115
▁ibiboko	-12.0115
▁bishyirwa	-12.0115
▁zidahumanye	-12.0115
ivumbi	-12.0115
▁bwarahindutse	-12.0115
amagaragamba	-12.0115
▁Byera	-12.0115
▁bwuzuye	-12.0115
abanyanga	-12.0115
▁itarigeze	-12.0115
bishyiraho	-12.0115
▁urubambo	-12.0115
▁gusubira	-12.0115
▁zarwo	-12.0116
▁nagira	-12.0116
cu	-12.0116
▁ukwayo	-12.0116
▁Umutwe	-12.0117
▁araryama	-12.0117
▁barebare	-12.0117
▁mugozi	-12.0117
▁kwihanganira	-12.0117
▁utanduye	-12.0117
▁arisimbu	-12.0117
▁bagasingiza	-12.0117
iriwe	-12.0118
▁baramugambanira	-12.0118
▁uzabyara	-12.0118
▁rugere	-12.0118
▁kubarusha	-12.0118
▁Ntiyari	-12.0118
▁igikoresho	-12.0118
▁babyina	-12.0118
abasaza	-12.0119
▁tumeze	-12.0119
▁gicuku	-12.0119
▁ubatere	-12.0119
▁aturwa	-12.0119
▁wamennye	-12.0119
▁Amahanga	-12.012
▁buzabe	-12.012
▁kunkurikira	-12.012
▁honyine	-12.012
▁arakura	-12.012
▁kugukiza	-12.012
abuzukuruza	-12.012
▁rumeze	-12.012
▁kumwanga	-12.0121
inkozi	-12.0121
▁kidahumanye	-12.0121
ubusitani	-12.0121
▁umwambike	-12.0121
▁bagashira	-12.0121
▁Elati	-12.0121
▁bariyeza	-12.0122
▁zisanga	-12.0122
mwicisha	-12.0122
▁bazamenya	-12.0122
▁tuzakorera	-12.0122
▁azayasuke	-12.0123
▁guhumba	-12.0123
bene	-12.0123
▁Yohereza	-12.0123
uhurire	-12.0124
▁Yabaye	-12.0124
mwuzure	-12.0125
▁ntiyareka	-12.0126
▁urwuri	-12.0126
▁gihagarara	-12.0126
▁Kabu	-12.0126
▁mashyi	-12.0127
▁ibitsi	-12.0127
▁udukwege	-12.0127
▁rwaryo	-12.0127
▁ukurikize	-12.0127
▁bamukoreraga	-12.0127
▁barambuka	-12.0128
▁bamukorere	-12.0129
▁wadukuye	-12.0129
marira	-12.0129
ububabare	-12.0129
▁Icumi	-12.0129
▁mugwire	-12.0129
tinyutse	-12.0129
▁nikigera	-12.0129
amubonekera	-12.013
ambuka	-12.013
▁udafite	-12.013
▁Mufate	-12.013
▁kumena	-12.013
yabo	-12.013
▁ipanu	-12.0131
▁ituze	-12.0131
▁yapfiriye	-12.0131
▁bitya	-12.0131
▁bakareka	-12.0131
▁ukubo	-12.0132
▁bazishyira	-12.0132
▁bahise	-12.0133
▁baragaruka	-12.0133
▁ryakabaye	-12.0133
zekiya	-12.0133
▁bavuzaga	-12.0133
rumbo	-12.0133
▁buvuge	-12.0134
▁amato	-12.0135
▁kugenderamo	-12.0135
barangiza	-12.0135
▁kut	-12.0135
▁ukam	-12.0135
▁arengera	-12.0135
▁bakorani	-12.0136
▁yemerewe	-12.0136
▁Icyaha	-12.0136
▁wemejwe	-12.0139
mbwire	-12.014
▁unzanire	-12.0141
▁yateguye	-12.0141
▁munyamahanga	-12.0141
▁byagendaga	-12.0141
▁zimaze	-12.0141
▁Ibuka	-12.0142
▁asimbura	-12.0142
▁babigenje	-12.0143
▁kumutera	-12.0143
▁yaby	-12.0143
▁muhamba	-12.0143
▁tunyura	-12.0144
▁bwabyo	-12.0144
▁agakorera	-12.0145
▁bungana	-12.0145
▁ahagurukana	-12.0146
▁kwitotomb	-12.0146
▁nzakubwira	-12.0146
▁ritambanwa	-12.0147
mitego	-12.0147
▁bimika	-12.0147
turamo	-12.0148
anaga	-12.0148
▁rukaba	-12.0149
▁adashobora	-12.0149
▁abenshi	-12.015
▁yicayeho	-12.015
▁biteganye	-12.015
aliyeli	-12.0151
abazima	-12.0151
▁yicwe	-12.0152
imbeba	-12.0152
▁ubwabo	-12.0153
▁kitagira	-12.0153
▁bazicwe	-12.0154
ugera	-12.0155
▁batangaza	-12.0155
▁bagasenga	-12.0155
▁abwirira	-12.0155
gihabwe	-12.0156
▁uzubaka	-12.0156
rota	-12.0158
▁bumaze	-12.0158
▁akabwira	-12.0159
mbuke	-12.0159
aturuka	-12.016
▁Izi	-12.0161
▁gifatanya	-12.0161
Intama	-12.0161
▁bahuje	-12.0161
amije	-12.0161
▁yarababwiye	-12.0161
▁bakagira	-12.0162
▁babicamo	-12.0162
kumva	-12.0162
iruta	-12.0163
ishinga	-12.0163
▁yahunze	-12.0163
▁wambaye	-12.0164
▁ntagire	-12.0165
▁wu	-12.0165
fitanye	-12.0167
▁adafite	-12.0167
▁gushyiraho	-12.0167
▁mukomere	-12.0168
▁bigarurire	-12.0168
▁turimo	-12.0169
▁yagiriye	-12.017
uwapfuye	-12.0173
bimenyeshe	-12.0174
▁yanyaze	-12.0176
▁barebe	-12.0177
▁ubwayo	-12.018
▁ngufu	-12.0181
▁bumenye	-12.0182
wiyereka	-12.0184
gitambo	-12.0184
abarurwa	-12.0184
vangiye	-12.0184
▁akabi	-12.0185
▁bamanutse	-12.0185
tidushobora	-12.0186
▁murambo	-12.0186
tsa	-12.0188
ikorupiyo	-12.0188
ononekaye	-12.019
▁wabyaye	-12.019
▁Elimu	-12.019
▁udashobora	-12.0191
▁nzagira	-12.0192
ungirije	-12.0193
niro	-12.0193
zanyura	-12.0194
▁yitwaje	-12.0194
▁Ika	-12.0196
▁icyatumye	-12.0196
gakorera	-12.0196
▁bibere	-12.0197
▁Shimuri	-12.0199
▁biremye	-12.0199
irimo	-12.0203
yatanzwe	-12.0205
▁abicura	-12.0205
▁Aradi	-12.0209
▁gucu	-12.021
ava	-12.021
▁kubigenza	-12.021
▁bataye	-12.0212
biyirimo	-12.0213
▁rube	-12.0214
▁bavuge	-12.0214
kubaza	-12.0214
▁yiyemeje	-12.0214
▁yubakishij	-12.0215
▁Uzagikore	-12.0216
▁zihumanye	-12.0217
▁ndaza	-12.0218
▁bingana	-12.0219
▁bageraga	-12.0219
▁akome	-12.022
mwanzuro	-12.022
cyica	-12.022
mpambe	-12.0221
▁Eseri	-12.0225
▁muzabibu	-12.0225
abapfuye	-12.0226
▁uzawushyire	-12.0226
▁azabyara	-12.0226
▁azabyosereze	-12.0228
89	-12.0228
▁yadu	-12.0229
aciye	-12.023
ikorera	-12.023
wahagurukiye	-12.0231
▁baca	-12.0232
byaremw	-12.0233
▁Agenda	-12.0235
ababaga	-12.0236
mbega	-12.0237
mw	-12.0239
▁asohotse	-12.024
▁ahirengeye	-12.0241
murabona	-12.0241
▁Misipe	-12.0242
muhamagare	-12.0242
▁yahise	-12.0242
burira	-12.0243
▁agwe	-12.0245
umuha	-12.0246
tegereze	-12.0246
▁Yehowa	-12.0252
▁Izaba	-12.0253
▁kugendera	-12.0253
▁ntihari	-12.0254
▁kigenda	-12.0257
▁isekuye	-12.0258
▁baguye	-12.0259
amutumaho	-12.026
▁Meshe	-12.0263
▁ayashyira	-12.0264
▁byatuma	-12.0265
ukurikirana	-12.0267
▁baramwica	-12.0268
▁zonsa	-12.0268
▁Yesh	-12.0269
▁mukajya	-12.027
▁azapfa	-12.0272
awuboha	-12.0274
▁To	-12.0274
batera	-12.0279
agonda	-12.028
id	-12.0282
isobanurwa	-12.0285
▁ayaminjagira	-12.0286
▁kwicisha	-12.0287
ngabo	-12.0288
ereje	-12.0289
arenganure	-12.0289
▁mugakomeza	-12.0289
bwe	-12.029
rahira	-12.0291
▁85	-12.0291
ciyemo	-12.0292
umira	-12.0293
▁gukurikirana	-12.0293
uhamba	-12.0294
▁unyura	-12.0296
amanutse	-12.0297
▁Azakure	-12.0297
shatse	-12.0301
▁ahwanye	-12.0303
bibazo	-12.0303
▁kurushaho	-12.0303
abimenya	-12.0307
▁ikoresheje	-12.0308
▁mudapfa	-12.031
▁kibu	-12.0314
▁witwaje	-12.0315
umuvurunga	-12.0315
▁maf	-12.0316
hindukira	-12.0317
▁kuriha	-12.0318
▁ategeke	-12.0321
▁abahisha	-12.0321
ikomoka	-12.0322
▁inyu	-12.0322
▁Nzaha	-12.0323
▁bazan	-12.0324
▁ikiranuka	-12.0325
▁rita	-12.0326
ufamu	-12.0327
▁amwikubita	-12.033
eretswe	-12.033
ukoraho	-12.0331
▁babyaza	-12.0331
27–	-12.0331
ina	-12.0332
ashohoj	-12.0332
▁gutakambira	-12.0336
ntimuza	-12.0336
▁arakaye	-12.0338
gerekeranye	-12.0339
▁barashatse	-12.0339
▁Ngiye	-12.034
H	-12.0341
▁ndebe	-12.0342
ihereranye	-12.0342
▁gako	-12.0345
▁arambuka	-12.0345
▁Pa	-12.0346
uzanyubakir	-12.0346
sigira	-12.0347
uhamya	-12.035
▁amanywa	-12.0351
bikorwa	-12.0353
▁rawo	-12.0354
▁yat	-12.0355
▁irema	-12.0356
tonyanga	-12.0359
▁bahumanye	-12.0363
▁ibikoko	-12.0368
yogoza	-12.0368
▁bihishe	-12.0369
▁ikirego	-12.0369
arababwiye	-12.0371
▁amaherena	-12.0372
▁igihunyira	-12.0373
▁Ndahiye	-12.0373
▁Umwimukira	-12.0375
eshemu	-12.0376
▁ahabwe	-12.0376
idafite	-12.0377
4-2	-12.0378
▁Lehi	-12.038
▁mupfundikizo	-12.0382
hoze	-12.0383
91	-12.0383
idi	-12.0384
heka	-12.0385
▁bayah	-12.0385
riganyije	-12.0386
gose	-12.0388
▁nimutege	-12.0389
▁azari	-12.0393
ngura	-12.0397
garuriye	-12.0399
irengagize	-12.0399
ubwira	-12.0402
▁nkawe	-12.0402
▁mwiboneye	-12.0402
icira	-12.0404
▁naku	-12.0406
riraga	-12.041
▁zigera	-12.0411
▁bigize	-12.0411
▁bisobanura	-12.0414
ifuze	-12.0418
ramubwira	-12.0419
kojeje	-12.0419
Abas	-12.0421
▁Sini	-12.0426
igare	-12.043
▁Ngo	-12.0431
▁gih	-12.0432
yemejwe	-12.0434
gumana	-12.0437
kuza	-12.0437
▁gikarabiro	-12.0438
▁inyoni	-12.0439
ikime	-12.0442
▁mibabaro	-12.0444
▁wabwo	-12.0444
▁kikaba	-12.0445
icishijwe	-12.0448
▁akiranuka	-12.0448
wu	-12.0451
igendere	-12.0452
ishaga	-12.0452
▁inyagazi	-12.0454
▁bazima	-12.0456
▁azaryozwa	-12.0457
mukuru	-12.046
barimbuza	-12.0465
▁yazanye	-12.0466
▁byacu	-12.0466
▁ikibindi	-12.0468
▁kwanga	-12.0469
ahinduka	-12.0471
anyaze	-12.0473
▁batwika	-12.0474
▁Tura	-12.0476
▁Ta	-12.0476
zaryama	-12.0478
asenga	-12.0479
nyije	-12.048
abahu	-12.0481
ncuro	-12.0483
▁Ava	-12.0484
shigaje	-12.0486
9–2	-12.0488
▁ruse	-12.0493
▁icye	-12.0493
▁Nzam	-12.0494
zajya	-12.0494
shenye	-12.0496
▁ibyara	-12.0501
▁gishobora	-12.0502
koza	-12.0505
▁gihumbi	-12.0506
ndwara	-12.0507
▁bakayi	-12.0509
▁ibimu	-12.0515
▁Baraza	-12.0516
abayeho	-12.052
▁burebure	-12.0521
▁kuzuza	-12.0522
iyaba	-12.0522
▁ibiguruka	-12.0522
▁twabona	-12.0524
yagombaga	-12.0528
▁barangurura	-12.0529
ukore	-12.0529
▁ukabona	-12.0532
▁bicishije	-12.0533
vuge	-12.0534
▁biguruka	-12.0537
▁burwayi	-12.0537
kurusha	-12.054
▁zita	-12.0541
siriya	-12.0542
aracika	-12.0544
▁uremereye	-12.0548
▁akanga	-12.0548
▁nubatse	-12.0549
muramenye	-12.0551
amusubiza	-12.0551
manukane	-12.0553
▁bifata	-12.0554
ce	-12.056
▁basambana	-12.0561
▁uzaha	-12.0566
idendezi	-12.057
ayishyira	-12.0571
▁bategetse	-12.0571
amuhamba	-12.0575
▁bashinze	-12.0577
iko	-12.0577
▁gupfu	-12.0578
zagutegeka	-12.0581
▁hagari	-12.0585
amuka	-12.0586
buranira	-12.0589
rusengero	-12.059
intamba	-12.0594
dutegeka	-12.0594
rekeza	-12.0602
▁rushundura	-12.0602
mbona	-12.0603
atwitse	-12.0605
▁umushumi	-12.0606
swe	-12.0607
nyuramo	-12.0616
▁utaha	-12.0617
▁warahiye	-12.0618
▁batumye	-12.0619
cuzwe	-12.0622
▁bazayi	-12.0624
koranya	-12.0625
namwe	-12.0625
▁asingiza	-12.0628
tangwa	-12.063
ihagaze	-12.0632
▁barinzi	-12.0635
▁sirazuba	-12.0635
intumwa	-12.0636
anyohereje	-12.0638
ashyirwaho	-12.0642
bavana	-12.0643
▁Mili	-12.0646
orera	-12.065
yosereza	-12.0652
zengurutseho	-12.0652
▁Iby	-12.0656
▁uzababere	-12.0663
▁amwanga	-12.0667
▁zeze	-12.0668
amatwi	-12.0669
inginze	-12.067
azize	-12.067
▁gishushanyo	-12.0673
uriza	-12.0674
wemera	-12.0681
yacu	-12.0682
ruka	-12.0683
vuganira	-12.0684
20-3	-12.0684
▁kibindi	-12.0686
▁amenyo	-12.0688
▁wasigaye	-12.0691
bizasigara	-12.0699
▁avuma	-12.0705
hitemo	-12.0707
Dani	-12.071
▁wanze	-12.071
▁byaho	-12.071
ujye	-12.0711
rebana	-12.0713
ramubaza	-12.0714
▁kwemera	-12.0715
▁mwibwira	-12.0718
shuwa	-12.0718
▁Arabu	-12.0721
abakomoka	-12.0724
▁ntuye	-12.0724
▁andi	-12.0728
▁uya	-12.0728
zuru	-12.0729
korana	-12.074
▁urwango	-12.0741
▁mfata	-12.0743
azamutse	-12.0745
kozwe	-12.0746
araje	-12.0748
▁ikibazo	-12.0751
abaruwe	-12.0754
▁ubudahemuka	-12.0757
▁atere	-12.0758
▁umwicanyi	-12.0759
▁Mo	-12.0759
zicurire	-12.076
▁bawu	-12.0762
▁Tabori	-12.0762
▁utuma	-12.0762
90	-12.0763
wavugaga	-12.0764
▁Ezeri	-12.0765
▁bikoreshw	-12.0767
mugirire	-12.0769
▁ukab	-12.077
▁natura	-12.077
nyuraho	-12.077
aterwa	-12.0773
umvire	-12.0774
▁abadayimoni	-12.0774
▁nashaka	-12.0775
▁ubaye	-12.0775
muza	-12.0776
▁Abarimu	-12.078
nyoherereza	-12.078
▁Enani	-12.0781
bashyira	-12.0782
bare	-12.0785
ampaye	-12.0785
▁udukonzo	-12.0786
▁kubirya	-12.0789
▁bigaragaz	-12.0789
▁wumvira	-12.0796
▁isaba	-12.0796
ivugwa	-12.0798
▁Ntaz	-12.08
▁uboneka	-12.0802
ihorerwe	-12.0803
yica	-12.0805
uturuka	-12.0805
Balaki	-12.0807
Ese	-12.0808
151	-12.0812
▁mbone	-12.0815
amukubita	-12.0822
banaga	-12.0824
▁imibu	-12.0824
apfira	-12.0826
▁usanzwe	-12.0828
rayeli	-12.0828
ugana	-12.0832
akire	-12.0838
kanye	-12.0846
ashyiramo	-12.0847
ayimu	-12.0847
bumvaga	-12.0849
▁zikurikira	-12.0852
wurimo	-12.0856
bijye	-12.0858
zibura	-12.0859
Ababaruwe	-12.0861
▁Om	-12.0864
▁Zima	-12.0864
Tamari	-12.0865
▁utaz	-12.0866
urugamba	-12.087
impanda	-12.0872
Iyi	-12.0878
bihe	-12.0882
▁Aran	-12.0884
▁uga	-12.0886
barwanya	-12.0886
▁utanga	-12.0887
twe	-12.0888
agaragariza	-12.0889
rashi	-12.0892
umwero	-12.0892
▁aban	-12.0893
Abay	-12.0894
▁inyo	-12.0903
▁yagu	-12.0903
▁aramwunami	-12.0913
manukana	-12.0922
rangurura	-12.0922
▁Namara	-12.0925
▁umur	-12.0928
▁Shamu	-12.093
ondo	-12.0933
▁kubiku	-12.0935
singize	-12.0938
muti	-12.094
▁agirira	-12.0941
ntihagire	-12.0946
▁Yica	-12.0948
ribwa	-12.095
ibirori	-12.0953
Amagambo	-12.0959
umwuzukuru	-12.0966
ibikomangoma	-12.0967
Ntimuka	-12.0969
bati	-12.097
tangiriye	-12.0972
intebe	-12.0973
nihaba	-12.0978
▁ntimw	-12.0983
▁akaryama	-12.0985
kwirakwi	-12.0985
▁bimu	-12.0988
ibyatsi	-12.0989
▁urwa	-12.0994
jugunye	-12.0999
giciro	-12.1
komera	-12.1005
imitambiko	-12.1006
inkwi	-12.1006
ibyabaye	-12.1014
amoko	-12.1017
rasa	-12.1017
indahemuka	-12.1018
umuguno	-12.1019
wabonye	-12.102
abakozi	-12.1023
incungu	-12.1024
ntibikabeho	-12.1025
nezerewe	-12.1025
ubwanwa	-12.1025
▁ibaba	-12.1026
amatongo	-12.1028
Abisi	-12.1029
intoki	-12.1032
ubutare	-12.1035
Uzabaze	-12.1038
ibikombe	-12.1039
▁azagute	-12.1039
Abageshuri	-12.1041
Umubenyamini	-12.1042
Ntihazagire	-12.1042
abakiranutsi	-12.1044
amatsinda	-12.1046
itsinda	-12.1047
igicucu	-12.1049
imigezi	-12.1049
iburengerazuba	-12.1049
umujinya	-12.105
▁Nebay	-12.105
arahatera	-12.1053
agace	-12.1056
▁boko	-12.1056
buze	-12.1058
ibiraro	-12.1061
aborogera	-12.1062
iteganye	-12.1068
umufuka	-12.1071
ubuvumo	-12.1073
ashyizweho	-12.1075
abishwe	-12.1077
diya	-12.1077
urugomo	-12.1078
twabonye	-12.1079
Umwedomu	-12.1079
▁umuc	-12.1082
bakobwa	-12.1084
▁nzoka	-12.1085
ejeje	-12.1086
▁yejeje	-12.1087
inkuge	-12.1088
bashyize	-12.1089
bagaruke	-12.1092
ibaraza	-12.1093
bicira	-12.1095
▁ushyira	-12.1095
komere	-12.11
▁yifuza	-12.1102
gucumuyeho	-12.1103
kumenyeshe	-12.1103
▁Mp	-12.1109
▁nzandiko	-12.1112
yabahaye	-12.1119
zaduha	-12.112
mafaranga	-12.112
▁ikoreshwa	-12.1126
sumba	-12.1126
▁baki	-12.1128
▁mikono	-12.1128
pfe	-12.1132
▁bakana	-12.1132
ruhuka	-12.1134
▁umuk	-12.1137
ibyabo	-12.1137
imeze	-12.114
babatsinze	-12.1142
▁abarokotse	-12.1142
abasigaye	-12.1144
hwanye	-12.1145
koresha	-12.115
▁amar	-12.115
nani	-12.1153
▁urubibi	-12.1154
▁bur	-12.1154
kiranirwa	-12.1156
barure	-12.1157
amba	-12.1168
rihe	-12.1175
▁hanga	-12.1176
▁mugereka	-12.1176
nzanira	-12.1178
▁mwamikazi	-12.1183
▁buremere	-12.1186
hana	-12.1187
agusha	-12.1189
nt	-12.119
▁imbohe	-12.1193
ugurumana	-12.1194
▁wawo	-12.1195
▁uburyo	-12.1198
vuna	-12.12
wagamo	-12.1201
▁nturi	-12.1212
▁Itsinda	-12.1215
leti	-12.1218
yu	-12.1221
impeke	-12.1221
▁akar	-12.1224
kondo	-12.1224
▁rukambuk	-12.1228
is	-12.1235
kijye	-12.1236
agwa	-12.1237
goswe	-12.1243
unguka	-12.1247
hungira	-12.1247
▁bafashe	-12.1248
Z	-12.1249
ategetswe	-12.1252
▁agendera	-12.1258
bonamo	-12.1266
rwaho	-12.1267
uhitana	-12.1269
agurika	-12.1271
▁uzaya	-12.1275
▁buhinduzi	-12.1277
aribwe	-12.1282
▁mvu	-12.1284
uzashinge	-12.1285
imva	-12.129
urimbure	-12.1291
ririra	-12.1296
▁umushyire	-12.1296
▁Taha	-12.1299
▁uze	-12.13
ahagarika	-12.1303
cyumba	-12.1303
iriya	-12.1305
abakuye	-12.1308
▁gita	-12.1311
▁ihabwa	-12.1311
usarura	-12.1317
▁nakomeje	-12.1319
gerageze	-12.1322
byakorwaga	-12.1324
▁Ker	-12.1325
wigira	-12.1326
uzirinde	-12.1328
▁umugara	-12.133
▁zisiga	-12.1335
▁Bak	-12.1335
ize	-12.1337
▁babuze	-12.134
nyibuka	-12.1342
nzu	-12.1343
▁abahe	-12.1346
shyiramo	-12.1349
ambwiye	-12.1352
bagerageza	-12.1353
kubuza	-12.1355
wifuza	-12.1364
▁bamute	-12.1374
atabarukana	-12.1374
▁haku	-12.1385
igurisha	-12.1388
▁akubwira	-12.1388
▁uhagarare	-12.139
ndagira	-12.1392
▁nakora	-12.1393
▁Ink	-12.1395
ntimuzonger	-12.1397
▁agitambira	-12.1398
▁buhe	-12.14
uzagira	-12.1401
▁barush	-12.1401
ankoreye	-12.1403
sayi	-12.1405
yemera	-12.1411
▁sohoka	-12.1414
▁hande	-12.1421
hageze	-12.1421
wicungur	-12.1423
teranir	-12.1425
bafate	-12.143
▁seku	-12.1431
satsi	-12.1434
kongorwa	-12.1438
▁akabaha	-12.144
bibi	-12.144
kiye	-12.1443
areba	-12.1449
ashyiraho	-12.1452
▁reba	-12.1458
nyice	-12.1461
koreshe	-12.1462
▁utambira	-12.1463
▁Yaba	-12.1464
▁bike	-12.1475
▁inkuge	-12.1481
girwa	-12.1484
rwanira	-12.1484
aryamanye	-12.1484
rongera	-12.149
ufata	-12.149
abihaye	-12.1493
guhagarara	-12.15
ihumanye	-12.1508
▁bun	-12.1511
▁bahari	-12.1513
▁Kana	-12.1513
Zebu	-12.1514
cungura	-12.1517
▁tukaba	-12.1517
▁cyica	-12.1518
▁babishyira	-12.1519
guhe	-12.1521
▁urugomo	-12.153
bafasha	-12.1532
yiyagirizeho	-12.1533
▁ibikombe	-12.1533
▁imigezi	-12.1534
ambaye	-12.1535
kigera	-12.1535
▁igicucu	-12.1536
tubere	-12.1536
▁Shem	-12.1539
▁Umurag	-12.154
hunze	-12.1541
asheshe	-12.1543
ambura	-12.1545
▁Uzabaze	-12.1546
rara	-12.1547
fatira	-12.155
izeye	-12.1554
hi	-12.1558
▁wizihiza	-12.1559
▁ntuzab	-12.156
etsi	-12.1562
▁rihab	-12.1564
icecekera	-12.1566
▁ubuki	-12.1567
gusubiza	-12.1568
▁bisirayeli	-12.1573
ibonye	-12.1582
yongera	-12.1583
▁Bamara	-12.1588
ntegetse	-12.1588
▁Abisi	-12.159
▁umub	-12.1591
▁avu	-12.1597
ikira	-12.1603
soma	-12.1604
rambwira	-12.1606
▁ugere	-12.1607
oma	-12.1613
▁umva	-12.1613
▁Mba	-12.1615
▁babura	-12.1615
▁Uzaya	-12.1617
yakire	-12.1618
▁As	-12.1621
emere	-12.1624
▁zina	-12.1625
munyuza	-12.1627
▁yas	-12.1627
neza	-12.1634
▁gusu	-12.1634
ndahire	-12.1634
inki	-12.1634
▁yaramuha	-12.1637
bizi	-12.1637
ibutsa	-12.1642
hije	-12.1643
▁rusi	-12.1647
umukurikira	-12.165
▁yany	-12.1652
▁batar	-12.1653
▁igihu	-12.1656
▁biga	-12.1658
141	-12.1658
▁kib	-12.1664
ngoyi	-12.1671
ruhago	-12.1671
nteye	-12.1676
abarwaho	-12.1676
▁igera	-12.1677
▁ink	-12.168
▁abura	-12.1688
izajya	-12.1689
zinjira	-12.169
anafutali	-12.1695
▁baw	-12.17
emereye	-12.1702
amufata	-12.1707
batinye	-12.1709
nnyega	-12.171
higira	-12.1713
nabasha	-12.1714
asuzume	-12.1717
yubakish	-12.1719
umwice	-12.1721
▁bako	-12.1721
asuka	-12.1726
rwanye	-12.1735
▁mbaro	-12.1735
icishe	-12.1742
asohoka	-12.1743
Abamak	-12.1743
atware	-12.1745
▁ireba	-12.1747
nyica	-12.1748
Abashu	-12.1751
siga	-12.1752
hamu	-12.1754
eje	-12.1758
yuzuyemo	-12.1762
abonetse	-12.1764
ashishimura	-12.1766
▁Baz	-12.1766
ahagije	-12.1768
bagenza	-12.1771
tonganya	-12.1772
▁Uzajya	-12.1776
▁atwika	-12.1778
▁uhora	-12.1779
atsinze	-12.179
▁nzab	-12.1794
▁riya	-12.18
anezerwa	-12.181
▁tuga	-12.1811
beshaho	-12.1811
mbira	-12.1812
biteye	-12.1814
arimo	-12.1819
▁bage	-12.1829
zakubera	-12.1837
▁twambuk	-12.1838
irize	-12.1839
arahunze	-12.1841
bitegetswe	-12.185
▁guta	-12.1853
▁Azafate	-12.1858
▁Mad	-12.1859
mubare	-12.1866
bajyana	-12.1868
▁nib	-12.1869
▁bishi	-12.1872
angwa	-12.1874
▁abajyanama	-12.1878
yazaga	-12.1878
yatewe	-12.1879
akambitse	-12.188
hamara	-12.1884
bazanye	-12.1885
remereye	-12.189
itwikira	-12.1891
amenagura	-12.1895
yaminjagire	-12.1896
▁abashumba	-12.1897
▁bid	-12.1898
▁ubumenyi	-12.1903
washatse	-12.1903
mujyana	-12.1908
hembe	-12.1917
Nimu	-12.1921
▁mabo	-12.1922
yejeje	-12.1928
utuye	-12.1931
isambu	-12.1933
urwane	-12.1942
▁babica	-12.1947
▁guhamb	-12.1951
ashishimuye	-12.1953
shuka	-12.1963
arimbura	-12.1966
umvikane	-12.1966
uzengurutse	-12.1968
uzajyana	-12.1972
sanduku	-12.1979
▁waka	-12.1984
▁umuj	-12.1987
▁sambu	-12.1989
ravuze	-12.1999
mutikura	-12.2007
banye	-12.2015
taye	-12.2016
ambariye	-12.2018
▁kud	-12.2018
zarye	-12.2026
arari	-12.2031
ishashi	-12.2032
inzo	-12.2035
▁waho	-12.2036
tanzwe	-12.2036
gunzu	-12.2041
kamera	-12.2043
sezerere	-12.2044
▁barira	-12.2049
bayeho	-12.2049
–5	-12.2052
▁yampa	-12.2053
ririmba	-12.2055
▁bune	-12.2056
▁uzatege	-12.2065
▁guhunika	-12.2066
hindisha	-12.2068
agacumu	-12.2069
rurira	-12.2069
▁baraba	-12.2069
ujije	-12.207
bagirira	-12.2074
▁byere	-12.2075
ndike	-12.2075
▁Ub	-12.2083
kiranuka	-12.2087
itaba	-12.2089
▁zicuz	-12.2092
▁amwica	-12.2095
IB	-12.2096
liya	-12.2097
▁bida	-12.2098
▁kwira	-12.2101
▁igisa	-12.2101
tsindirwa	-12.2103
ihisha	-12.2104
kajya	-12.2107
shye	-12.211
Umwa	-12.2117
mve	-12.2117
shaje	-12.212
ameze	-12.212
sozi	-12.212
▁areke	-12.2122
mbye	-12.2129
ibita	-12.213
ishyure	-12.2134
kizaga	-12.2135
sobanurira	-12.2135
▁amakuba	-12.2137
zibye	-12.2144
baje	-12.2148
utunganiye	-12.215
muhaguruke	-12.2151
▁kura	-12.2152
huriye	-12.2152
orere	-12.2155
▁Abayebusi	-12.2159
kubona	-12.2159
gabanya	-12.216
▁batata	-12.216
asubize	-12.2161
uhe	-12.2162
▁ureba	-12.2163
▁nzara	-12.2164
acurangaga	-12.2165
▁Gide	-12.2166
egeka	-12.2167
zatambe	-12.2176
9-	-12.2177
vugira	-12.2178
dukira	-12.2178
▁muzazi	-12.2183
murwanye	-12.2184
▁ibyanditswe	-12.2184
▁guko	-12.2185
bacika	-12.2186
Ntimuza	-12.2199
tsemba	-12.2201
hira	-12.2201
ukomokaho	-12.2208
dashobora	-12.2217
umuhe	-12.2232
humanyijwe	-12.2237
rakaje	-12.2238
erekeye	-12.2241
aririra	-12.2245
▁sinzabu	-12.2251
▁batwikira	-12.2252
utw	-12.2256
buzima	-12.2259
uj	-12.2259
▁apfuye	-12.226
▁Abu	-12.2267
ubi	-12.2274
zenguruka	-12.2278
ukira	-12.228
aryamyeho	-12.2282
ahari	-12.2282
angezeho	-12.2286
iritse	-12.2287
anyu	-12.2287
▁imuhengeri	-12.2287
manike	-12.2288
▁bamukura	-12.2288
ganira	-12.2291
▁yimi	-12.2292
▁Mbe	-12.2298
bishyira	-12.2299
gufashe	-12.2299
▁Yer	-12.2303
icishije	-12.2304
arure	-12.2306
▁naje	-12.2307
umye	-12.231
mugirira	-12.2323
arenze	-12.2326
▁rizajy	-12.2327
bajije	-12.2332
▁Hashu	-12.2335
gwino	-12.2337
koresho	-12.2339
ingura	-12.2347
utunze	-12.2348
▁ahunga	-12.2352
ufa	-12.2352
igiza	-12.2352
▁nyo	-12.2353
▁abatuye	-12.2353
kurwe	-12.2358
▁nuzi	-12.2359
gari	-12.2361
zwamo	-12.2361
▁nimugera	-12.237
iguhe	-12.2374
▁Go	-12.2379
swa	-12.238
▁Ziza	-12.238
▁tugend	-12.2384
▁arinda	-12.2384
amese	-12.2399
habwaga	-12.2402
uhaguruke	-12.2402
hamwe	-12.2405
zaryozwa	-12.2408
viriye	-12.2414
▁icyumba	-12.2415
enze	-12.242
gisenge	-12.2421
bimenya	-12.2421
▁ndya	-12.2427
irinde	-12.243
reze	-12.2433
▁ishyirwa	-12.2433
cishwa	-12.2434
301	-12.2434
mukiza	-12.2435
umugaru	-12.2435
kwica	-12.2443
▁Haru	-12.2446
shire	-12.2446
▁twara	-12.2447
▁Biza	-12.2448
kesha	-12.2451
hesheje	-12.2453
pfukama	-12.2457
bashyingira	-12.2458
bicisha	-12.246
yeze	-12.2461
bakurikire	-12.2462
▁azakir	-12.2462
aruhuka	-12.2464
ramwica	-12.2465
▁mujyana	-12.2467
huti	-12.2467
gashyira	-12.2469
▁bubone	-12.2472
zagire	-12.2476
yeza	-12.248
▁wara	-12.2484
miye	-12.2487
▁ntiha	-12.2488
bikoze	-12.2493
▁urabi	-12.2496
yerekeye	-12.2505
▁gingo	-12.2508
iraho	-12.2516
hateganye	-12.252
abakura	-12.252
yikorera	-12.2521
▁kika	-12.2527
gisakuzo	-12.2528
▁nkwereke	-12.2528
nyenyeri	-12.2531
mureba	-12.2532
▁Hala	-12.2535
terura	-12.254
ryamye	-12.254
dirishya	-12.2541
ashinga	-12.2546
emerwa	-12.2546
aryaga	-12.2548
▁ike	-12.255
▁uzubak	-12.255
▁yay	-12.2553
ahize	-12.2553
bacamanza	-12.2555
bata	-12.2557
ishijwe	-12.2557
riho	-12.2558
gitebo	-12.256
arangururira	-12.2561
haga	-12.2561
▁bizaza	-12.2561
▁Nim	-12.2563
▁azarukur	-12.2563
ishingikirije	-12.2564
ababera	-12.2568
kuma	-12.257
▁Merib	-12.2577
gendeye	-12.2581
resho	-12.2585
dukwege	-12.2587
▁Shef	-12.2588
ucire	-12.2589
▁Yerobo	-12.2594
kurya	-12.2596
gomero	-12.2596
▁ritara	-12.2597
wirirwa	-12.2597
ababaji	-12.2598
yirukana	-12.2598
sesa	-12.2599
kuwe	-12.26
▁azarw	-12.26
▁makumya	-12.26
▁akanya	-12.2602
▁bawushyira	-12.2604
▁Hezeki	-12.2605
dugudu	-12.2608
▁Egipu	-12.2608
Rogeli	-12.2608
cyigarurire	-12.2609
Abamedi	-12.261
Aveni	-12.261
Ishyamba	-12.261
Mehola	-12.261
Perasimu	-12.261
Umunamati	-12.261
Umunyapiratoni	-12.261
Umwahohi	-12.261
ababakomokaho	-12.261
bwihisho	-12.261
ishuheri	-12.261
udukoko	-12.261
▁Akizibu	-12.261
▁Alemeti	-12.261
▁Biluga	-12.261
▁Eluhanani	-12.261
▁Gerizimu	-12.261
▁Golani	-12.261
▁Gozani	-12.261
▁Ibuleyamu	-12.261
▁Layishi	-12.261
▁Lewiyatani	-12.261
▁Meshelemiya	-12.261
▁Molada	-12.261
▁Nefegi	-12.261
▁Onamu	-12.261
▁Petahiya	-12.261
▁Sibekayi	-12.261
▁Tatenayi	-12.261
▁Zereshi	-12.261
▁gikristo	-12.261
▁godoro	-12.261
▁ibyamubayeho	-12.261
▁ubuhumyi	-12.261
▁uhotaguye	-12.261
▁yabuzanyije	-12.261
▁yashyingiranywe	-12.261
ikinege	-12.261
▁Bakohati	-12.261
▁Elunatani	-12.261
▁Mikiloti	-12.261
▁Ramesesi	-12.261
▁Talumoni	-12.261
▁urwasaya	-12.261
▁uyahanze	-12.261
▁werurutse	-12.261
▁Deweli	-12.261
▁Risipa	-12.261
▁Ubugambanyi	-12.261
▁Yekoniya	-12.261
▁Yokishani	-12.261
uyigenderaho	-12.261
▁Hushimu	-12.261
▁Mahaloni	-12.261
▁Refidimu	-12.261
▁Salima	-12.261
▁kababaro	-12.261
Umuyeteri	-12.261
hahiroti	-12.261
▁Bumedi	-12.261
▁Hegayi	-12.261
▁Pedasuri	-12.261
▁Samula	-12.261
▁Tubali	-12.261
▁bunguri	-12.261
▁inyandiko	-12.261
Abaperesi	-12.261
Umushuhi	-12.261
▁Medeba	-12.261
▁Saleka	-12.261
▁birundo	-12.261
▁ndazuhira	-12.261
▁ryipfushije	-12.261
▁witonze	-12.261
Seferi	-12.261
▁Ludi	-12.261
▁rigenga	-12.261
▁Ahimani	-12.261
▁gakanu	-12.261
▁iminyururu	-12.261
▁ntimugakore	-12.261
▁umugenzo	-12.261
uwayiguze	-12.261
▁Kedemoti	-12.261
▁Yoyakimu	-12.261
▁ritasohoye	-12.261
▁Horeshi	-12.261
▁mwicanyi	-12.261
▁Bubenyamini	-12.261
▁Ruguru	-12.261
▁bidahagije	-12.261
udusozi	-12.261
▁Paseya	-12.261
▁Yatiri	-12.261
▁ararwara	-12.261
▁kwiheba	-12.261
▁migozi	-12.261
▁Salumoni	-12.261
▁Zeredi	-12.261
▁Ribula	-12.261
▁mirambi	-12.261
▁Kefira	-12.261
inganzama	-12.261
▁Hakozi	-12.261
▁Shobabu	-12.261
▁yibohesheje	-12.261
▁nzakwereka	-12.261
▁Ketura	-12.261
▁dutandatu	-12.261
▁Shimuroni	-12.261
▁Ubuhakanyi	-12.261
▁umucunguzi	-12.261
▁Hahirwa	-12.261
▁ijyaniran	-12.261
bifatanyish	-12.261
▁Bineya	-12.261
inkumi	-12.261
▁rukerera	-12.261
▁Shemariya	-12.261
▁Shamiri	-12.261
▁yarwanaga	-12.261
▁Zaburi	-12.261
▁bakagutakambira	-12.261
▁Penina	-12.261
▁mimerere	-12.261
▁ruzagukurikira	-12.261
▁aramwinginga	-12.261
imboga	-12.261
▁acyita	-12.261
▁untambira	-12.261
▁yasinze	-12.261
Ababiyezeri	-12.261
▁nkovu	-12.261
▁kwibukwa	-12.261
▁ibisebe	-12.261
▁yasukwaga	-12.261
▁butukura	-12.261
intabwa	-12.261
▁barahatura	-12.261
▁mugakurikira	-12.261
▁Shemeri	-12.261
▁nzabakubitisha	-12.261
umunyacyubahiro	-12.261
▁azicaraho	-12.261
▁itarafashe	-12.261
▁amasahani	-12.261
▁Oboti	-12.2611
▁abyina	-12.2611
▁Intare	-12.2611
▁ingemu	-12.2611
▁Urubura	-12.2611
▁uhuha	-12.2611
▁majosi	-12.2611
▁yatambaga	-12.2611
▁acuranywe	-12.2611
▁kitigeze	-12.2611
▁mavi	-12.2611
▁nyiraryo	-12.2611
Yakani	-12.2611
▁nugendera	-12.2611
▁Intumbi	-12.2611
▁Rehoboti	-12.2611
▁giturage	-12.2611
▁butangaje	-12.2611
▁atazabura	-12.2611
▁yamukoreye	-12.2611
▁Efodi	-12.2611
▁bitugu	-12.2611
▁Salu	-12.2611
▁impamo	-12.2611
▁Byanditswe	-12.2611
nimungire	-12.2611
▁gutambuka	-12.2611
▁guteranira	-12.2611
▁Shinari	-12.2611
▁bitanduye	-12.2611
▁zagezwe	-12.2611
▁Sohari	-12.2611
mwororoke	-12.2612
▁abagenzuzi	-12.2612
Abagileyadi	-12.2612
▁Aramuhamagara	-12.2612
▁arahava	-12.2612
▁byifashe	-12.2612
umukara	-12.2612
▁Mibusamu	-12.2612
▁Uruhu	-12.2612
barushiriz	-12.2612
▁twigaruriye	-12.2612
Abazabuloni	-12.2612
▁rubavu	-12.2612
▁Adini	-12.2612
▁Ayagiriza	-12.2612
▁sokuru	-12.2612
yitere	-12.2612
▁ariyoberanya	-12.2612
▁Ibisate	-12.2613
▁Ulamu	-12.2613
sabiye	-12.2613
▁zihetse	-12.2613
▁gitoshye	-12.2613
▁barabwirana	-12.2613
▁Bizabe	-12.2613
▁arakazwa	-12.2613
▁utemewe	-12.2614
▁gutwita	-12.2614
▁izifite	-12.2614
▁rihoraho	-12.2614
▁twasanze	-12.2614
▁yabahaga	-12.2614
▁Shamuwa	-12.2614
abazagukomokaho	-12.2614
▁Bamoti	-12.2614
▁mabanga	-12.2614
▁bahanura	-12.2615
Amafi	-12.2615
▁baranezerwa	-12.2615
▁Umugisha	-12.2615
▁Atayi	-12.2615
▁impanga	-12.2615
▁akagukura	-12.2615
▁gutema	-12.2615
▁kubayobora	-12.2615
umuhakanyi	-12.2615
▁Gilo	-12.2615
▁igitare	-12.2615
▁Abacamanza	-12.2616
▁basutse	-12.2616
▁bawushyiraho	-12.2616
▁bicuranywe	-12.2616
Sefoni	-12.2616
▁rikambika	-12.2616
▁Gedera	-12.2616
▁Barazamuka	-12.2616
▁Abazajya	-12.2616
▁ibyacu	-12.2616
▁urub	-12.2616
abazamukomokaho	-12.2617
▁bavu	-12.2617
▁Puwa	-12.2617
▁aramurahira	-12.2617
▁abashyizweho	-12.2617
▁ukarya	-12.2617
ababonye	-12.2617
▁igikorwa	-12.2617
ingingo	-12.2617
▁utarakebwe	-12.2617
pfushije	-12.2618
▁Eferi	-12.2618
▁ubababarire	-12.2618
▁cyuho	-12.2618
▁rigenewe	-12.2618
▁babirye	-12.2618
▁azicurira	-12.2618
▁kudusanganira	-12.2618
▁Asenya	-12.2618
▁Yubatse	-12.2618
▁amukoraho	-12.2618
▁kumuhumuriza	-12.2619
▁arabafata	-12.2619
▁uzabategeka	-12.2619
▁banganya	-12.2619
▁bararwana	-12.2619
▁kubashinja	-12.2619
▁mabati	-12.2619
bohereje	-12.2619
▁Daniyeli	-12.2619
▁Kizaba	-12.2619
kwinginze	-12.2619
▁kugwira	-12.2619
▁warwanyaga	-12.262
sinshaka	-12.262
▁azishinga	-12.262
▁ayajyane	-12.262
▁Amabuye	-12.262
▁bupfe	-12.262
▁baneshereza	-12.262
▁gutandukana	-12.262
▁mishya	-12.262
rw	-12.2621
▁twazo	-12.2621
▁bitose	-12.2621
▁Bazajya	-12.2621
▁rinyu	-12.2621
umugezi	-12.2621
▁bizacurwe	-12.2622
▁kibisi	-12.2622
▁uhite	-12.2622
▁biceri	-12.2622
▁wacungaga	-12.2622
▁yarushaga	-12.2622
▁amanukira	-12.2622
▁gishya	-12.2622
ifuza	-12.2623
▁bahoraga	-12.2623
▁Bambuka	-12.2623
▁ikomamanga	-12.2623
ubusambanyi	-12.2623
▁ibitagira	-12.2623
▁umufasha	-12.2623
abirukanye	-12.2624
▁nzagu	-12.2624
▁bagakurikiza	-12.2624
▁babamariye	-12.2625
▁muhage	-12.2625
▁bayoboka	-12.2625
hato	-12.2625
▁umvumire	-12.2625
▁bahata	-12.2625
umwuga	-12.2625
▁bamukurikiye	-12.2625
▁Paluti	-12.2626
▁Hi	-12.2626
▁rusenge	-12.2626
▁Biluhani	-12.2626
▁bayikure	-12.2626
▁cyabuze	-12.2627
▁biyagijwe	-12.2627
▁ntone	-12.2627
▁kubabara	-12.2627
▁mucunguzi	-12.2627
▁aramuhamagara	-12.2628
ibonani	-12.2628
▁burare	-12.2628
▁mbanze	-12.2628
▁rihaguruka	-12.2628
▁nakuriye	-12.2628
▁Sabut	-12.2629
▁ukava	-12.2629
▁uzampa	-12.2629
▁bagakorera	-12.2629
▁byatsi	-12.2629
amajyepfo	-12.2629
bishushanyo	-12.2629
▁batumviye	-12.2629
roshye	-12.263
▁akamenya	-12.263
Intebe	-12.263
▁guhura	-12.2631
▁Aragenda	-12.2631
▁bitekerezo	-12.2631
▁asharira	-12.2631
▁bizihiriza	-12.2631
▁zizamuka	-12.2631
ndabizi	-12.2631
▁kubumba	-12.2631
▁Asina	-12.2632
▁bamwita	-12.2632
▁impane	-12.2632
▁batashoboraga	-12.2632
▁batunze	-12.2632
ruzwa	-12.2632
▁rukomeye	-12.2633
TO	-12.2633
umubo	-12.2633
▁narakoze	-12.2634
▁kuduha	-12.2634
▁zitari	-12.2634
▁yavuganiye	-12.2635
▁Yabesi	-12.2635
▁baturayo	-12.2635
▁ugifite	-12.2636
▁bumbwire	-12.2636
▁uzarimbura	-12.2636
▁cyang	-12.2636
▁aducir	-12.2637
▁ntuzi	-12.2637
dariki	-12.2637
▁boroheje	-12.2637
▁Umubwire	-12.2637
▁kwegera	-12.2638
▁urame	-12.2638
▁Bashyira	-12.2638
▁caniro	-12.2638
▁impaye	-12.2638
▁kuyigura	-12.2639
▁bituruka	-12.2639
▁risobanura	-12.2639
▁guhera	-12.264
nyuguti	-12.264
▁kukureba	-12.264
▁giteganye	-12.264
▁bazaminjagire	-12.2641
▁duto	-12.2641
▁yihutira	-12.2641
▁arakomeza	-12.2642
▁yarazamutse	-12.2642
babarire	-12.2642
fungira	-12.2643
▁bahaze	-12.2643
▁hatari	-12.2643
▁imyandiki	-12.2643
▁yaragiye	-12.2643
▁abakuramo	-12.2644
▁uzavuga	-12.2644
▁cyijimye	-12.2644
▁ndimi	-12.2644
juru	-12.2644
▁nica	-12.2645
▁bisubirira	-12.2646
▁Bagiye	-12.2646
▁yahungiye	-12.2646
▁inya	-12.2647
▁kundeba	-12.2647
agacura	-12.2647
▁azatambe	-12.2648
▁mugashira	-12.2648
▁akabakura	-12.2649
▁adakomeza	-12.2649
▁uhanur	-12.265
▁agutura	-12.2652
▁azakoze	-12.2652
▁yinangira	-12.2653
▁atunga	-12.2653
gipimo	-12.2654
▁yiyubakira	-12.2654
▁wankoreye	-12.2654
utundi	-12.2654
▁ikiriri	-12.2655
mahoro	-12.2656
▁kubarura	-12.2657
▁bazanaga	-12.2657
▁mugere	-12.2657
▁arahagarara	-12.2657
▁kubigisha	-12.2658
▁zikozwe	-12.2658
▁Bahera	-12.2658
▁rivuga	-12.2661
▁imfatiro	-12.2662
▁hameze	-12.2662
▁mutya	-12.2663
ibiryo	-12.2663
▁bafatanyije	-12.2663
edor	-12.2663
▁Nkomeza	-12.2664
▁kiz	-12.2664
guhumanya	-12.2665
▁bunamira	-12.2665
baka	-12.2665
isupu	-12.2666
▁mbakure	-12.2666
keba	-12.2666
zaguha	-12.2667
▁mutagomba	-12.2668
koreshaga	-12.2668
▁mubatere	-12.2669
▁bambariye	-12.2669
shinja	-12.2669
▁dushaka	-12.267
tanu	-12.267
▁dukomeze	-12.267
▁umuti	-12.2671
▁ahageze	-12.2671
▁imiba	-12.2672
▁bahagararaga	-12.2672
ryozwa	-12.2672
▁Ze	-12.2673
asubira	-12.2673
▁mwabonye	-12.2673
▁yakuwe	-12.2674
mpamagara	-12.2674
citse	-12.2675
gambirira	-12.2675
▁hak	-12.2675
irebera	-12.2675
▁Ajyana	-12.2675
▁ntuzamu	-12.2676
▁bazize	-12.2676
aragwiriye	-12.2676
▁bagapfa	-12.2677
▁azabareka	-12.2677
▁azirukana	-12.2678
▁bamukorera	-12.2678
▁ihumura	-12.2678
▁bategura	-12.2679
▁bamerewe	-12.2681
▁musubire	-12.2681
inyuze	-12.2682
hinze	-12.2682
▁Buzi	-12.2682
ingunzu	-12.2682
munsi	-12.2684
fungwa	-12.2684
Ged	-12.2685
▁hakaza	-12.2685
witinya	-12.2686
▁bibaho	-12.2686
▁yahabwaga	-12.2686
nkurikire	-12.2687
tuvuye	-12.2687
ababajyanye	-12.2688
▁ikaza	-12.2688
▁byara	-12.2689
▁abakikije	-12.269
▁babicisha	-12.269
▁ashakira	-12.2691
▁biremera	-12.2691
▁amukura	-12.2691
▁yahumanyije	-12.2692
▁bahurira	-12.2694
▁bamubwiye	-12.2695
▁bigomeka	-12.2696
baririmbyi	-12.2697
urushaho	-12.2698
▁agiha	-12.27
▁abyibushye	-12.2701
mwambuke	-12.2701
▁rindwi	-12.2701
▁bakubwiye	-12.2705
▁yashyizwe	-12.2707
zirukana	-12.2707
▁ryakoreshejwe	-12.2708
▁abicira	-12.2708
▁Guni	-12.2709
▁yamanutse	-12.271
▁zigenza	-12.271
▁baraje	-12.271
▁nabitegetswe	-12.2711
gaceceka	-12.2711
▁iramutse	-12.2712
cana	-12.2714
▁bikomeza	-12.2715
gituremo	-12.2716
rinde	-12.2716
▁wakomokaga	-12.2717
▁bukomeza	-12.2717
▁barababaza	-12.2718
ituruka	-12.2719
▁bujyane	-12.2719
takiye	-12.272
▁yibye	-12.272
▁yiyambur	-12.272
▁bamubanjirije	-12.272
▁nkubwire	-12.2721
bafashe	-12.2721
mubuza	-12.2721
▁Ababi	-12.2722
▁akagibwaho	-12.2722
ateguriye	-12.2723
▁kujyayo	-12.2723
sangire	-12.2724
dutegetse	-12.2725
mwumvira	-12.2725
hwanyije	-12.2726
▁yadukoreye	-12.2726
muhumurize	-12.2727
▁yavanye	-12.2727
ayijyana	-12.2727
RA	-12.2728
▁yatu	-12.2729
▁make	-12.2731
▁bigera	-12.2731
kunze	-12.2732
abagabije	-12.2732
ereti	-12.2732
▁Hira	-12.2732
abavuza	-12.2733
▁bakomotseho	-12.2733
arara	-12.2734
▁hatuye	-12.2734
▁nahiga	-12.2736
▁ntizi	-12.2736
nzongera	-12.2736
yanywe	-12.2737
guze	-12.2738
kagire	-12.2738
mizigo	-12.2738
▁mpita	-12.2739
▁agusaba	-12.2739
abakwanga	-12.274
▁gusaza	-12.2743
urwanya	-12.2744
▁arebana	-12.2744
▁yatsinze	-12.2746
kirimbure	-12.2748
zoni	-12.2748
▁bangana	-12.2749
▁kuryamana	-12.275
▁kugerageza	-12.2751
bagote	-12.2752
▁ayitambe	-12.2753
tabarika	-12.2755
▁usubire	-12.2755
▁ntanga	-12.2755
tuzanira	-12.2756
cishe	-12.2757
▁hapfuye	-12.2757
aratubwira	-12.2757
▁Kasi	-12.276
▁azabare	-12.2762
▁guruka	-12.2765
▁nimugende	-12.2766
▁bakozi	-12.2767
▁wiburungushuye	-12.2767
33–	-12.2768
wirinde	-12.2768
yumviye	-12.2769
isubirire	-12.277
▁bate	-12.2773
teranira	-12.2773
▁naguhaye	-12.2774
▁babasanga	-12.2774
▁uhuriraho	-12.2777
bayobore	-12.2777
zihesha	-12.2778
wirinda	-12.278
▁ntikiza	-12.2781
▁abatu	-12.2783
▁wanyuze	-12.2784
biroha	-12.2785
▁waremye	-12.2786
▁biyobora	-12.2786
▁hapfa	-12.2786
▁bagituyemo	-12.2787
ashoboka	-12.2787
28-4	-12.2787
▁avayo	-12.2787
biguze	-12.2791
abizi	-12.2791
bayoboraga	-12.2791
ashenye	-12.2793
▁yahindutse	-12.2793
▁yahamije	-12.2796
kuzanira	-12.2798
gurishe	-12.28
kamurira	-12.2801
▁Amazu	-12.2806
▁yaraba	-12.2806
▁tyo	-12.2808
hivi	-12.281
▁barigeze	-12.281
teguye	-12.2812
amare	-12.2813
▁gukorana	-12.2814
▁nkanswe	-12.2814
ihuta	-12.2819
▁Yavan	-12.282
inowamu	-12.2821
ororoke	-12.2821
aviriye	-12.2821
▁Umugi	-12.2823
ahagurutsa	-12.2825
tw	-12.2826
kugabiza	-12.2826
▁yumvaga	-12.283
▁maguru	-12.283
anduye	-12.2832
▁mbohe	-12.2832
Bene	-12.2835
▁ntiwari	-12.2835
asohoza	-12.2835
▁ukunze	-12.2836
▁amahe	-12.2837
▁uwamu	-12.2838
▁Zeta	-12.2838
sekurume	-12.2839
iherereye	-12.2841
yazanwaga	-12.2843
▁batakebwe	-12.2844
mpumuriz	-12.2845
kavuga	-12.2847
zijyane	-12.2849
▁bagarutse	-12.285
▁bave	-12.285
▁yitaba	-12.285
dukize	-12.2854
yanyu	-12.2854
zaniraga	-12.2855
yambwiye	-12.2856
gadi	-12.2856
▁itangaje	-12.2856
▁amwereka	-12.2859
▁abatura	-12.286
▁kuj	-12.2864
sobanukiwe	-12.2869
▁umuta	-12.2871
25-4	-12.2871
kivamo	-12.2874
▁aramuba	-12.2876
erekeranye	-12.2876
ihagarariwe	-12.2877
wiboneye	-12.2877
▁ntuki	-12.2877
terera	-12.2878
▁La	-12.288
garagara	-12.2881
43–	-12.2883
▁ngukorera	-12.2883
▁cyubahiro	-12.2884
amwitaho	-12.2886
▁baririra	-12.2886
arihuta	-12.2887
uzinjira	-12.289
▁amapfa	-12.2892
▁emera	-12.2893
▁nguha	-12.2893
abag	-12.2895
kumyabiri	-12.2897
▁Urugo	-12.2898
aragenda	-12.2903
▁Bah	-12.2905
▁usaba	-12.2907
▁Yehora	-12.2909
bwiriye	-12.2909
▁Tu	-12.291
abimu	-12.291
mubwiye	-12.2916
▁omeri	-12.2916
▁Mesha	-12.2921
▁Bazaba	-12.2922
aturukaga	-12.2922
▁ruti	-12.2922
yikunda	-12.2923
▁gikongo	-12.2924
▁agarura	-12.2925
▁bugari	-12.2929
gobe	-12.293
mwigomeke	-12.2932
rapfuye	-12.2933
▁yice	-12.2934
▁inkombe	-12.2934
zemera	-12.2936
zaniye	-12.2937
▁Yohana	-12.2938
▁amakanya	-12.2941
▁nibura	-12.2942
▁amw	-12.2942
▁rut	-12.2942
▁aborozi	-12.2943
▁imirabyo	-12.2944
▁bakomeye	-12.2944
Pil	-12.2945
▁Oni	-12.2945
▁namuhaye	-12.2945
▁inkwano	-12.2946
▁urukweto	-12.2946
▁bashakaga	-12.2947
▁umuborogo	-12.2947
yigiza	-12.2947
▁mugati	-12.2947
▁Hatushi	-12.2949
▁ufitanye	-12.2949
mushuka	-12.295
▁Misirayimu	-12.295
▁twumvise	-12.2951
▁muhora	-12.2952
tama	-12.2952
▁ukuke	-12.2952
▁ntuzongere	-12.2952
▁cyago	-12.2954
▁gusambana	-12.2956
▁banywa	-12.2956
▁yitirirw	-12.2957
▁uzitwa	-12.2957
▁Intambara	-12.2958
zambera	-12.2958
▁unyuze	-12.2959
▁mugakora	-12.2963
mukorere	-12.2963
▁mbana	-12.2964
mutsinda	-12.2965
ntera	-12.2967
hindukiye	-12.2967
▁ukoresha	-12.2969
imbe	-12.2969
▁watanze	-12.297
rimbure	-12.297
▁wabivuze	-12.2971
bivuge	-12.2972
▁Bir	-12.2972
▁Uzab	-12.2973
▁nakubwiye	-12.2974
yirwanya	-12.2976
hereje	-12.2977
afite	-12.2983
▁ataz	-12.2986
▁Igi	-12.2986
▁tukiri	-12.2987
▁umusaruro	-12.2987
▁ibizaba	-12.299
▁amatege	-12.2994
akoreye	-12.2994
amerewe	-12.2996
▁wicaye	-12.2997
▁Bera	-12.2997
atoragura	-12.2997
ezi	-12.2997
wikubite	-12.2998
▁umuzi	-12.3002
kinga	-12.3003
▁Ayini	-12.3004
▁abaf	-12.3004
atandatu	-12.3004
▁ndajya	-12.3006
angize	-12.3011
▁wajya	-12.3012
▁yavuye	-12.3016
mwishe	-12.3016
▁yahoraga	-12.3016
▁Lod	-12.302
ode	-12.3023
amushatse	-12.3023
▁asigaza	-12.3026
abikuye	-12.3027
bitangaza	-12.3028
▁imirya	-12.3029
▁acira	-12.303
▁mbaza	-12.303
▁ntukabi	-12.303
24–2	-12.3035
dafite	-12.3036
ashize	-12.3036
ikijwe	-12.3038
ikubere	-12.3039
▁burimo	-12.3039
▁ibid	-12.3044
ufitiye	-12.3045
akijije	-12.3047
utererane	-12.3048
▁buzukuru	-12.3049
▁Ga	-12.3052
Ha	-12.3056
atanga	-12.3058
▁ntimuk	-12.3059
▁kwiza	-12.3059
adahumanye	-12.306
▁kugarukira	-12.3061
akanahosere	-12.3062
uvuga	-12.3065
▁muzagitamb	-12.3068
kinangira	-12.3068
tegeko	-12.307
basaza	-12.3071
yifate	-12.3074
▁Yero	-12.3075
▁muce	-12.3076
gitegura	-12.3077
ukacyigarurira	-12.308
nyasiriya	-12.3085
bose	-12.3086
gushe	-12.3086
banesha	-12.3088
▁mutanga	-12.309
▁izatuma	-12.309
▁bubake	-12.309
rayi	-12.3091
bizira	-12.3092
▁abatwa	-12.3092
arwanye	-12.3095
▁birukana	-12.3096
▁kibuze	-12.3096
wihishe	-12.3101
zakureho	-12.3104
mubaze	-12.3108
horo	-12.3109
shyirwa	-12.3111
mugaruka	-12.3114
mwica	-12.3117
▁nzag	-12.3121
▁cyah	-12.3122
▁irangiye	-12.3122
▁Nukomeza	-12.3124
▁Ibizi	-12.3128
kubwiye	-12.3129
▁makosa	-12.313
fi	-12.3136
▁arar	-12.3137
▁Ig	-12.3141
mpora	-12.3143
rema	-12.3147
zabirukana	-12.3148
cukura	-12.3148
▁tumwice	-12.3149
mufashe	-12.3152
amori	-12.3154
atu	-12.3157
usha	-12.3164
ihishe	-12.3165
▁bakoranyiriz	-12.3167
▁bacyo	-12.3167
▁Yubak	-12.3169
inangire	-12.317
▁itandukanye	-12.317
▁robowamu	-12.3173
▁dukora	-12.3174
▁uyakurikize	-12.3175
zakora	-12.3176
▁nkubwira	-12.3179
▁wanganaga	-12.3181
▁Yemwe	-12.3181
urane	-12.3181
▁mukuraho	-12.3183
bitoragura	-12.3187
Abam	-12.3188
agirwa	-12.3189
▁uziririz	-12.319
▁mwemerw	-12.319
ahamu	-12.3191
dutumye	-12.3195
33–3	-12.3199
▁tubi	-12.3199
▁abya	-12.3202
utumvira	-12.3204
angirira	-12.3208
▁Uzakora	-12.321
uzashake	-12.3213
azabirihe	-12.3213
▁ntim	-12.3215
▁mutar	-12.3217
fiya	-12.3223
▁baribwira	-12.3223
bimu	-12.3228
anditswemo	-12.3229
uruti	-12.3229
▁sekuru	-12.323
▁kugaragariza	-12.323
▁buki	-12.3233
bigometse	-12.3236
▁undeke	-12.3237
kurikize	-12.3237
ahigiye	-12.3239
yongereye	-12.3245
▁tuyi	-12.325
arindaga	-12.3256
ndiro	-12.3256
▁basohoka	-12.3259
turanwa	-12.3261
▁ndahira	-12.3266
34–	-12.3266
▁batsindwa	-12.3266
▁agaruke	-12.3269
tandukanya	-12.3271
▁mwitotombera	-12.3271
▁yahaga	-12.3277
ato	-12.3278
▁itanga	-12.3284
▁yitura	-12.3285
▁guhita	-12.3286
▁mwizihiriz	-12.3286
asenyutse	-12.3289
▁azag	-12.3291
bihisha	-12.3291
aturutse	-12.3295
impangayikishije	-12.3295
inini	-12.3297
bareba	-12.3299
▁umut	-12.3302
▁kiva	-12.3302
▁bitunguran	-12.3306
ishimisha	-12.3308
▁guhan	-12.3309
▁imizi	-12.3311
gumane	-12.3312
▁imuha	-12.3313
▁uzay	-12.3313
▁unkize	-12.3314
▁kubahiriza	-12.3316
▁nunga	-12.3318
girwamana	-12.3319
▁bosa	-12.332
▁guhanur	-12.3321
▁ntiyameny	-12.3324
ceceka	-12.3325
zinukwa	-12.3329
dani	-12.333
akangutse	-12.3338
suzuma	-12.3338
zahagarara	-12.334
▁wibuk	-12.3341
▁wateje	-12.3342
▁babizana	-12.3345
bimubwira	-12.3346
ashyire	-12.3348
takira	-12.3348
▁Tuzajya	-12.3349
ziyeli	-12.335
▁kora	-12.3351
tegekwa	-12.3353
zirikana	-12.3354
abicamo	-12.3355
▁gihamya	-12.3355
wejeje	-12.3356
▁Di	-12.3358
taki	-12.3362
yaga	-12.3364
▁mukanga	-12.3364
gabije	-12.3368
mubujije	-12.3372
ugufi	-12.3372
hagurukira	-12.3373
yubaka	-12.3377
itegereze	-12.3379
umurimo	-12.3379
ryumvise	-12.3383
anyoye	-12.3383
anira	-12.3384
▁byiyongere	-12.3385
uhumuriza	-12.3388
umisha	-12.3388
▁nama	-12.3389
garagaje	-12.339
kongora	-12.34
uruva	-12.3401
azana	-12.3405
▁ampanurira	-12.3406
▁bahagarari	-12.3408
▁ntazar	-12.3411
ap	-12.3411
▁uzarokoka	-12.3411
kibaya	-12.3414
shirira	-12.3415
ushije	-12.3418
umut	-12.3419
78	-12.3419
gukunda	-12.342
ogil	-12.342
▁abakorera	-12.3421
gutegeka	-12.3424
ibij	-12.3426
zirika	-12.3427
vane	-12.3428
munyabyaha	-12.343
rangirije	-12.3431
▁abatwara	-12.3436
▁ndeke	-12.344
koreshereza	-12.3444
iburungushuye	-12.3448
▁ndiko	-12.3451
▁ubuhemu	-12.3451
akambikaga	-12.3451
▁iciro	-12.3453
▁imigende	-12.3453
▁iminara	-12.3456
▁narose	-12.3457
▁nzagiha	-12.3458
▁Peleti	-12.3458
kirisha	-12.346
amira	-12.3464
kazikorera	-12.3466
egereje	-12.3468
▁irihe	-12.347
▁ampa	-12.3471
▁abatsinda	-12.3471
shize	-12.3472
rike	-12.3474
reshya	-12.3474
nezerwe	-12.3476
bwoko	-12.348
ukuye	-12.348
wanyu	-12.3481
etswe	-12.3486
mbwiye	-12.3493
irwaho	-12.3497
ushakira	-12.3499
▁Mwumv	-12.3499
ibyokurya	-12.35
▁nabaye	-12.35
▁asubire	-12.3506
▁Ijuru	-12.3509
▁urusenge	-12.3511
mb	-12.3512
▁bazo	-12.3513
▁inkingira	-12.3514
▁Yara	-12.3516
inze	-12.3519
▁Bakavug	-12.3522
ujyane	-12.3526
cecekesha	-12.3528
▁bihuje	-12.3532
▁nsubiza	-12.3533
▁arage	-12.354
▁kuzura	-12.354
▁Til	-12.3542
rangaye	-12.3545
▁uzanye	-12.3547
dakomeza	-12.3548
▁zizajy	-12.355
ahabwaga	-12.3552
garukire	-12.3554
▁acumuye	-12.3555
▁Shar	-12.3555
▁Ntuzagir	-12.3556
ifi	-12.3557
▁tuha	-12.3561
▁bimera	-12.3563
inya	-12.3565
abigambiriye	-12.3568
▁Oru	-12.3568
▁rihinda	-12.3569
rwose	-12.357
ishima	-12.3574
ihesha	-12.3581
akiri	-12.3583
avugaga	-12.3583
▁mvuye	-12.3584
urimo	-12.3586
Kera	-12.3586
▁boherereza	-12.3588
▁bayita	-12.3597
ashimishwa	-12.36
▁barawu	-12.3602
▁barazi	-12.3605
umuga	-12.3608
▁shafati	-12.3608
ahunga	-12.3609
▁Ntukab	-12.3609
13-2	-12.3611
muture	-12.3614
agombye	-12.3615
gara	-12.3617
fashwe	-12.3621
ngaragarije	-12.3623
▁arahira	-12.3627
iruka	-12.3633
▁ntibagomba	-12.3633
▁uce	-12.3641
▁ajyane	-12.3641
itegeye	-12.3642
▁uzagikor	-12.3643
amurinze	-12.3645
▁Sharayi	-12.3647
ahambye	-12.3649
garurira	-12.365
▁ngere	-12.3651
Ntugat	-12.3652
zamura	-12.3656
abambika	-12.3656
▁yavugan	-12.3657
up	-12.3657
▁abagara	-12.3658
▁azam	-12.3661
ireho	-12.3661
▁Nzab	-12.3667
▁izab	-12.3669
▁azaha	-12.367
uruta	-12.3675
ikingira	-12.3676
agiza	-12.3677
mutegeke	-12.3677
gihugu	-12.3677
▁umuhererezi	-12.3678
▁imera	-12.3685
igaruka	-12.3685
▁yitegereza	-12.3686
▁Abatwa	-12.3688
byaha	-12.3692
▁yarak	-12.3694
wigize	-12.3697
gurika	-12.3701
gabane	-12.3702
teranya	-12.3704
▁yabikore	-12.3705
yirimo	-12.3706
tsweho	-12.3706
▁araki	-12.3708
▁akayi	-12.3709
arema	-12.3715
▁arimbure	-12.3717
unywe	-12.3719
ukomeze	-12.3719
▁cyag	-12.372
umviraga	-12.3721
3–	-12.3721
yihariye	-12.3728
zanira	-12.373
▁akurikiza	-12.373
anyirije	-12.3739
urire	-12.3742
▁yihariye	-12.3744
egamira	-12.3745
ebyiri	-12.3749
▁ikubita	-12.3754
shani	-12.3755
ijisho	-12.3755
▁hac	-12.3756
▁ibyeze	-12.3756
▁fate	-12.3759
▁bateze	-12.3761
abat	-12.3763
▁bigwa	-12.3766
dendezi	-12.3766
▁bakan	-12.3768
▁hudi	-12.3769
razirya	-12.377
mike	-12.3772
arwanira	-12.3774
▁ubare	-12.3779
▁ahunze	-12.3779
▁igica	-12.3779
and	-12.378
ishyire	-12.3781
ibumbir	-12.3782
ushinja	-12.3788
bundi	-12.3789
witure	-12.379
shimisha	-12.379
▁igis	-12.3793
▁inzog	-12.3794
sheje	-12.3795
▁nyura	-12.381
▁washatse	-12.381
nanirwa	-12.3817
omeye	-12.3819
uzahite	-12.382
▁Tela	-12.3822
ikubite	-12.3822
gomeka	-12.3825
kubitisha	-12.3826
bayi	-12.3829
bavandimwe	-12.3831
▁kosa	-12.3832
kwi	-12.3833
pfu	-12.3836
bucya	-12.3836
gutwara	-12.3836
umvikana	-12.384
gwaho	-12.3849
vamo	-12.385
gezeho	-12.3853
nguka	-12.3855
itse	-12.3856
igoro	-12.3857
kanwa	-12.3857
horere	-12.386
uzuze	-12.386
▁banesha	-12.3862
▁icyana	-12.3862
utwike	-12.3862
batere	-12.3863
iturutse	-12.3868
zarimbura	-12.387
ikomeza	-12.3873
botsa	-12.3874
Abi	-12.3874
mpamvu	-12.3875
acumura	-12.3876
ishirije	-12.3882
Ntukagir	-12.3884
hama	-12.3885
▁Ri	-12.3885
▁Guhum	-12.3886
gurira	-12.3887
bigisha	-12.3888
ubigenza	-12.3891
manza	-12.3895
turiho	-12.3896
teretse	-12.3897
yuzuza	-12.3899
▁yabicu	-12.3902
akura	-12.3908
▁Yala	-12.391
akavuga	-12.391
azenguruka	-12.3912
▁kuzanira	-12.3914
▁ntituz	-12.3915
▁bagishobo	-12.3916
ushubije	-12.3917
▁kimara	-12.3919
▁yeza	-12.3921
apimaga	-12.3926
▁sinzi	-12.3929
intwaro	-12.3929
▁O	-12.3932
geraga	-12.3935
▁umuhu	-12.3937
bazanira	-12.3938
▁as	-12.3939
ino	-12.394
ziya	-12.3944
▁itanura	-12.3944
▁igit	-12.3944
nkunda	-12.3946
▁asohora	-12.3947
▁tayu	-12.3949
ambwira	-12.395
▁umusaza	-12.3951
bereye	-12.3955
▁iryinyo	-12.3956
▁ihe	-12.396
mugateshuk	-12.3963
ndo	-12.3965
▁ubukire	-12.3966
▁imiringa	-12.3967
▁gadi	-12.397
abantumyeho	-12.3973
ambiwe	-12.3977
Kubera	-12.3988
▁ntiyonge	-12.3988
agaruka	-12.399
▁ubumaji	-12.3994
zahora	-12.3995
▁amaga	-12.4005
pfira	-12.4006
Ndi	-12.4012
unyure	-12.4013
agukunda	-12.4015
▁kube	-12.4018
rakiranuka	-12.4026
rahindukira	-12.4029
mwitura	-12.4032
Nafutali	-12.4033
▁uzari	-12.4033
yitegereza	-12.4037
yasuke	-12.404
rik	-12.4041
tumviye	-12.4042
iYe	-12.4044
▁rishyirwa	-12.4044
ushaka	-12.4047
ibagiwe	-12.4048
gitambaro	-12.4051
▁Abudi	-12.4051
ncuti	-12.4052
hiye	-12.4053
ubusa	-12.4056
ubira	-12.4066
rabu	-12.407
gishe	-12.4074
▁Yas	-12.4076
abasha	-12.4077
hamagaza	-12.4078
acira	-12.4083
shijwe	-12.4086
▁nzakura	-12.4087
shyigikira	-12.4088
ibinya	-12.4094
▁125	-12.4097
▁byakorwaga	-12.4098
Nyamara	-12.41
bazanya	-12.4105
abikorera	-12.4108
Beni	-12.4109
▁kuririmb	-12.4109
tuzanyura	-12.411
iyagirizaho	-12.411
aguze	-12.4117
▁Arab	-12.4121
inshingano	-12.4124
▁nicara	-12.4126
awuhamba	-12.4133
Umunsi	-12.4133
Adoniya	-12.4133
impano	-12.4135
▁bahora	-12.4135
minyago	-12.4136
▁ahubak	-12.4139
iyagirizeho	-12.4139
▁ncuti	-12.414
▁banza	-12.4142
yobora	-12.4142
▁tuje	-12.4143
arahindutse	-12.4143
▁bakosereza	-12.4143
▁is	-12.4145
arira	-12.4146
ikongorwa	-12.4157
▁uzakomeza	-12.4158
uburenganzira	-12.4159
▁bikurikira	-12.4159
tambyi	-12.416
▁Azames	-12.4161
Azafate	-12.4162
▁barwa	-12.4162
▁kida	-12.4164
itagira	-12.4166
zababera	-12.417
kagaruka	-12.4174
byemera	-12.4175
umucamanza	-12.4179
imika	-12.4179
abibonye	-12.4179
umurongo	-12.4188
▁mpeke	-12.419
▁ntare	-12.4191
▁yagira	-12.4193
kebaho	-12.4193
inzozi	-12.4194
isubirira	-12.4194
▁mbaye	-12.4195
abako	-12.4196
kijya	-12.4197
Umugore	-12.42
Ayo	-12.4203
umugaba	-12.4206
ereye	-12.4206
inkoko	-12.4207
bamenyeshe	-12.4208
Bara	-12.4209
intumbi	-12.4211
ishyanga	-12.4217
Nawe	-12.4222
iringirwa	-12.4224
▁muva	-12.4226
cunguye	-12.423
Ntimukagire	-12.4231
Umunaziri	-12.4233
▁impeke	-12.4234
acu	-12.4234
▁intu	-12.4235
abimutegetse	-12.4235
wajyanye	-12.4235
ubirire	-12.4235
▁yirukana	-12.4237
umucyo	-12.4237
izamera	-12.4238
▁bakabi	-12.4241
Anati	-12.4242
Yesaya	-12.4242
buja	-12.4242
▁gukeb	-12.4242
▁Yit	-12.4244
ikoraniro	-12.4246
ikubiye	-12.4248
umuheto	-12.4256
ubwinshi	-12.4256
▁utarya	-12.4259
igabanyije	-12.426
indirimbo	-12.426
zamuye	-12.4261
asutseho	-12.4263
▁mum	-12.4264
▁nkorera	-12.4264
Abedomu	-12.4265
umugambi	-12.4265
▁bazatura	-12.4265
bigeze	-12.4265
akaraba	-12.4268
amababa	-12.427
▁adukur	-12.4271
uzakomeza	-12.4271
umusore	-12.4271
ibisiga	-12.4272
▁shaka	-12.4273
arinda	-12.4276
umusatsi	-12.4276
osi	-12.428
imyambi	-12.4281
Adari	-12.4283
▁an	-12.4283
▁ntibaba	-12.4284
anyi	-12.4285
umwotsi	-12.4287
igihanga	-12.4288
roheje	-12.4288
imigozi	-12.4289
▁arwanya	-12.4289
ibaza	-12.4289
Pewori	-12.4296
ibwa	-12.4297
umukandara	-12.4299
murikira	-12.43
abanyabwenge	-12.4304
Itsinda	-12.4307
iry	-12.4307
ubutware	-12.4308
Uburiza	-12.4308
umunyamahanga	-12.4311
umukazana	-12.4311
Goyimu	-12.4313
umugara	-12.4313
abatwa	-12.4313
ubugome	-12.4314
imiringa	-12.4315
imishumi	-12.4316
abubatsi	-12.4318
▁ima	-12.432
impumyi	-12.432
ubuturo	-12.4322
amakanzu	-12.4322
Abafilisiti	-12.4325
nzagwiza	-12.4325
iryinyo	-12.4325
imigambi	-12.4326
amatafari	-12.4327
aboroheje	-12.4328
abarokotse	-12.433
nyitotombera	-12.433
amye	-12.433
ruha	-12.4331
▁rirak	-12.4332
ategetse	-12.4332
imivumo	-12.4334
agashumi	-12.4336
tumvira	-12.4337
abanyabyaha	-12.4338
umusaza	-12.4338
inkweto	-12.434
6-	-12.4343
mbike	-12.4344
mutumye	-12.4344
aryamane	-12.4345
nyanga	-12.4346
akize	-12.4349
▁ruha	-12.435
udahumanye	-12.4352
nkingi	-12.4353
idubu	-12.4358
itirirwe	-12.4359
loti	-12.436
ubukire	-12.4362
▁Pu	-12.4362
ryubaka	-12.4364
zakurwaho	-12.4365
urubibi	-12.4368
▁Hati	-12.4371
ntugire	-12.4371
kurikiyeho	-12.4373
▁batam	-12.4373
itumba	-12.4373
ishime	-12.4375
ahamije	-12.4375
gije	-12.4377
Noneho	-12.438
▁shani	-12.4385
▁atab	-12.4385
mwumva	-12.4386
▁E	-12.4392
iwacu	-12.4392
barakarira	-12.4397
gabiza	-12.4398
iyeza	-12.4399
▁Bama	-12.4399
25–3	-12.4401
ahishe	-12.4404
gerwaho	-12.4407
▁Bag	-12.4408
▁muca	-12.441
irahagarara	-12.4411
ibyana	-12.4413
barura	-12.4414
mufata	-12.4414
girana	-12.4415
azaba	-12.4423
genere	-12.4423
mugiye	-12.443
afatisha	-12.4431
ikagera	-12.4431
rimburwa	-12.4432
▁Le	-12.4434
washoboye	-12.4435
Abale	-12.4437
ibyawe	-12.4437
▁kuta	-12.4437
aturire	-12.4441
manutse	-12.4443
ugaragariza	-12.4445
▁rukambuki	-12.4451
remba	-12.4452
fuha	-12.4453
kabakiza	-12.4457
▁barak	-12.446
amuguze	-12.446
▁umujinya	-12.4461
▁aranga	-12.4461
11-2	-12.4462
intwa	-12.4462
imira	-12.4463
▁akava	-12.4463
▁rwar	-12.4463
kibwira	-12.4464
▁umuh	-12.4464
gusaba	-12.4465
yiri	-12.4466
▁Abageshuri	-12.4468
▁imbag	-12.4469
▁ibere	-12.4469
▁Umubenyamini	-12.4469
▁Ntukagi	-12.447
▁nakomeza	-12.4471
▁afatwa	-12.4471
bahagurukira	-12.4474
▁Hah	-12.4475
akambika	-12.4478
▁umufuka	-12.4482
▁Ntihazagire	-12.4483
rere	-12.4486
gileyadi	-12.4487
kureka	-12.4487
ntangiriro	-12.4488
umurya	-12.4491
bashinzwe	-12.4498
nkoramutima	-12.4499
isanzwe	-12.45
gushyira	-12.4502
▁Babaru	-12.4502
ibif	-12.4505
▁agu	-12.4505
upimu	-12.4508
abababarira	-12.4509
▁Eleya	-12.4513
atemba	-12.4519
rukuta	-12.4521
ashira	-12.4522
uhimu	-12.4525
kisha	-12.4525
acyosereze	-12.4526
ny	-12.4526
ahakikije	-12.4526
agerwaho	-12.4532
nzoka	-12.4533
eramo	-12.4537
281	-12.4538
▁ryaba	-12.4542
bikoraho	-12.4544
▁acika	-12.4546
▁giciro	-12.4547
▁abake	-12.4553
wanjye	-12.4559
▁rigira	-12.456
yikubit	-12.4565
birenge	-12.457
▁uyasuk	-12.4573
ibise	-12.4573
urundi	-12.4576
kebwa	-12.458
▁itandukan	-12.458
▁umurongo	-12.4582
ibohesha	-12.4582
bajya	-12.4587
▁tanga	-12.4588
▁kik	-12.459
aki	-12.4593
▁yakun	-12.4594
anyeganyega	-12.4595
byariye	-12.4601
ukuremo	-12.4608
ubakire	-12.4608
arwanyije	-12.4611
itegura	-12.4612
madudayimu	-12.4613
kire	-12.4613
rwo	-12.4614
ureke	-12.4614
twazaga	-12.4616
aguruka	-12.4616
korwa	-12.4616
▁agana	-12.462
deya	-12.4623
yubakire	-12.4624
5–	-12.4626
▁yarahiz	-12.4632
▁urahita	-12.4634
▁ubuda	-12.4636
▁yuzuza	-12.4638
umenye	-12.4639
▁isigaye	-12.4639
mire	-12.464
ereze	-12.4641
ungana	-12.4644
nyaze	-12.4648
tumyeho	-12.4657
ambare	-12.4664
inkoro	-12.4671
▁yaramw	-12.4673
zirya	-12.4674
yumve	-12.4677
bitotombera	-12.4679
▁kabo	-12.4681
nsabira	-12.4686
atunganya	-12.4689
kujyana	-12.469
kati	-12.4692
▁jeje	-12.4693
nzabatatany	-12.4695
▁ikiza	-12.4696
kingwa	-12.4696
▁utura	-12.4697
kakubwira	-12.4701
▁mbura	-12.4702
▁Sinz	-12.4702
yambuye	-12.4706
shuri	-12.4708
rimburwe	-12.4715
ukorera	-12.4716
eba	-12.4717
wagize	-12.4722
▁Ad	-12.4723
sate	-12.473
mitima	-12.4732
▁aguha	-12.4738
G	-12.4738
akanguka	-12.4742
gahinduka	-12.4744
▁Ntazagir	-12.4745
zasarura	-12.4748
gombaga	-12.475
aribwa	-12.4751
▁bavoma	-12.4753
guka	-12.4754
vugiye	-12.4756
tegure	-12.4766
nyure	-12.477
▁arac	-12.477
yamana	-12.4776
▁bant	-12.4779
bihumbi	-12.478
▁kita	-12.4784
akubwira	-12.4787
bag	-12.479
▁twar	-12.479
▁ndabi	-12.4791
▁Tuza	-12.4796
hagume	-12.4801
shwe	-12.4803
gusanganira	-12.4804
umura	-12.4805
▁nuramu	-12.4813
niwe	-12.4813
▁mujyane	-12.4814
▁niri	-12.4814
tambiraho	-12.4815
Uzi	-12.4819
bageza	-12.482
ihishwe	-12.482
▁baravu	-12.4821
▁rig	-12.4822
waka	-12.4824
Nimwumv	-12.4828
itonde	-12.483
▁habonek	-12.4831
ashikuza	-12.4831
yageze	-12.4832
zapfa	-12.4833
▁Hele	-12.4834
▁ubishyir	-12.4837
▁arad	-12.4842
▁akarya	-12.4842
abwiwe	-12.4845
ayikorera	-12.4848
atambira	-12.4849
gihabwa	-12.4851
▁bizam	-12.4853
ntumyeho	-12.4855
14-3	-12.4865
▁ntazemerer	-12.4865
▁arazibwi	-12.4865
▁Twe	-12.4868
▁ukabi	-12.487
▁bame	-12.487
iremere	-12.4872
mbyi	-12.4872
atinze	-12.4875
rwuri	-12.4876
yanjye	-12.4878
acogora	-12.4885
▁tunyur	-12.4886
suhuza	-12.4886
abagira	-12.4886
▁gukira	-12.4887
leki	-12.4887
▁mubisha	-12.4889
maho	-12.4892
wakoreye	-12.4896
huje	-12.4897
▁abatuma	-12.4898
▁urutare	-12.4899
abeli	-12.4899
gure	-12.4904
▁ukuvu	-12.4906
beshye	-12.4907
nditab	-12.4909
▁uzaku	-12.4915
ibizi	-12.4918
▁ndatu	-12.492
▁yaseng	-12.4925
▁Azafata	-12.4926
rushaho	-12.4929
▁najya	-12.4931
harari	-12.4931
▁abasaruzi	-12.4935
▁muku	-12.494
zikorere	-12.494
erera	-12.4942
fun	-12.4943
▁uburumbuke	-12.4944
imiru	-12.4944
of	-12.4947
mwaka	-12.4948
impom	-12.4953
akiriho	-12.4954
▁ubumara	-12.496
rashaka	-12.496
ingi	-12.4963
▁mwigarurir	-12.4964
miyeli	-12.4966
▁akiza	-12.4972
ishakira	-12.4972
rangaje	-12.4979
▁agacir	-12.4979
mariba	-12.4981
bage	-12.4982
izane	-12.4984
▁ntiyi	-12.4987
umvikanye	-12.4987
rata	-12.4988
imel	-12.4989
▁ikan	-12.4992
zatange	-12.4993
ejwe	-12.4997
angiriza	-12.4998
giza	-12.5001
▁yad	-12.5006
▁ngano	-12.5007
ihinduka	-12.5009
mfatiro	-12.5012
ririmbire	-12.5013
▁bayishyir	-12.5014
mujura	-12.5015
▁Bos	-12.5015
▁iru	-12.502
shushanya	-12.5022
rambuye	-12.5022
L	-12.5024
mubaza	-12.5024
ishyiraho	-12.5026
ugeraho	-12.5026
▁amare	-12.5026
basha	-12.5029
▁bareme	-12.5031
abaremye	-12.5038
▁kag	-12.5042
zenguruk	-12.5043
kubite	-12.5044
▁Nzaguh	-12.5046
▁Aka	-12.5046
▁banywe	-12.5052
rijwe	-12.5052
on	-12.5055
amurahira	-12.5055
tur	-12.5057
ungura	-12.5059
koraho	-12.506
▁bakaya	-12.5062
zamukorere	-12.5064
▁kutu	-12.5065
itoranyirije	-12.5069
ryoza	-12.5077
▁abac	-12.5084
arukira	-12.5084
▁kuririra	-12.5085
▁tuvuga	-12.5088
▁Shalub	-12.5089
riwe	-12.5093
wubaka	-12.5093
▁yim	-12.5095
ugurumanira	-12.5099
avugira	-12.51
▁muzirir	-12.5103
▁muh	-12.5104
10-	-12.5106
▁bayobo	-12.5107
yahumetswe	-12.5109
agi	-12.5111
itera	-12.5112
▁ic	-12.5112
mumenya	-12.5114
1-2	-12.5115
▁yib	-12.5125
▁Mwi	-12.5129
▁asigara	-12.5139
▁imit	-12.514
tege	-12.5141
acika	-12.5146
razamuka	-12.5147
abihanangiriza	-12.5149
191	-12.5151
karimbura	-12.5152
amavu	-12.5152
akurura	-12.5153
▁ibiko	-12.5155
▁bitari	-12.5155
yatumye	-12.5162
Umuheburayo	-12.5167
▁ntuzabi	-12.5171
kebwe	-12.5172
▁Bamuha	-12.5173
▁urifuza	-12.5182
▁akamure	-12.5184
sinzi	-12.5186
amuhisha	-12.5193
▁nzamuha	-12.5195
ona	-12.5198
ibasira	-12.5203
irabagirana	-12.5204
osheti	-12.5206
▁rashi	-12.5207
avuganye	-12.5208
hugu	-12.5211
▁ampe	-12.5211
▁bategeka	-12.5212
▁subiza	-12.5213
izarya	-12.5215
▁wemere	-12.5218
▁mbure	-12.5221
▁babyi	-12.5222
mpanurira	-12.5223
eyamu	-12.5228
ububi	-12.523
bigenze	-12.5233
▁ndag	-12.5237
▁gutuk	-12.5242
andike	-12.5243
ukomeye	-12.5244
arishinga	-12.5248
nabi	-12.5255
ende	-12.5257
emejwe	-12.5261
amubwiye	-12.527
▁ntibazab	-12.5273
pfunyi	-12.5273
▁Hol	-12.5274
▁Yah	-12.5278
▁nzabya	-12.5279
impere	-12.5286
bahanuzi	-12.529
▁aramusanga	-12.5292
▁kwiyiri	-12.53
tumiye	-12.53
arambwiye	-12.5301
bohesha	-12.5303
ababaza	-12.5304
▁ataba	-12.5306
mpinga	-12.5308
usanga	-12.5312
▁rigaraga	-12.5312
shohoj	-12.5318
akomokamo	-12.5319
▁yawu	-12.5321
▁kugaba	-12.5322
yitaga	-12.5322
ukub	-12.5329
ngize	-12.5333
Ml	-12.5334
3-1	-12.5334
▁ikigu	-12.534
imvu	-12.5343
antumyeho	-12.5349
▁Haba	-12.535
mutwara	-12.5351
cyangwa	-12.5354
▁uzan	-12.5356
▁giko	-12.536
zatura	-12.5361
▁mugisha	-12.5362
rundanya	-12.5363
shite	-12.5369
▁iraba	-12.5372
mutware	-12.5375
ugeze	-12.5377
amwica	-12.5382
ange	-12.5384
▁bandik	-12.5385
iv	-12.5385
▁moni	-12.5387
amaramaje	-12.5387
atuyemo	-12.5388
agota	-12.5389
umuta	-12.5397
vanze	-12.5397
▁tutari	-12.5399
byeyi	-12.5405
▁Ntiza	-12.5407
▁Imirim	-12.5408
el	-12.5413
kugabije	-12.5417
ashinj	-12.5419
▁Kiza	-12.5419
twica	-12.5423
sigaranye	-12.5423
▁ibifunga	-12.5424
▁uzaza	-12.5425
▁Abasidoni	-12.5427
▁Iramu	-12.5427
ishimiye	-12.5432
ntabara	-12.5437
nditsi	-12.5438
ihane	-12.5439
zengurutsaho	-12.5442
▁bazamu	-12.5443
▁yarah	-12.5446
mugi	-12.5449
nohereje	-12.545
hongerere	-12.545
▁washyize	-12.5454
▁ashi	-12.5454
itaza	-12.5457
akunda	-12.5457
talanto	-12.5457
▁kubikora	-12.5459
▁kukaba	-12.546
▁Bizaba	-12.5463
baba	-12.5465
▁yaraha	-12.5467
urinze	-12.547
▁ukw	-12.5473
▁atabara	-12.5478
▁yaza	-12.548
wishimira	-12.548
ramwegera	-12.5482
hinga	-12.5483
shaga	-12.5486
▁ayit	-12.5486
bivuze	-12.5497
▁Ntim	-12.5499
▁ihumanye	-12.5501
banzirize	-12.5508
15-	-12.5509
barirwamo	-12.5514
isonga	-12.5515
▁Geshe	-12.5519
gusha	-12.552
irije	-12.552
ashoboye	-12.5521
acaga	-12.5522
oze	-12.5524
arimbuka	-12.5525
nsuzugura	-12.5525
gamo	-12.5528
yereza	-12.5533
uca	-12.5533
▁umuba	-12.5538
Abaze	-12.5539
▁zika	-12.554
arahiza	-12.5541
muzi	-12.5541
genje	-12.5542
shuke	-12.5543
ahinduke	-12.5547
rahiriye	-12.5549
ibika	-12.555
ene	-12.5551
▁ere	-12.5551
zabafata	-12.5551
gerushoni	-12.5555
ihute	-12.5557
shonje	-12.5562
ukiriza	-12.5563
amubonekeye	-12.5565
▁Gid	-12.5566
osereza	-12.5569
cura	-12.5571
twikire	-12.5575
▁ud	-12.5579
rirwa	-12.5579
ajyanywe	-12.5581
▁garuka	-12.5582
▁mbara	-12.5584
mubera	-12.5586
ikora	-12.5587
yakuye	-12.5589
rongo	-12.5593
▁ite	-12.5596
tujya	-12.5601
rasira	-12.5602
azibura	-12.5607
abatura	-12.5608
▁bihari	-12.5614
▁ad	-12.5617
▁nimumu	-12.5619
byarira	-12.562
soroma	-12.5622
abica	-12.5622
ukiye	-12.5629
twavuye	-12.5629
twarwa	-12.5632
wahawe	-12.5636
rimburiye	-12.5637
mesa	-12.5639
▁akana	-12.5642
▁waguz	-12.5643
▁ikam	-12.5644
anyumviye	-12.5649
▁haracyari	-12.5654
▁wantumye	-12.5654
guzi	-12.5657
emye	-12.5663
uzarimbukira	-12.5664
Beno	-12.5671
agiriye	-12.5673
shidikanya	-12.5677
migisha	-12.5678
▁guf	-12.5681
iyamini	-12.5685
gendere	-12.5688
bike	-12.5688
▁Nasubir	-12.5691
▁batara	-12.5692
akoranyiriz	-12.5694
▁ngirira	-12.5694
▁yis	-12.57
▁tut	-12.5701
▁wis	-12.5701
garika	-12.5704
wikubita	-12.5705
iyubakira	-12.5711
akara	-12.5718
▁ruz	-12.572
tugomba	-12.572
Ubu	-12.5721
▁bazabi	-12.5721
irihe	-12.5732
▁tumenye	-12.5733
▁kime	-12.5733
▁Ntimuk	-12.5737
▁zizari	-12.5738
igashyirwa	-12.5741
ER	-12.5741
▁yashyiriye	-12.5743
omekaho	-12.5746
tirirwa	-12.5748
ishinze	-12.5752
byari	-12.5753
ramanuka	-12.5757
gushakira	-12.5758
ugende	-12.5759
▁bamanuka	-12.576
igita	-12.5762
gikandagi	-12.5762
abah	-12.5763
▁Isa	-12.5765
ariya	-12.5766
cogoz	-12.5766
gati	-12.5767
▁Yak	-12.5768
agiraga	-12.577
murira	-12.5771
▁rwara	-12.5775
raguza	-12.5777
reho	-12.5781
lemu	-12.5781
▁Han	-12.5783
subire	-12.5785
umpamaga	-12.5787
ugati	-12.5788
ririmbyi	-12.5789
tswe	-12.5792
fatwa	-12.5795
kereti	-12.5796
winjire	-12.5798
▁Yeri	-12.5799
tiya	-12.5804
zubakira	-12.5806
imenyesha	-12.5807
ukuke	-12.5808
ami	-12.5814
▁nkugabi	-12.5817
cibwa	-12.5821
wambutse	-12.5823
▁Amuha	-12.5827
abakiza	-12.5829
wacumuye	-12.5831
cuza	-12.5835
abera	-12.5836
▁bitera	-12.5837
akuwe	-12.5838
▁tuma	-12.584
▁amasambu	-12.5844
ih	-12.5844
babi	-12.5844
rembo	-12.5845
▁ngaha	-12.5845
mukobwa	-12.5848
nagutumye	-12.5848
nshaka	-12.5849
Ntug	-12.585
sabato	-12.5851
▁Nimun	-12.5851
teraho	-12.5851
▁ayiyegu	-12.5852
▁asobanu	-12.5853
rikijwe	-12.5853
▁atagi	-12.5855
makomamanga	-12.5857
binyampeke	-12.5858
bikubwira	-12.5861
funze	-12.5863
ngwaga	-12.5864
tuka	-12.5864
▁hataba	-12.5867
lamu	-12.5868
▁akuriki	-12.5868
ayibona	-12.587
gaciro	-12.587
itambaro	-12.587
ejejwe	-12.5878
▁ayihungir	-12.5879
▁rugi	-12.588
iyandurish	-12.588
▁umudendezo	-12.5882
shusho	-12.5883
azaryama	-12.5883
▁Tel	-12.5888
tuze	-12.5888
humanutse	-12.5889
acukuye	-12.5891
sobekeranye	-12.5891
▁guc	-12.5892
ryamane	-12.5893
nama	-12.5893
▁baratu	-12.5893
ukomeza	-12.5894
kibyimba	-12.5894
kagezi	-12.5904
▁uburetwa	-12.5904
hejwe	-12.5904
gitsina	-12.5906
▁azabi	-12.5906
bukorikori	-12.5906
Umuh	-12.5915
burenganzira	-12.5915
mvumire	-12.5921
▁mbaha	-12.5922
▁horo	-12.5922
▁ntimugire	-12.5923
akata	-12.5923
▁imyob	-12.5925
▁Ntuzamu	-12.5925
▁atekere	-12.5926
▁ugahaga	-12.5928
tunga	-12.5929
yoboka	-12.5929
▁agitambir	-12.5931
enganura	-12.5931
bwibone	-12.5934
cumuyeho	-12.5936
▁Sefo	-12.5936
rabagirana	-12.5938
nimusubire	-12.5939
▁Shimu	-12.5939
▁Efurayi	-12.5939
▁Akish	-12.5939
▁Abafilisi	-12.594
wiyandarik	-12.5941
▁babana	-12.5941
jyamo	-12.5941
dutera	-12.5941
▁Yehoshafa	-12.5941
▁yarabitege	-12.5942
▁Libu	-12.5943
▁Iman	-12.5943
Ganimu	-12.5943
Hogula	-12.5943
Lahayi	-12.5943
Rishatayimu	-12.5943
Royi	-12.5943
Umuheto	-12.5943
Umunyapeloni	-12.5943
Yeshimoti	-12.5943
agahomamunwa	-12.5943
anyukanyukire	-12.5943
icyongereza	-12.5943
ikivuguto	-12.5943
intamukugaruri	-12.5943
mafunguro	-12.5943
rikwirwamo	-12.5943
tontoma	-12.5943
umurotemu	-12.5943
watoraguye	-12.5943
▁Ahisamaki	-12.5943
▁Bamowabu	-12.5943
▁Daberati	-12.5943
▁Ebenezeri	-12.5943
▁Elipali	-12.5943
▁Galali	-12.5943
▁Galedi	-12.5943
▁Kiliyoni	-12.5943
▁Konaniya	-12.5943
▁Lodebari	-12.5943
▁Matenayi	-12.5943
▁Memukani	-12.5943
▁Mezopotamiya	-12.5943
▁Nafishi	-12.5943
▁Nebuzaradani	-12.5943
▁Potifera	-12.5943
▁Sarefati	-12.5943
▁Shebuweli	-12.5943
▁Shubayeli	-12.5943
▁Uzazisigire	-12.5943
▁Yashobeyamu	-12.5943
▁Yeshuruni	-12.5943
▁Yokebedi	-12.5943
▁Yotibata	-12.5943
▁akanavangwa	-12.5943
▁guhunikwamo	-12.5943
▁gushishoza	-12.5943
▁ibikenewe	-12.5943
▁igisubizo	-12.5943
▁ikirundo	-12.5943
▁ikivugirizo	-12.5943
▁iyiroheramo	-12.5943
▁rurahinana	-12.5943
▁ryatangiwe	-12.5943
▁topazi	-12.5943
▁ubushakashatsi	-12.5943
▁umunyarugomo	-12.5943
▁uponderamo	-12.5943
▁yishingikiriza	-12.5943
Abanyasidoni	-12.5943
▁Abemimu	-12.5943
▁Banakimu	-12.5943
▁Kesili	-12.5943
▁burumbuka	-12.5943
▁muduhahire	-12.5943
▁ukennye	-12.5943
▁Igalu	-12.5943
▁Malikamu	-12.5943
▁Shimushayi	-12.5943
▁imyiteguro	-12.5943
▁yomboka	-12.5943
nimunshakire	-12.5943
▁Miniyamini	-12.5943
▁aguteze	-12.5943
▁ikirangirire	-12.5943
▁marimari	-12.5943
Umuhoroni	-12.5943
ubugambanyi	-12.5943
ubuhinzi	-12.5943
▁Gatamu	-12.5943
▁Muzasenye	-12.5943
▁Yehozabadi	-12.5943
▁barayasib	-12.5943
▁cyunamo	-12.5943
▁yumishijwe	-12.5943
Umukenazi	-12.5943
▁Bezayi	-12.5943
▁Ebiyasafu	-12.5943
▁Henadadi	-12.5943
▁Kelita	-12.5943
▁Yanowa	-12.5943
▁bikenewe	-12.5943
▁kuzabakomokaho	-12.5943
▁nkwiyerekera	-12.5943
▁Ikeshi	-12.5943
▁yarayishingiye	-12.5943
▁Sheshibazari	-12.5943
▁Habori	-12.5943
▁cyajyagamo	-12.5943
▁gufuhira	-12.5943
▁mwitonze	-12.5943
▁wambeshye	-12.5943
▁impagarara	-12.5943
▁Yakurikirwaga	-12.5943
▁igikona	-12.5943
▁mukatuzana	-12.5943
▁musenyi	-12.5943
▁yamukundaga	-12.5943
Umukeni	-12.5943
ibyababayeho	-12.5943
▁mutekano	-12.5943
▁yakubohesha	-12.5943
kabutura	-12.5943
mvikanisha	-12.5943
▁icyiru	-12.5943
▁miriyoni	-12.5943
▁ryarashe	-12.5943
ikuzimu	-12.5943
umuberoshi	-12.5943
▁Kanguka	-12.5943
▁Umunyamabanga	-12.5943
▁Ntazagusiga	-12.5943
▁mumbarize	-12.5943
▁bugusige	-12.5943
▁Mefati	-12.5943
▁Umuremyi	-12.5943
▁guhumanuka	-12.5943
▁gukaraba	-12.5943
uburozi	-12.5943
▁amabesani	-12.5943
boheshejwe	-12.5943
▁Merabu	-12.5943
▁uturemerera	-12.5943
▁Umucamanza	-12.5943
▁Yekamiya	-12.5943
▁byimbitse	-12.5943
Igikombe	-12.5943
▁Shupimu	-12.5943
ibifashi	-12.5943
▁duhunge	-12.5943
▁Mushunemukazi	-12.5943
Umunara	-12.5943
▁imirambo	-12.5943
▁kambarwa	-12.5943
icyigomeke	-12.5943
▁Sidimu	-12.5943
▁igitutu	-12.5943
▁Arudi	-12.5943
▁Sibiya	-12.5943
▁mwubaha	-12.5943
▁Helikati	-12.5943
▁Hobabu	-12.5943
▁Shemida	-12.5943
▁bisindisha	-12.5943
▁yatambiye	-12.5943
▁Udusimba	-12.5943
▁Maharayi	-12.5943
▁Hashabun	-12.5943
▁Ibusani	-12.5943
▁Ode	-12.5943
▁nzagutumaho	-12.5943
▁Mishayeli	-12.5943
▁butunguranye	-12.5943
▁Shefamu	-12.5943
▁Barubeni	-12.5943
▁yamuhemukiye	-12.5943
▁igikoko	-12.5943
▁Bamidiyani	-12.5943
▁Kafutori	-12.5943
▁yaturutsemo	-12.5943
▁nywubake	-12.5943
▁bahurisha	-12.5943
▁Yoshib	-12.5943
▁bikiranya	-12.5943
▁rikomezwa	-12.5943
▁Pelaya	-12.5943
▁kujij	-12.5943
▁ibigega	-12.5943
tohagiye	-12.5944
geragereshe	-12.5944
▁arayibaga	-12.5944
▁murosi	-12.5944
Abaruki	-12.5944
▁ruhavu	-12.5944
▁Yahiseli	-12.5944
▁impanuka	-12.5944
▁nonaha	-12.5944
▁Meredi	-12.5944
▁kwicuza	-12.5944
▁ntibyigeze	-12.5944
▁rubingo	-12.5944
▁Neyariya	-12.5944
▁Ntuzabure	-12.5944
▁aramwishimira	-12.5944
iteranyirije	-12.5944
suherewe	-12.5944
▁rwubati	-12.5944
▁bugutakambira	-12.5944
▁ibihome	-12.5944
▁uruhindu	-12.5944
Beriti	-12.5944
▁Medadi	-12.5944
▁intonganya	-12.5944
▁Beredi	-12.5944
▁Sharoni	-12.5944
▁miringa	-12.5944
▁Baruki	-12.5944
▁Besori	-12.5944
▁babakomokaho	-12.5944
▁Shetari	-12.5944
▁mwadukuye	-12.5944
lukiya	-12.5944
▁bidasub	-12.5944
▁Sufi	-12.5944
▁Tobu	-12.5944
▁ikigunira	-12.5944
bamwegereza	-12.5944
pfukirana	-12.5944
▁Nekoda	-12.5944
▁Tibuni	-12.5944
▁Kemuweli	-12.5944
▁Saretani	-12.5944
▁Bakibukiya	-12.5944
▁uwamwishe	-12.5944
▁bubahane	-12.5944
▁Asiriyeli	-12.5944
▁ntakicwe	-12.5944
▁rugerero	-12.5944
▁Manahati	-12.5944
ubusore	-12.5944
▁Ashibeli	-12.5944
iyoberanyije	-12.5944
▁Alumoni	-12.5944
▁Reyaya	-12.5944
▁Toyi	-12.5944
▁Bazabuloni	-12.5944
▁Umwijima	-12.5944
▁nguhemba	-12.5944
▁ayitange	-12.5945
▁magufi	-12.5945
▁ikampa	-12.5945
▁kumurimbura	-12.5945
▁Pito	-12.5945
▁Mahati	-12.5945
▁yisubiraho	-12.5945
▁Madayi	-12.5945
▁Ahasuwe	-12.5945
▁ubushize	-12.5945
▁Izurahiya	-12.5945
▁amusuzume	-12.5945
▁byandura	-12.5945
▁ntiyamwemere	-12.5945
▁rwinshi	-12.5945
▁umurizo	-12.5945
Abahagari	-12.5945
▁Mulewi	-12.5945
ratigita	-12.5945
havumwe	-12.5945
▁yarabarahiye	-12.5945
▁Yashubu	-12.5945
▁ngusubize	-12.5945
▁itangirira	-12.5945
▁ayambika	-12.5945
amubohera	-12.5945
▁turahindukira	-12.5945
▁Urubyaro	-12.5945
▁uburyohe	-12.5945
▁biyereka	-12.5945
▁uryame	-12.5945
▁Tebe	-12.5945
▁umubyaza	-12.5945
▁akarahira	-12.5945
▁bwerekanye	-12.5945
abanyagitugu	-12.5945
▁Adina	-12.5945
▁bitonze	-12.5945
▁Yategekaga	-12.5945
▁Amababa	-12.5945
▁bavugiriza	-12.5945
▁riteranira	-12.5945
▁Nemuweli	-12.5945
▁amasengesho	-12.5945
ekeshe	-12.5945
▁Kitimu	-12.5945
Eludadi	-12.5946
▁agenga	-12.5946
▁bakifatanya	-12.5946
nimunzanire	-12.5946
▁gusoma	-12.5946
▁tudashobora	-12.5946
zungura	-12.5946
▁Kushani	-12.5946
urudaca	-12.5946
▁ritukura	-12.5946
▁muhanda	-12.5946
▁Azaziya	-12.5946
▁Beraka	-12.5946
▁agatima	-12.5946
▁Urubanza	-12.5946
▁gusahura	-12.5946
▁ObediEdomu	-12.5946
▁arahageze	-12.5946
▁ubumve	-12.5946
▁ukicisha	-12.5946
▁akagucungura	-12.5946
▁bagahaguruka	-12.5946
▁azanyumva	-12.5946
▁umupfumu	-12.5946
impunzi	-12.5946
▁bunini	-12.5946
▁azereka	-12.5947
inzabya	-12.5947
▁Zila	-12.5947
▁ntukajye	-12.5947
▁uyibohe	-12.5947
▁nzahagurukira	-12.5947
▁umucuzi	-12.5947
▁ntibumvire	-12.5947
▁Evi	-12.5947
▁Nzatoranya	-12.5947
▁byiciro	-12.5947
▁Nuhagera	-12.5947
▁ahanura	-12.5947
▁babatuyemo	-12.5947
▁ibyuho	-12.5947
▁Eloti	-12.5947
▁tutazi	-12.5947
▁abiyagirizaho	-12.5947
▁Adiyeli	-12.5947
▁amuzana	-12.5947
▁Ziha	-12.5947
▁Nzamuha	-12.5948
▁kuzimya	-12.5948
▁Abarashi	-12.5948
▁twapfira	-12.5948
▁atabyaye	-12.5948
▁utubuye	-12.5948
▁Abishwe	-12.5948
▁Yoramu	-12.5948
▁Yosu	-12.5948
▁Hamuli	-12.5948
▁batitaye	-12.5948
▁Inkoni	-12.5948
▁akenge	-12.5948
▁mbatsembeho	-12.5948
▁ikabura	-12.5948
▁bwarabaye	-12.5948
▁kwimura	-12.5948
▁yararahiye	-12.5948
▁unshyira	-12.5948
▁yararonkeye	-12.5948
▁bwicwe	-12.5948
yegera	-12.5948
▁yahamaze	-12.5948
▁Uzatange	-12.5948
▁ryakeye	-12.5949
▁Imidugudu	-12.5949
▁yarabyaye	-12.5949
▁uzabaha	-12.5949
▁bamuciriye	-12.5949
▁uzatamba	-12.5949
▁zisaga	-12.5949
▁mwambaye	-12.5949
▁utaraje	-12.5949
▁kumwubakira	-12.5949
yigishe	-12.5949
▁mbanira	-12.5949
▁yahishuri	-12.5949
shongesherez	-12.5949
▁gutegereza	-12.5949
▁buzukuruza	-12.5949
▁barokotse	-12.5949
SI	-12.5949
▁Ashani	-12.595
▁kwandika	-12.595
mwambaro	-12.595
▁tumukorere	-12.595
▁Beyal	-12.595
▁Uruzi	-12.595
ikigore	-12.595
▁Harifu	-12.595
▁Bigita	-12.595
▁basinziriye	-12.595
udusimba	-12.595
▁zoroheje	-12.595
▁gutsindwa	-12.595
▁biki	-12.595
▁azazungu	-12.595
▁ruhame	-12.595
▁banyacyubahiro	-12.5951
▁Yokine	-12.5951
▁ukorerwa	-12.5951
▁Duma	-12.5951
▁biraro	-12.5951
▁ahubutse	-12.5951
▁Arahindukira	-12.5951
▁cyogosha	-12.5951
▁Azatange	-12.5951
▁Shiluhi	-12.5951
▁arabategeka	-12.5951
▁Yehoya	-12.5951
▁bizaguma	-12.5951
pfunditse	-12.5951
▁Arababaza	-12.5951
▁bahambwe	-12.5951
umagaye	-12.5951
nkurahiye	-12.5951
▁Komera	-12.5951
▁ibyagombaga	-12.5952
▁gikoko	-12.5952
▁utwite	-12.5952
Abaheburayokazi	-12.5952
aremeshere	-12.5952
▁uzashyire	-12.5952
nimumuc	-12.5952
▁wiyuhagire	-12.5952
▁Balati	-12.5952
▁byarwo	-12.5952
▁Gederot	-12.5952
▁Ibarura	-12.5952
▁Ntidushobora	-12.5952
▁duteganye	-12.5952
▁kwitegereza	-12.5953
▁yandikira	-12.5953
▁kayira	-12.5953
Meleki	-12.5953
▁ikimwaro	-12.5953
▁Ariyeli	-12.5953
▁barakebwe	-12.5953
▁barazizana	-12.5953
▁Yaribu	-12.5953
▁Inkambi	-12.5953
▁bagituramo	-12.5953
▁nakenera	-12.5953
▁yarasezeranyije	-12.5953
banze	-12.5953
▁kuwu	-12.5953
▁rwageraga	-12.5953
▁Icyako	-12.5954
▁Barabasubiza	-12.5954
▁yakomezaga	-12.5954
▁birukaga	-12.5954
▁Abaririmbyi	-12.5954
▁duhumanye	-12.5954
ikoli	-12.5954
▁yaronse	-12.5954
▁azabiranywa	-12.5954
▁wishimye	-12.5954
▁dufitanye	-12.5954
tunguru	-12.5954
▁yokeje	-12.5954
▁Eliyada	-12.5955
ishavu	-12.5955
▁rirenze	-12.5955
▁Ijoro	-12.5955
▁niruke	-12.5955
▁Beseri	-12.5955
▁bikeri	-12.5955
▁inguma	-12.5955
rayika	-12.5955
▁isura	-12.5956
▁wasabwe	-12.5956
▁Eleyaza	-12.5956
▁bagahindukira	-12.5956
▁batagomba	-12.5956
▁aramusumira	-12.5956
▁impaka	-12.5956
▁Bahamagara	-12.5956
▁azasubire	-12.5957
▁baririmbaga	-12.5957
▁bimutung	-12.5957
▁bagafata	-12.5957
▁incunda	-12.5957
zirikane	-12.5957
▁twigarurira	-12.5957
abahakanyi	-12.5957
▁ibigeragezo	-12.5957
▁barabatatanya	-12.5957
▁bayaminjagira	-12.5957
▁Abiyeli	-12.5957
▁yagwiriye	-12.5957
▁utose	-12.5957
▁aranezerwa	-12.5957
▁mbakize	-12.5957
ubunini	-12.5958
▁urambara	-12.5958
▁yahisemo	-12.5958
turapfa	-12.5958
▁bakarakaza	-12.5958
▁bamubohesha	-12.5958
shagawe	-12.5958
▁azazira	-12.5958
▁nzahana	-12.5958
▁bihagije	-12.5958
▁inturumbutsi	-12.5958
▁twapfuye	-12.5959
▁Uzatera	-12.5959
▁Ahava	-12.5959
▁kigenewe	-12.5959
▁wayoboraga	-12.5959
▁bwerekana	-12.5959
itahire	-12.5959
▁bukaze	-12.5959
▁zifashe	-12.5959
▁nimut	-12.5959
▁utaje	-12.5959
agurwa	-12.596
urabona	-12.596
▁byacuzwe	-12.596
▁ntiyashobora	-12.596
▁nibababaza	-12.596
▁Indogobe	-12.596
▁akirinda	-12.596
▁muzayakurikize	-12.596
▁azagende	-12.596
▁bamanikwa	-12.596
▁azerekana	-12.5961
▁ibikomeye	-12.5961
▁bazarimbuka	-12.5961
▁guhaguruka	-12.5961
▁yishimye	-12.5961
remire	-12.5961
▁bigega	-12.5961
▁bigunira	-12.5961
abyaranye	-12.5961
▁uruziga	-12.5961
▁batagombaga	-12.5962
▁kwishima	-12.5962
▁yarigaruriye	-12.5962
▁kuririmbira	-12.5962
ingoga	-12.5962
▁rikimara	-12.5962
fashijwe	-12.5962
▁mwabaye	-12.5962
▁Mowa	-12.5962
▁zahunze	-12.5962
icyokere	-12.5962
▁yarakaye	-12.5963
▁kirangiye	-12.5963
▁mukayakurikiza	-12.5963
▁uragera	-12.5964
▁kubateza	-12.5964
▁muzagengw	-12.5964
▁cyafashwe	-12.5964
▁rukikije	-12.5964
▁kuyibona	-12.5964
▁waduhaye	-12.5964
▁ubukuru	-12.5965
▁ntiyashatse	-12.5965
▁cyanduye	-12.5965
▁zimubwire	-12.5965
ibasirwa	-12.5965
▁tugere	-12.5965
kaguha	-12.5965
▁ufatwa	-12.5965
zerano	-12.5965
▁uzakiza	-12.5965
▁yarihumanyije	-12.5965
ntuzabura	-12.5966
▁Puri	-12.5966
▁ikorerwa	-12.5966
▁basobanukirwa	-12.5966
▁nzagusang	-12.5966
▁igisekuru	-12.5966
▁yamutumye	-12.5966
▁badakomeza	-12.5966
▁kunyumvira	-12.5966
▁bibyimba	-12.5967
▁ibyerekeye	-12.5967
▁yamennye	-12.5967
▁amabya	-12.5967
▁mwateye	-12.5967
▁kumwinginga	-12.5967
▁rungana	-12.5967
▁amucire	-12.5968
hobowamu	-12.5968
▁uzabahe	-12.5968
koni	-12.5968
▁ubaburira	-12.5968
▁twebwe	-12.5968
tuzakora	-12.5968
▁akamufata	-12.5968
▁kunezerwa	-12.5968
rukanye	-12.5969
▁gukoranya	-12.5969
▁akugirire	-12.5969
▁wanteye	-12.5969
▁nturakar	-12.5969
▁cyirabura	-12.5969
▁Bacira	-12.5969
imiraba	-12.597
▁gicani	-12.597
▁zityo	-12.597
twacumuye	-12.597
▁abarusha	-12.597
▁wantegetse	-12.597
yakini	-12.5971
umuhanda	-12.5971
▁umukiza	-12.5972
▁guhorerwa	-12.5972
ameleki	-12.5972
▁Rehobo	-12.5972
▁azohereza	-12.5972
▁Abyumvise	-12.5973
▁yak	-12.5973
▁Noba	-12.5973
▁nzamwica	-12.5974
▁bwatsi	-12.5974
▁gucya	-12.5974
▁biyimikira	-12.5974
▁baragwa	-12.5975
abamubanjirije	-12.5975
▁atajya	-12.5975
kongera	-12.5975
▁yaduhaye	-12.5975
▁bifitanye	-12.5976
▁ikamar	-12.5976
enyeri	-12.5976
▁babatinya	-12.5977
▁azareba	-12.5978
▁yarakariye	-12.5978
▁basangire	-12.5978
▁basigaranye	-12.5978
▁nyiram	-12.5978
▁mpaka	-12.5979
▁wayihaye	-12.5979
▁Agomba	-12.5979
▁babakikije	-12.598
▁azamera	-12.598
zagikora	-12.598
▁rikwiriye	-12.598
▁bibisi	-12.5981
▁barahagarara	-12.5981
cyifuz	-12.5982
▁hakabaho	-12.5982
nike	-12.5983
▁humvikana	-12.5983
▁sogo	-12.5983
▁tuzaza	-12.5983
sahuwe	-12.5984
▁uboshywe	-12.5984
▁bagitwikiriz	-12.5984
Umwarab	-12.5984
▁dukwiriye	-12.5984
▁banini	-12.5985
▁abakize	-12.5985
▁bagutinye	-12.5985
▁mbavu	-12.5985
▁igihembo	-12.5985
▁Yinjira	-12.5986
▁ukavuga	-12.5987
garukamo	-12.5987
▁ntego	-12.5988
▁bahage	-12.5988
interuro	-12.5988
twageze	-12.5988
▁biyeze	-12.5988
amubwiraga	-12.5989
▁bacukura	-12.5989
▁aturanwa	-12.5989
zabeli	-12.5989
▁biciye	-12.5989
az	-12.599
▁kubibona	-12.599
▁yanyuzemo	-12.599
SO	-12.599
▁ubikora	-12.599
▁abazamo	-12.599
▁kurakara	-12.5991
inyigisho	-12.5991
▁zishyirwa	-12.5991
▁amashyi	-12.5992
▁urwara	-12.5992
nimusubireyo	-12.5992
▁ateranya	-12.5992
▁Masi	-12.5993
▁rwagati	-12.5993
▁umugab	-12.5993
▁yasigaranye	-12.5993
▁yahumbye	-12.5993
▁bamuhe	-12.5993
▁bazavuga	-12.5994
▁rigiye	-12.5995
▁itemba	-12.5995
▁azapfira	-12.5995
▁mbago	-12.5995
▁ikwira	-12.5995
pfundika	-12.5995
▁Hasa	-12.5996
▁basane	-12.5996
▁ukurwa	-12.5996
▁nabahanye	-12.5996
renze	-12.5997
▁banezerewe	-12.5997
hindukiza	-12.5997
▁azambera	-12.5998
▁bibero	-12.5998
▁gihorerwe	-12.5999
▁nzagi	-12.5999
mwimikira	-12.5999
shukashuk	-12.6
▁kuyishyiramo	-12.6
▁akibwira	-12.6
▁bahagurukaga	-12.6
▁Basanga	-12.6
wakomezaga	-12.6001
▁wagaragaje	-12.6001
gukiza	-12.6001
▁asobanura	-12.6001
▁yiboneye	-12.6002
▁kizagire	-12.6002
▁yanyica	-12.6002
▁Nimuhindukir	-12.6002
▁rugara	-12.6002
▁narenzaho	-12.6002
▁barambike	-12.6002
▁bagaragaje	-12.6004
▁bakeneye	-12.6004
▁zimanuka	-12.6005
kayikomeza	-12.6005
▁tuva	-12.6005
akamusanga	-12.6005
mufasha	-12.6005
utumbagira	-12.6005
▁udukw	-12.6005
▁Cyari	-12.6005
▁biboneka	-12.6005
bero	-12.6005
▁azakureho	-12.6006
Ntuki	-12.6006
▁bazarokoka	-12.6006
▁cyuzura	-12.6006
muvugisha	-12.6006
osora	-12.6006
▁kukwica	-12.6007
▁yabibategetse	-12.6007
▁yavuganye	-12.6007
▁ihinda	-12.6008
▁yatoranyijwe	-12.6009
▁bahuye	-12.6009
▁Yaje	-12.601
▁Yesu	-12.601
kingirana	-12.6011
yarateye	-12.6011
izazo	-12.6011
▁Misha	-12.6011
▁babitegetswe	-12.6012
▁abereka	-12.6012
ryamiye	-12.6012
▁bosereza	-12.6012
▁yejejwe	-12.6012
risohore	-12.6013
abareraga	-12.6013
▁akareka	-12.6013
kuvuzeho	-12.6013
▁bazatwar	-12.6013
▁batwazaga	-12.6014
▁ababaruwe	-12.6015
▁Buni	-12.6016
▁arambara	-12.6016
▁muborogo	-12.6016
▁asumba	-12.6017
▁azihesha	-12.6017
umuhumetso	-12.6018
obora	-12.6018
▁izaguha	-12.6018
▁muzakandagi	-12.6019
▁bayijyana	-12.6019
▁bacumuye	-12.6019
mpamba	-12.6019
▁yabisezeranyije	-12.602
▁rimaze	-12.602
▁wubirukan	-12.602
barimbure	-12.6021
▁bworo	-12.6021
▁yagurishije	-12.6022
tomera	-12.6023
akazana	-12.6024
▁yagombye	-12.6027
19–2	-12.6028
ngabano	-12.6028
▁atabasuka	-12.6028
▁Ramo	-12.6028
Abash	-12.6029
▁amuva	-12.6029
oro	-12.6029
▁irimburwa	-12.603
kwigishe	-12.603
▁gasize	-12.603
moko	-12.6031
ibidahumanye	-12.6032
▁kubakorera	-12.6032
▁tuwu	-12.6033
▁Kenaniya	-12.6033
▁babigenzaga	-12.6033
▁Ked	-12.6034
▁yarokora	-12.6035
munyingingire	-12.6035
▁kurangurura	-12.6036
▁kuyubaka	-12.6036
▁abazanira	-12.6037
▁yabasezeranyije	-12.6037
▁asigaranye	-12.6037
▁ibita	-12.6038
▁ngusaba	-12.6038
▁Kiri	-12.6038
▁akinga	-12.6038
▁utanze	-12.6039
▁agahungira	-12.6039
itswe	-12.604
▁nzavuga	-12.6041
▁utega	-12.6043
▁zaha	-12.6043
MO	-12.6044
▁rushobora	-12.6045
▁nkamera	-12.6045
▁kumwita	-12.6046
▁bugarukire	-12.6046
nimunteguri	-12.6047
▁yaraje	-12.6047
yishyiramo	-12.6051
▁yaraku	-12.6051
▁kubabona	-12.6051
▁mutangaze	-12.6052
ihutira	-12.6052
▁aramubwi	-12.6052
bazunguz	-12.6053
ringanize	-12.6053
▁unkorer	-12.6054
▁Ajya	-12.6054
▁Nano	-12.6054
▁wifuje	-12.6054
ntoteza	-12.6055
▁Bagenda	-12.6055
▁azatanga	-12.6056
▁iruha	-12.6056
▁barazaga	-12.6056
▁ntuzasubize	-12.6056
▁bayikorera	-12.6057
▁bizahama	-12.6057
▁batinyaga	-12.6058
basiga	-12.6059
▁wamus	-12.6061
▁yashyizeho	-12.6062
ziyoti	-12.6062
epfo	-12.6063
wiryamir	-12.6063
▁Ntiz	-12.6064
arimbuye	-12.6064
batwara	-12.6065
▁yatwitse	-12.6065
▁wasuzuguye	-12.6065
▁yarangi	-12.6066
▁zijye	-12.6071
unitse	-12.6072
▁izaza	-12.6072
▁Kore	-12.6074
twagiye	-12.6075
igomeka	-12.6076
gapima	-12.6077
ukizengurutse	-12.6077
▁kuzuye	-12.6077
▁Ntibazonger	-12.6078
iririye	-12.6079
▁uhambe	-12.6079
uve	-12.6079
▁bamutumaho	-12.608
atagira	-12.608
rekera	-12.608
▁akababwira	-12.6081
abitaho	-12.6081
▁ibonekera	-12.6082
▁cyavaga	-12.6082
▁mbahaye	-12.6084
▁yahishe	-12.6084
ibitare	-12.6084
▁Bete	-12.6085
banjirije	-12.6085
▁zirimo	-12.6085
▁amufatira	-12.6087
▁bitare	-12.6087
arindwi	-12.6087
imuhagarare	-12.6088
▁abigiriye	-12.6088
▁akageza	-12.6089
bihaye	-12.6089
▁akurusha	-12.609
▁tuzabagere	-12.6093
▁yanyohereje	-12.6093
▁kugaragaza	-12.6093
▁natinyaga	-12.6094
▁ryabaga	-12.6094
akarenga	-12.6095
▁ataka	-12.6095
yicaraho	-12.6096
mufatangwe	-12.6096
byifuz	-12.6096
▁bamutera	-12.6096
▁wakurikiye	-12.6097
▁ntimuga	-12.6097
menyetso	-12.6098
▁ashashe	-12.6098
garukiye	-12.6099
▁aziyuhagire	-12.61
▁adushyira	-12.61
asohoye	-12.6101
kankamira	-12.6101
nimubona	-12.6104
▁nsubire	-12.6104
garure	-12.6107
▁Puti	-12.6107
tangaze	-12.6109
▁mumukorere	-12.6111
apfukamye	-12.6111
48–	-12.6112
bwiriza	-12.6113
▁Seba	-12.6113
▁yabasha	-12.6113
▁ataje	-12.6113
▁akamukubita	-12.6114
▁arabasezerera	-12.6114
vugije	-12.6114
murika	-12.6115
▁bakozwe	-12.6115
ugurisha	-12.6117
▁uzakiryaho	-12.6117
▁umuguriz	-12.6118
▁kir	-12.6118
mwigomeka	-12.6119
▁Yehoj	-12.6119
▁abarinda	-12.6122
▁mukabona	-12.6124
▁zabaga	-12.6124
hambiranya	-12.6126
[...]
